{
  "version": "1.0",
  "truncation": null,
  "padding": null,
  "added_tokens": [
    {
      "id": 0,
      "content": "<|pad|>",
      "single_word": false,
      "lstrip": false,
      "rstrip": false,
      "normalized": false,
      "special": true
    },
    {
      "id": 1,
      "content": "<|unk|>",
      "single_word": false,
      "lstrip": false,
      "rstrip": false,
      "normalized": false,
      "special": true
    },
    {
      "id": 2,
      "content": "<|bos|>",
      "single_word": false,
      "lstrip": false,
      "rstrip": false,
      "normalized": false,
      "special": true
    },
    {
      "id": 3,
      "content": "<|eos|>",
      "single_word": false,
      "lstrip": false,
      "rstrip": false,
      "normalized": false,
      "special": true
    },
    {
      "id": 4,
      "content": "<think>",
      "single_word": false,
      "lstrip": false,
      "rstrip": false,
      "normalized": false,
      "special": true
    },
    {
      "id": 5,
      "content": "</think>",
      "single_word": false,
      "lstrip": false,
      "rstrip": false,
      "normalized": false,
      "special": true
    },
    {
      "id": 6,
      "content": "<|user|>",
      "single_word": false,
      "lstrip": false,
      "rstrip": false,
      "normalized": false,
      "special": true
    },
    {
      "id": 7,
      "content": "<|assistant|>",
      "single_word": false,
      "lstrip": false,
      "rstrip": false,
      "normalized": false,
      "special": true
    }
  ],
  "normalizer": null,
  "pre_tokenizer": {
    "type": "Sequence",
    "pretokenizers": [
      {
        "type": "ByteLevel",
        "add_prefix_space": false,
        "trim_offsets": true,
        "use_regex": true
      },
      {
        "type": "Digits",
        "individual_digits": true
      }
    ]
  },
  "post_processor": null,
  "decoder": {
    "type": "ByteLevel",
    "add_prefix_space": true,
    "trim_offsets": true,
    "use_regex": true
  },
  "model": {
    "type": "BPE",
    "dropout": null,
    "unk_token": "<|unk|>",
    "continuing_subword_prefix": null,
    "end_of_word_suffix": null,
    "fuse_unk": false,
    "byte_fallback": false,
    "ignore_merges": false,
    "vocab": {
      "<|pad|>": 0,
      "<|unk|>": 1,
      "<|bos|>": 2,
      "<|eos|>": 3,
      "<think>": 4,
      "</think>": 5,
      "<|user|>": 6,
      "<|assistant|>": 7,
      "!": 8,
      "\"": 9,
      "#": 10,
      "$": 11,
      "%": 12,
      "&": 13,
      "'": 14,
      "(": 15,
      ")": 16,
      "*": 17,
      "+": 18,
      ",": 19,
      "-": 20,
      ".": 21,
      "/": 22,
      "0": 23,
      "1": 24,
      "2": 25,
      "3": 26,
      "4": 27,
      "5": 28,
      "6": 29,
      "7": 30,
      "8": 31,
      "9": 32,
      ":": 33,
      ";": 34,
      "<": 35,
      "=": 36,
      ">": 37,
      "?": 38,
      "@": 39,
      "A": 40,
      "B": 41,
      "C": 42,
      "D": 43,
      "E": 44,
      "F": 45,
      "G": 46,
      "H": 47,
      "I": 48,
      "J": 49,
      "K": 50,
      "L": 51,
      "M": 52,
      "N": 53,
      "O": 54,
      "P": 55,
      "Q": 56,
      "R": 57,
      "S": 58,
      "T": 59,
      "U": 60,
      "V": 61,
      "W": 62,
      "X": 63,
      "Y": 64,
      "Z": 65,
      "[": 66,
      "\\": 67,
      "]": 68,
      "^": 69,
      "_": 70,
      "`": 71,
      "a": 72,
      "b": 73,
      "c": 74,
      "d": 75,
      "e": 76,
      "f": 77,
      "g": 78,
      "h": 79,
      "i": 80,
      "j": 81,
      "k": 82,
      "l": 83,
      "m": 84,
      "n": 85,
      "o": 86,
      "p": 87,
      "q": 88,
      "r": 89,
      "s": 90,
      "t": 91,
      "u": 92,
      "v": 93,
      "w": 94,
      "x": 95,
      "y": 96,
      "z": 97,
      "{": 98,
      "|": 99,
      "}": 100,
      "~": 101,
      "¡": 102,
      "¢": 103,
      "£": 104,
      "¤": 105,
      "¥": 106,
      "¦": 107,
      "§": 108,
      "¨": 109,
      "©": 110,
      "ª": 111,
      "«": 112,
      "¬": 113,
      "®": 114,
      "¯": 115,
      "°": 116,
      "±": 117,
      "²": 118,
      "³": 119,
      "´": 120,
      "µ": 121,
      "¶": 122,
      "·": 123,
      "¸": 124,
      "¹": 125,
      "º": 126,
      "»": 127,
      "¼": 128,
      "½": 129,
      "¾": 130,
      "¿": 131,
      "À": 132,
      "Á": 133,
      "Â": 134,
      "Ã": 135,
      "Ä": 136,
      "Å": 137,
      "Æ": 138,
      "Ç": 139,
      "È": 140,
      "É": 141,
      "Ê": 142,
      "Ë": 143,
      "Ì": 144,
      "Í": 145,
      "Î": 146,
      "Ï": 147,
      "Ð": 148,
      "Ñ": 149,
      "Ò": 150,
      "Ó": 151,
      "Ô": 152,
      "Õ": 153,
      "Ö": 154,
      "×": 155,
      "Ø": 156,
      "Ù": 157,
      "Ú": 158,
      "Û": 159,
      "Ü": 160,
      "Ý": 161,
      "Þ": 162,
      "ß": 163,
      "à": 164,
      "á": 165,
      "â": 166,
      "ã": 167,
      "ä": 168,
      "å": 169,
      "æ": 170,
      "ç": 171,
      "è": 172,
      "é": 173,
      "ê": 174,
      "ë": 175,
      "ì": 176,
      "í": 177,
      "î": 178,
      "ï": 179,
      "ð": 180,
      "ñ": 181,
      "ò": 182,
      "ó": 183,
      "ô": 184,
      "õ": 185,
      "ö": 186,
      "÷": 187,
      "ø": 188,
      "ù": 189,
      "ú": 190,
      "û": 191,
      "ü": 192,
      "ý": 193,
      "þ": 194,
      "ÿ": 195,
      "Ā": 196,
      "ā": 197,
      "Ă": 198,
      "ă": 199,
      "Ą": 200,
      "ą": 201,
      "Ć": 202,
      "ć": 203,
      "Ĉ": 204,
      "ĉ": 205,
      "Ċ": 206,
      "ċ": 207,
      "Č": 208,
      "č": 209,
      "Ď": 210,
      "ď": 211,
      "Đ": 212,
      "đ": 213,
      "Ē": 214,
      "ē": 215,
      "Ĕ": 216,
      "ĕ": 217,
      "Ė": 218,
      "ė": 219,
      "Ę": 220,
      "ę": 221,
      "Ě": 222,
      "ě": 223,
      "Ĝ": 224,
      "ĝ": 225,
      "Ğ": 226,
      "ğ": 227,
      "Ġ": 228,
      "ġ": 229,
      "Ģ": 230,
      "ģ": 231,
      "Ĥ": 232,
      "ĥ": 233,
      "Ħ": 234,
      "ħ": 235,
      "Ĩ": 236,
      "ĩ": 237,
      "Ī": 238,
      "ī": 239,
      "Ĭ": 240,
      "ĭ": 241,
      "Į": 242,
      "į": 243,
      "İ": 244,
      "ı": 245,
      "Ĳ": 246,
      "ĳ": 247,
      "Ĵ": 248,
      "ĵ": 249,
      "Ķ": 250,
      "ķ": 251,
      "ĸ": 252,
      "Ĺ": 253,
      "ĺ": 254,
      "Ļ": 255,
      "ļ": 256,
      "Ľ": 257,
      "ľ": 258,
      "Ŀ": 259,
      "ŀ": 260,
      "Ł": 261,
      "ł": 262,
      "Ń": 263,
      "Ġt": 264,
      "čĊ": 265,
      "Ġa": 266,
      "he": 267,
      "in": 268,
      "on": 269,
      "re": 270,
      "Ġthe": 271,
      "at": 272,
      "er": 273,
      "Ġs": 274,
      "is": 275,
      "Ġo": 276,
      "Ġc": 277,
      "en": 278,
      "or": 279,
      "it": 280,
      "al": 281,
      "le": 282,
      "Ġw": 283,
      "an": 284,
      "Ġf": 285,
      "ion": 286,
      "Ġp": 287,
      "es": 288,
      "Ġb": 289,
      "Ġof": 290,
      "Ġan": 291,
      "ar": 292,
      "ou": 293,
      "Ġd": 294,
      "Ġm": 295,
      "ing": 296,
      "ed": 297,
      "Ġin": 298,
      "ic": 299,
      "Ġto": 300,
      "ct": 301,
      "om": 302,
      "Ġis": 303,
      "Ġth": 304,
      "Ġ$": 305,
      "Ġand": 306,
      "Ġe": 307,
      "st": 308,
      "Ġn": 309,
      "et": 310,
      "ro": 311,
      "Ġ\\": 312,
      "ent": 313,
      "ve": 314,
      "ra": 315,
      "as": 316,
      "ĠI": 317,
      "ut": 318,
      "im": 319,
      "ot": 320,
      "Ġre": 321,
      "Ġh": 322,
      "Ġl": 323,
      "ation": 324,
      "Ġ(": 325,
      "ll": 326,
      "ig": 327,
      "âĢ": 328,
      "ĠT": 329,
      "ow": 330,
      "ly": 331,
      "##": 332,
      "Ġg": 333,
      "Ġfor": 334,
      "ce": 335,
      "ĠĠ": 336,
      "Ġu": 337,
      "Ġy": 338,
      "qu": 339,
      "se": 340,
      "um": 341,
      "Ġbe": 342,
      "Ġthat": 343,
      "ol": 344,
      "ĠA": 345,
      "ĠS": 346,
      "Ġon": 347,
      "Ġ=": 348,
      "am": 349,
      "if": 350,
      "ul": 351,
      "id": 352,
      "ch": 353,
      "ver": 354,
      "Ġyou": 355,
      "ith": 356,
      "Ġit": 357,
      "Âł": 358,
      "Ġcon": 359,
      "Ġpro": 360,
      "ĠM": 361,
      "ĠC": 362,
      "od": 363,
      "ay": 364,
      "ble": 365,
      "te": 366,
      "ge": 367,
      "$$": 368,
      "..": 369,
      "Ġwith": 370,
      "ate": 371,
      "}{": 372,
      "ction": 373,
      "ĠP": 374,
      "ur": 375,
      "Ġare": 376,
      "Ġv": 377,
      "Ġas": 378,
      "Ġst": 379,
      "Ġex": 380,
      "il": 381,
      "ht": 382,
      "un": 383,
      "Ġ-": 384,
      "ri": 385,
      "Ġat": 386,
      "pl": 387,
      "el": 388,
      "os": 389,
      "Ġwe": 390,
      "Ġwh": 391,
      "ĠThe": 392,
      "ight": 393,
      "Ġthis": 394,
      "Ġcom": 395,
      "--": 396,
      "ĠF": 397,
      "ir": 398,
      "Ġr": 399,
      "est": 400,
      "ple": 401,
      "ter": 402,
      "pe": 403,
      "Ġcan": 404,
      "mat": 405,
      "ist": 406,
      "âĢ¢": 407,
      "rac": 408,
      "iv": 409,
      "ta": 410,
      "Ġde": 411,
      "ĠD": 412,
      "Ġse": 413,
      "ad": 414,
      "ity": 415,
      "Ġor": 416,
      "Ġby": 417,
      "ĠR": 418,
      "_{": 419,
      "ave": 420,
      "ac": 421,
      "ure": 422,
      "nd": 423,
      "ore": 424,
      "her": 425,
      "frac": 426,
      "per": 427,
      "Ġnot": 428,
      "ld": 429,
      "Ġ$$": 430,
      "ke": 431,
      "ine": 432,
      "and": 433,
      "ĠB": 434,
      "ive": 435,
      "int": 436,
      "pt": 437,
      "rom": 438,
      "ĠH": 439,
      "ber": 440,
      "ĠE": 441,
      "ĠĠĠĠ": 442,
      "ant": 443,
      "ren": 444,
      "Ġsu": 445,
      "ĠW": 446,
      "ĠL": 447,
      "{\\": 448,
      "ial": 449,
      "ĠN": 450,
      "us": 451,
      "end": 452,
      "ment": 453,
      "Ġdo": 454,
      "art": 455,
      "Ġ$\\": 456,
      "res": 457,
      "Ġal": 458,
      "}$": 459,
      "Ġ+": 460,
      "em": 461,
      "ill": 462,
      "Ġhave": 463,
      "ould": 464,
      "th": 465,
      "pp": 466,
      "fe": 467,
      "ft": 468,
      "Ġus": 469,
      "Ġne": 470,
      "ph": 471,
      "Ġfrom": 472,
      "ical": 473,
      "math": 474,
      "^{": 475,
      "ĠG": 476,
      "ies": 477,
      "Ġsh": 478,
      "ich": 479,
      "Ġpo": 480,
      "Ġme": 481,
      "ome": 482,
      "Ġx": 483,
      "here": 484,
      "oc": 485,
      "ult": 486,
      "ions": 487,
      "ue": 488,
      "xt": 489,
      "og": 490,
      "ind": 491,
      "ab": 492,
      "Ġma": 493,
      "ĠO": 494,
      "Ġch": 495,
      "ĠâĢ": 496,
      "}\\": 497,
      "iz": 498,
      "Ġequ": 499,
      "Ġk": 500,
      "orm": 501,
      "Ġnum": 502,
      "unction": 503,
      "ations": 504,
      "Ġqu": 505,
      "right": 506,
      "The": 507,
      "ers": 508,
      "able": 509,
      "Ġle": 510,
      "###": 511,
      "ust": 512,
      "Ġif": 513,
      "ĠJ": 514,
      "act": 515,
      "'s": 516,
      "feren": 517,
      "oo": 518,
      "ag": 519,
      "Ġ\"": 520,
      "Ġwhich": 521,
      "ans": 522,
      "Ġall": 523,
      "Ġnumber": 524,
      "ated": 525,
      "ile": 526,
      "Ġtr": 527,
      "ener": 528,
      "du": 529,
      "put": 530,
      "Ġab": 531,
      "ess": 532,
      "Ġfunction": 533,
      "hen": 534,
      "Ġ'": 535,
      "ang": 536,
      "ĠTh": 537,
      "age": 538,
      "Ġbut": 539,
      "ps": 540,
      "ample": 541,
      "ect": 542,
      "Ġone": 543,
      "ĠIn": 544,
      "to": 545,
      "Ġ{": 546,
      ")$": 547,
      "our": 548,
      "...": 549,
      ").": 550,
      "----": 551,
      "left": 552,
      "ite": 553,
      "Ġwill": 554,
      "ase": 555,
      "),": 556,
      "rou": 557,
      "ens": 558,
      "ud": 559,
      "Ġ[": 560,
      "ide": 561,
      "Ġco": 562,
      "ard": 563,
      "ame": 564,
      "ks": 565,
      "Ġmat": 566,
      "ort": 567,
      "ass": 568,
      "âĢĻ": 569,
      "Ġval": 570,
      "all": 571,
      "out": 572,
      "red": 573,
      "ma": 574,
      "Ġso": 575,
      "Ġun": 576,
      "Ġres": 577,
      "ack": 578,
      "ast": 579,
      "ach": 580,
      "ution": 581,
      "ther": 582,
      "ime": 583,
      "Ġsol": 584,
      "Ġwor": 585,
      "wo": 586,
      "ari": 587,
      "ace": 588,
      "ition": 589,
      "ally": 590,
      "Ġthere": 591,
      "Ġdif": 592,
      "Ġthen": 593,
      "ie": 594,
      "}}": 595,
      "Ġj": 596,
      "Ġcl": 597,
      "Ġ&": 598,
      "ign": 599,
      "Ġyour": 600,
      "Ġim": 601,
      "ance": 602,
      "Ġsome": 603,
      "'t": 604,
      "Ġsp": 605,
      "ff": 606,
      "Ġout": 607,
      "ence": 608,
      "Ġuse": 609,
      "Ġhe": 610,
      "ond": 611,
      "blem": 612,
      "ary": 613,
      "ous": 614,
      "Ġhas": 615,
      "ong": 616,
      "ode": 617,
      "Ġtwo": 618,
      "ĠâĢĵ": 619,
      "erm": 620,
      "ics": 621,
      "text": 622,
      "Ġany": 623,
      "Ġpl": 624,
      "Ġinte": 625,
      "form": 626,
      "Ġset": 627,
      "ost": 628,
      "so": 629,
      "ree": 630,
      "now": 631,
      "Ġ.": 632,
      "rt": 633,
      "ĠV": 634,
      "Ġad": 635,
      "ĠU": 636,
      "Ġ:": 637,
      "Ġli": 638,
      "ry": 639,
      "ound": 640,
      "oll": 641,
      "Ġcomp": 642,
      "Ġpoint": 643,
      "Ġpart": 644,
      "les": 645,
      "ub": 646,
      "ric": 647,
      "Ġdifferen": 648,
      "ys": 649,
      "ject": 650,
      "ru": 651,
      "de": 652,
      "eth": 653,
      "fin": 654,
      "Ġper": 655,
      "irst": 656,
      "Ġver": 657,
      "hat": 658,
      "Ġsy": 659,
      "$.": 660,
      "ors": 661,
      "Ġform": 662,
      "Ġwould": 663,
      "cl": 664,
      "av": 665,
      "Ġob": 666,
      "__": 667,
      "Ġsim": 668,
      "ress": 669,
      "ata": 670,
      "we": 671,
      "ĠK": 672,
      "rm": 673,
      "Ġi": 674,
      "Ġspe": 675,
      "Ġget": 676,
      "Ġproblem": 677,
      "ĠY": 678,
      "ollow": 679,
      "Ġmod": 680,
      "Ġwas": 681,
      "**": 682,
      "the": 683,
      "Ġpos": 684,
      "Ġhow": 685,
      "are": 686,
      "Ġmore": 687,
      "one": 688,
      "tain": 689,
      "row": 690,
      "Ġwhat": 691,
      "ents": 692,
      "cc": 693,
      "king": 694,
      "Ġbet": 695,
      "ĠRe": 696,
      "Ġusing": 697,
      "ip": 698,
      "oun": 699,
      "ular": 700,
      "rib": 701,
      "ord": 702,
      "Ġsc": 703,
      "ain": 704,
      "Ġgiv": 705,
      "Ġfollow": 706,
      "Ġwhen": 707,
      "Ġthan": 708,
      "estion": 709,
      "Ġele": 710,
      "gh": 711,
      "Ġknow": 712,
      "$,": 713,
      "Ġup": 714,
      "Ġcal": 715,
      "ose": 716,
      "In": 717,
      "ates": 718,
      "mathb": 719,
      "(\\": 720,
      "Ġother": 721,
      "ram": 722,
      "Ġtime": 723,
      "=\\": 724,
      "com": 725,
      "Ġlike": 726,
      "Ġgener": 727,
      "Ġvari": 728,
      "ap": 729,
      "ĠIf": 730,
      "Ġinteg": 731,
      "vel": 732,
      "Ġ$$\\": 733,
      "Ġam": 734,
      "ĠĠĠĠĠĠĠĠ": 735,
      "Ġsub": 736,
      "ory": 737,
      "sum": 738,
      "ĠThis": 739,
      "sw": 740,
      "Th": 741,
      "Ġonly": 742,
      "plic": 743,
      "dot": 744,
      "Ġcor": 745,
      "ire": 746,
      "ative": 747,
      "Ġmy": 748,
      "Ġen": 749,
      "Ġ|": 750,
      "ces": 751,
      "Ġfirst": 752,
      "Ġneed": 753,
      "Ġline": 754,
      "Ġapp": 755,
      "use": 756,
      "Ġvalue": 757,
      "Ġeach": 758,
      "Ġwhere": 759,
      "Ġsame": 760,
      "Ġabout": 761,
      "Ġdist": 762,
      "Ġdifferent": 763,
      "Ġinter": 764,
      "eg": 765,
      "Ġdis": 766,
      "Ġdoes": 767,
      "Ġgo": 768,
      "Ġfind": 769,
      "op": 770,
      "ont": 771,
      "Ġte": 772,
      "ak": 773,
      "Ġno": 774,
      "imes": 775,
      "Ġexample": 776,
      "Ġcont": 777,
      "####": 778,
      "ays": 779,
      "ov": 780,
      "ath": 781,
      "si": 782,
      "Ġalso": 783,
      "ove": 784,
      "}$$": 785,
      "Ġman": 786,
      "cul": 787,
      "Ġtrans": 788,
      "ĠIt": 789,
      "low": 790,
      "qrt": 791,
      "ient": 792,
      "ice": 793,
      "ween": 794,
      "Ġev": 795,
      "Ġar": 796,
      "stem": 797,
      "ator": 798,
      "ility": 799,
      "Ġbetween": 800,
      "Ġpre": 801,
      "ating": 802,
      "Ġloo": 803,
      "Ġjust": 804,
      "Ġ>": 805,
      "ink": 806,
      "ĠQ": 807,
      "ec": 808,
      "Ġshould": 809,
      "nder": 810,
      "Ġshow": 811,
      "$\\": 812,
      "Ġconst": 813,
      "Ġresult": 814,
      "ne": 815,
      "Ġexp": 816,
      "ds": 817,
      "Ġdata": 818,
      "iew": 819,
      "Ġequation": 820,
      "ĠWe": 821,
      "pend": 822,
      "cre": 823,
      "Ġansw": 824,
      ");": 825,
      "ize": 826,
      "Ġgiven": 827,
      "Ġ<": 828,
      "Ġused": 829,
      "its": 830,
      "der": 831,
      "ĠAn": 832,
      "ss": 833,
      "sqrt": 834,
      "Ġro": 835,
      "ia": 836,
      "}{\\": 837,
      "ange": 838,
      "Ġwr": 839,
      "play": 840,
      "port": 841,
      "raph": 842,
      "Ġits": 843,
      "Ġover": 844,
      "ues": 845,
      "line": 846,
      "pi": 847,
      "yle": 848,
      "Ġz": 849,
      "ise": 850,
      "ethod": 851,
      "ual": 852,
      "--------": 853,
      "Ġadd": 854,
      "iel": 855,
      "oth": 856,
      ")\\": 857,
      "Ġquestion": 858,
      "ear": 859,
      "Ġinto": 860,
      "Ġfile": 861,
      "==": 862,
      "Ġsuch": 863,
      "ater": 864,
      "ause": 865,
      "ments": 866,
      "urn": 867,
      "Ġunder": 868,
      "Ġsee": 869,
      "pect": 870,
      "irc": 871,
      "pr": 872,
      "Ġthey": 873,
      "led": 874,
      "ex": 875,
      "rix": 876,
      "ffic": 877,
      "sin": 878,
      "ib": 879,
      "ons": 880,
      "//": 881,
      "ature": 882,
      "Ġrel": 883,
      "Ġprodu": 884,
      "Ġpar": 885,
      "rad": 886,
      "ĠFor": 887,
      "ied": 888,
      "bab": 889,
      "cdot": 890,
      "Ġdes": 891,
      "Ġpa": 892,
      "mathrm": 893,
      "angle": 894,
      "ĠZ": 895,
      "Ġ...": 896,
      "ray": 897,
      "Ġbas": 898,
      "Ġdet": 899,
      "ĠX": 900,
      "Ġ}": 901,
      "Ġed": 902,
      "Ġcomple": 903,
      "Ġfollowing": 904,
      "ck": 905,
      "cos": 906,
      "ption": 907,
      "Ġnon": 908,
      "Ġthese": 909,
      "ĠPro": 910,
      "Ġcur": 911,
      "ake": 912,
      "ting": 913,
      "Ġbec": 914,
      "style": 915,
      "Ġmult": 916,
      "olog": 917,
      "ix": 918,
      "Ġap": 919,
      "Ġcomm": 920,
      "ĠSt": 921,
      "ep": 922,
      "ug": 923,
      "hemat": 924,
      "ÂłÂł": 925,
      "eng": 926,
      "ract": 927,
      "This": 928,
      "Ġ,": 929,
      "dis": 930,
      "Ġdefin": 931,
      "Ġanswer": 932,
      "Ġcalcul": 933,
      "ific": 934,
      "Ġsystem": 935,
      "Ġmodel": 936,
      "Ġterm": 937,
      "pro": 938,
      "))": 939,
      "cal": 940,
      "Ġag": 941,
      "ctor": 942,
      "Ġspec": 943,
      "xim": 944,
      "sion": 945,
      "Ġwant": 946,
      "asure": 947,
      "set": 948,
      "ral": 949,
      "very": 950,
      "arg": 951,
      "cess": 952,
      "inal": 953,
      "Ġcode": 954,
      "gy": 955,
      "Ġdon": 956,
      "ci": 957,
      "Ġwork": 958,
      "Ġinst": 959,
      "fore": 960,
      "playstyle": 961,
      "val": 962,
      "Ġhere": 963,
      "Ġgrou": 964,
      "Ġph": 965,
      "Ġcons": 966,
      "Ġtri": 967,
      "Ġway": 968,
      "ĠEx": 969,
      "Ġsec": 970,
      ")(": 971,
      "ick": 972,
      "ĠHow": 973,
      "ull": 974,
      "Ġcomput": 975,
      "ail": 976,
      "Ġfact": 977,
      "âĢĿ": 978,
      "Ġappro": 979,
      "ian": 980,
      "ning": 981,
      "ough": 982,
      "Ġcase": 983,
      "Ġmay": 984,
      "Ġsolution": 985,
      "ince": 986,
      "lo": 987,
      "Ġty": 988,
      "},": 989,
      "Ġpr": 990,
      "Ġreg": 991,
      "Ġprobab": 992,
      "Ġfe": 993,
      "arrow": 994,
      "pos": 995,
      "err": 996,
      "Ġmethod": 997,
      "mathbb": 998,
      "ĠCom": 999,
      "Ġvariable": 1000,
      "Ġmin": 1001,
      "Ġmake": 1002,
      "pha": 1003,
      "app": 1004,
      "Ġnew": 1005,
      "Ġthem": 1006,
      "ount": 1007,
      "Ġact": 1008,
      "for": 1009,
      "Ġcorre": 1010,
      "rent": 1011,
      "resent": 1012,
      "ole": 1013,
      "^{-": 1014,
      "displaystyle": 1015,
      "che": 1016,
      "over": 1017,
      "Ġsm": 1018,
      "Ġcould": 1019,
      "Ġbecause": 1020,
      "omet": 1021,
      "Ġhel": 1022,
      "egin": 1023,
      "ĠCh": 1024,
      "}^": 1025,
      "ings": 1026,
      "Ġmeasure": 1027,
      "ithm": 1028,
      "ser": 1029,
      "Ġve": 1030,
      "ĠâĢľ": 1031,
      "Ġnumbers": 1032,
      "Ġclass": 1033,
      "ength": 1034,
      "ym": 1035,
      "ument": 1036,
      "begin": 1037,
      "olum": 1038,
      "Ġ\\\\": 1039,
      "igh": 1040,
      "amet": 1041,
      "ically": 1042,
      "bra": 1043,
      "Ġstud": 1044,
      "ruct": 1045,
      "Ġmany": 1046,
      "ower": 1047,
      "enc": 1048,
      "Ġrec": 1049,
      "ension": 1050,
      "sible": 1051,
      "'m": 1052,
      "formation": 1053,
      "ĠQu": 1054,
      "Ġvery": 1055,
      "tt": 1056,
      "energy": 1057,
      "uch": 1058,
      "Ġser": 1059,
      "Ġacc": 1060,
      "Ġsign": 1061,
      "itt": 1062,
      "ĠAl": 1063,
      "gebra": 1064,
      "If": 1065,
      "fter": 1066,
      "yn": 1067,
      "sc": 1068,
      "}^{": 1069,
      ")=": 1070,
      "Ġrep": 1071,
      "Ġelect": 1072,
      "Ġerr": 1073,
      "Ġobject": 1074,
      "Ġsecond": 1075,
      "Ġpartic": 1076,
      ")^": 1077,
      "ced": 1078,
      "âĪ": 1079,
      "....": 1080,
      "Ġmean": 1081,
      "ield": 1082,
      "action": 1083,
      "Ġchar": 1084,
      "of": 1085,
      "ox": 1086,
      "ote": 1087,
      "Ġright": 1088,
      "Ġspace": 1089,
      "wor": 1090,
      "ĠWhat": 1091,
      "Ġvalues": 1092,
      "Ġstate": 1093,
      "fect": 1094,
      "alpha": 1095,
      "}_{": 1096,
      "Ġevery": 1097,
      "Ġabove": 1098,
      "ell": 1099,
      "lect": 1100,
      "Ġcontain": 1101,
      "Ġorder": 1102,
      "itive": 1103,
      "Ġenergy": 1104,
      "Ġanal": 1105,
      "Ġequations": 1106,
      "ook": 1107,
      "Ġprov": 1108,
      "Ġac": 1109,
      "Ġbl": 1110,
      "elta": 1111,
      "par": 1112,
      "Ġ{\\": 1113,
      "Ġboth": 1114,
      "pert": 1115,
      "ik": 1116,
      "Ġ*": 1117,
      "Ġtest": 1118,
      ")$$": 1119,
      "ually": 1120,
      "-\\": 1121,
      "Ġfunctions": 1122,
      "Ġhy": 1123,
      "****": 1124,
      "Ġdistrib": 1125,
      "ever": 1126,
      "],": 1127,
      "Ġequal": 1128,
      "Ġhelp": 1129,
      "Ġsur": 1130,
      "):": 1131,
      "gor": 1132,
      "Ġdire": 1133,
      "ict": 1134,
      "Ġpost": 1135,
      "theta": 1136,
      "up": 1137,
      "Ġsum": 1138,
      "Ġthink": 1139,
      "cept": 1140,
      "Ġmulti": 1141,
      "Ġoper": 1142,
      "ident": 1143,
      "fficient": 1144,
      "Ġtry": 1145,
      "}}{": 1146,
      "vi": 1147,
      "ute": 1148,
      "Ġtop": 1149,
      "andom": 1150,
      "Ġtheir": 1151,
      "Ġlim": 1152,
      "orem": 1153,
      "ages": 1154,
      "eta": 1155,
      "ization": 1156,
      "part": 1157,
      "}(": 1158,
      "Ġinv": 1159,
      "turn": 1160,
      "Ġconver": 1161,
      "Ġdec": 1162,
      "ference": 1163,
      "Ġgeneral": 1164,
      "ob": 1165,
      "Ġcirc": 1166,
      "Ġem": 1167,
      "ormal": 1168,
      "mathbf": 1169,
      "own": 1170,
      "clud": 1171,
      "ĠMat": 1172,
      "tern": 1173,
      "ider": 1174,
      "Ġformul": 1175,
      "____": 1176,
      ",\\": 1177,
      "Ġche": 1178,
      "Ġbound": 1179,
      "ential": 1180,
      "ĠYou": 1181,
      "ational": 1182,
      "Ġreal": 1183,
      "://": 1184,
      "con": 1185,
      "eb": 1186,
      "ify": 1187,
      "ish": 1188,
      "âĢĵ": 1189,
      "#####": 1190,
      "Ġdiv": 1191,
      "aces": 1192,
      "ank": 1193,
      "old": 1194,
      "Ġstr": 1195,
      "Ġpossible": 1196,
      "ities": 1197,
      "estions": 1198,
      "ĠSo": 1199,
      "ron": 1200,
      "ĠÂ": 1201,
      "vers": 1202,
      "$$\\": 1203,
      "Ġend": 1204,
      "Ġcorrect": 1205,
      "Ġmust": 1206,
      "Ġwell": 1207,
      "Ġrun": 1208,
      "Ġ#": 1209,
      "ild": 1210,
      "AT": 1211,
      "times": 1212,
      "ĠMay": 1213,
      "Ġmatrix": 1214,
      "io": 1215,
      "other": 1216,
      "oint": 1217,
      "Ġnow": 1218,
      "rough": 1219,
      "ero": 1220,
      "stand": 1221,
      "utions": 1222,
      "Ġgraph": 1223,
      "ved": 1224,
      "ism": 1225,
      "Ġest": 1226,
      "Ġder": 1227,
      "bl": 1228,
      "Ġext": 1229,
      ".,": 1230,
      "fty": 1231,
      "Ġpoints": 1232,
      "ubl": 1233,
      "Ġlinear": 1234,
      "view": 1235,
      "Ġloc": 1236,
      "Ġdesc": 1237,
      "Ġint": 1238,
      "Ġrequ": 1239,
      "Ġlist": 1240,
      "Ġsequ": 1241,
      "ark": 1242,
      "igma": 1243,
      "Ġexpl": 1244,
      "infty": 1245,
      "ases": 1246,
      "Ġtake": 1247,
      "Ġdef": 1248,
      "Ġinput": 1249,
      "Ġsing": 1250,
      "Ġmuch": 1251,
      "ined": 1252,
      "Ġdi": 1253,
      "ho": 1254,
      "ane": 1255,
      "Ġthree": 1256,
      "ression": 1257,
      "equ": 1258,
      "Ġste": 1259,
      "\",": 1260,
      "Ġang": 1261,
      "Ġread": 1262,
      "ĠUn": 1263,
      "Ġsupp": 1264,
      "Ġparamet": 1265,
      "face": 1266,
      "read": 1267,
      "Ġpack": 1268,
      "Ġstart": 1269,
      "ysis": 1270,
      "For": 1271,
      "ines": 1272,
      "Ġthrough": 1273,
      "Ġbeen": 1274,
      "Ġinde": 1275,
      "ized": 1276,
      "ax": 1277,
      "Ġlong": 1278,
      "Ġ/": 1279,
      "Ġsqu": 1280,
      "Ġarea": 1281,
      "Ġvector": 1282,
      "Ġfl": 1283,
      "Ġmass": 1284,
      "Ġmeans": 1285,
      "ology": 1286,
      "%%": 1287,
      "not": 1288,
      "Ġfin": 1289,
      "Ġassum": 1290,
      "Ġour": 1291,
      "Ġoutput": 1292,
      "gram": 1293,
      "Ġcent": 1294,
      "Ġent": 1295,
      "rest": 1296,
      "ometh": 1297,
      "omething": 1298,
      "Ġsample": 1299,
      "uth": 1300,
      "Ġeven": 1301,
      "arge": 1302,
      "igure": 1303,
      "We": 1304,
      "rightarrow": 1305,
      "Ġerror": 1306,
      "ier": 1307,
      "ilar": 1308,
      "ward": 1309,
      "Ġmost": 1310,
      "Ġback": 1311,
      "imension": 1312,
      "Ġlog": 1313,
      "lim": 1314,
      "ĠÂł": 1315,
      "Ġafter": 1316,
      "olution": 1317,
      "An": 1318,
      "cent": 1319,
      "Ġexist": 1320,
      "partial": 1321,
      "inu": 1322,
      "Ġtra": 1323,
      "ency": 1324,
      "gorithm": 1325,
      "sp": 1326,
      "Ġdepend": 1327,
      "ffect": 1328,
      "Ġ)": 1329,
      "Ġlength": 1330,
      "phi": 1331,
      "array": 1332,
      "Ġwhy": 1333,
      "Ġpaper": 1334,
      "work": 1335,
      "imal": 1336,
      "Ġgroup": 1337,
      "py": 1338,
      "sel": 1339,
      "Ġintegral": 1340,
      "Ġass": 1341,
      "Ġrat": 1342,
      "Ġconstant": 1343,
      "Ġderiv": 1344,
      "Ġ@": 1345,
      "Ġproduct": 1346,
      "Ġmet": 1347,
      "Ġcomplex": 1348,
      "Ġsmall": 1349,
      "net": 1350,
      "Ġprobability": 1351,
      "iqu": 1352,
      "icle": 1353,
      "Ex": 1354,
      "log": 1355,
      "~~": 1356,
      "requ": 1357,
      "Ġinformation": 1358,
      "Ġcond": 1359,
      "Ġwere": 1360,
      "aw": 1361,
      "met": 1362,
      "Ġke": 1363,
      "Ġcre": 1364,
      "ĠDe": 1365,
      "SE": 1366,
      "ner": 1367,
      "Ġforce": 1368,
      "Ġprocess": 1369,
      "Ġdeterm": 1370,
      "()": 1371,
      "pen": 1372,
      "ots": 1373,
      "ĠMath": 1374,
      "dfrac": 1375,
      "ton": 1376,
      "Ġ$(": 1377,
      "Ġdisc": 1378,
      "Ġbu": 1379,
      "ere": 1380,
      "ĠThere": 1381,
      "Ġterms": 1382,
      "orph": 1383,
      "ĠĠĠ": 1384,
      "Ġresults": 1385,
      "Ġind": 1386,
      "rol": 1387,
      "mathcal": 1388,
      "Ġcharact": 1389,
      "bar": 1390,
      "hed": 1391,
      "Ġsince": 1392,
      "Ġbelow": 1393,
      "ified": 1394,
      "col": 1395,
      "sing": 1396,
      "Ġdid": 1397,
      "Ġedit": 1398,
      "Ġestim": 1399,
      "Ġrandom": 1400,
      "ource": 1401,
      "Ġdistribution": 1402,
      "Ġtem": 1403,
      "lease": 1404,
      "ember": 1405,
      "You": 1406,
      "da": 1407,
      "Ġrad": 1408,
      "Ġunderstand": 1409,
      "Ġident": 1410,
      "Ġopt": 1411,
      "anks": 1412,
      "Ġeas": 1413,
      "ctions": 1414,
      "ilon": 1415,
      "Ġsomething": 1416,
      "Ġrate": 1417,
      "andard": 1418,
      "round": 1419,
      "{{": 1420,
      "Ġsay": 1421,
      "Ġrem": 1422,
      "}=": 1423,
      "ĠAs": 1424,
      "psilon": 1425,
      "ynam": 1426,
      "ead": 1427,
      "ful": 1428,
      "gen": 1429,
      "Ġlook": 1430,
      "arch": 1431,
      "Ġgre": 1432,
      "ĠPh": 1433,
      "ock": 1434,
      "+\\": 1435,
      "amb": 1436,
      "Ġfound": 1437,
      "Ġpropert": 1438,
      "\\\\": 1439,
      "tic": 1440,
      "ann": 1441,
      "ason": 1442,
      "Ġexact": 1443,
      "Ġcurrent": 1444,
      "raw": 1445,
      "Ġhigh": 1446,
      "ĠJan": 1447,
      "als": 1448,
      "To": 1449,
      "ars": 1450,
      "und": 1451,
      "bin": 1452,
      "Ġreaction": 1453,
      "Ġbeing": 1454,
      "Ġsingle": 1455,
      "Ġtype": 1456,
      "get": 1457,
      "omial": 1458,
      "Ġ${\\": 1459,
      "Ġhand": 1460,
      "ĠCon": 1461,
      "Ġstill": 1462,
      "Ġalgorithm": 1463,
      "Ġsym": 1464,
      "Ġexper": 1465,
      "ĠBut": 1466,
      "Ġlet": 1467,
      "ordin": 1468,
      "Ġlimit": 1469,
      "Ġpositive": 1470,
      "Ġformula": 1471,
      "Ġconf": 1472,
      "Ġrepresent": 1473,
      ")}": 1474,
      "}$.": 1475,
      "Ġtext": 1476,
      "ule": 1477,
      "ided": 1478,
      "Ġquant": 1479,
      "pond": 1480,
      "ision": 1481,
      "$-": 1482,
      "Ġseries": 1483,
      "Ġtheorem": 1484,
      "ither": 1485,
      "itions": 1486,
      "istic": 1487,
      "bol": 1488,
      "Ġsize": 1489,
      "====": 1490,
      "Ġwave": 1491,
      "Ġincre": 1492,
      "Ġseem": 1493,
      "ves": 1494,
      "aus": 1495,
      "ality": 1496,
      "Ġet": 1497,
      "verse": 1498,
      "</": 1499,
      "St": 1500,
      "Ġfield": 1501,
      "Ġyear": 1502,
      "Ġalgebra": 1503,
      "ides": 1504,
      "Ġorig": 1505,
      "Ġpoly": 1506,
      "Ġsequence": 1507,
      "Ġcol": 1508,
      "let": 1509,
      "Ġsimple": 1510,
      "ructure": 1511,
      "Ġtoo": 1512,
      "Ġbased": 1513,
      "Ġide": 1514,
      "Ġdown": 1515,
      "Ġnormal": 1516,
      "ĠTe": 1517,
      "tex": 1518,
      "Ġcalled": 1519,
      "ng": 1520,
      "Ġzero": 1521,
      "Ġvariables": 1522,
      "ins": 1523,
      "osed": 1524,
      "Ġmathemat": 1525,
      "Ġinterest": 1526,
      "Let": 1527,
      "ĠNe": 1528,
      "Ġperform": 1529,
      "vious": 1530,
      "ON": 1531,
      "Ġoff": 1532,
      "Ġlevel": 1533,
      ".)": 1534,
      "oid": 1535,
      "where": 1536,
      "Ġwhile": 1537,
      "ĠMathemat": 1538,
      "Re": 1539,
      "_{\\": 1540,
      "mu": 1541,
      "Ġ?": 1542,
      "ately": 1543,
      "Ġ--": 1544,
      "mon": 1545,
      "Ġtheory": 1546,
      "raction": 1547,
      "ired": 1548,
      "Ġprogram": 1549,
      "perature": 1550,
      "Ġmath": 1551,
      "plication": 1552,
      "Ġgood": 1553,
      "Ġdirect": 1554,
      "nal": 1555,
      "Ġinclud": 1556,
      "Te": 1557,
      "ten": 1558,
      "wh": 1559,
      "Ġimport": 1560,
      "Ġdistance": 1561,
      "gg": 1562,
      "itial": 1563,
      "Ġgu": 1564,
      "Ġsolve": 1565,
      "Ġproblems": 1566,
      "Ġagain": 1567,
      "ense": 1568,
      "Ġhtt": 1569,
      "uring": 1570,
      "Ġobser": 1571,
      "Ġmight": 1572,
      "ĠLe": 1573,
      "sigma": 1574,
      "Ġexpect": 1575,
      "respond": 1576,
      "rict": 1577,
      "ysics": 1578,
      "self": 1579,
      "str": 1580,
      "$$.": 1581,
      "ript": 1582,
      "ambda": 1583,
      "cle": 1584,
      "dd": 1585,
      "chn": 1586,
      "Ġchange": 1587,
      "me": 1588,
      "ĠFeb": 1589,
      "Ġdoi": 1590,
      "pre": 1591,
      "Ġthose": 1592,
      "Ġapproxim": 1593,
      "Pro": 1594,
      "epsilon": 1595,
      "Ġav": 1596,
      "ĠSh": 1597,
      "Ġcompon": 1598,
      "Ġsimilar": 1599,
      "pendent": 1600,
      "IN": 1601,
      "atic": 1602,
      "Ġfrequ": 1603,
      "ĠTo": 1604,
      "ĠThen": 1605,
      "olumn": 1606,
      "Ġparticular": 1607,
      "inuous": 1608,
      "ault": 1609,
      "Ġnet": 1610,
      "umber": 1611,
      "Ġwithout": 1612,
      "ĠCont": 1613,
      "tage": 1614,
      "ways": 1615,
      "Ġreturn": 1616,
      "Ġpe": 1617,
      "ross": 1618,
      "Ġgive": 1619,
      "Ġless": 1620,
      "rr": 1621,
      "Ġtimes": 1622,
      "align": 1623,
      "Ġelement": 1624,
      "Ġsquare": 1625,
      "(-": 1626,
      "^{\\": 1627,
      "ÃĹ": 1628,
      "pec": 1629,
      "Ġallow": 1630,
      "Ġtrue": 1631,
      "ration": 1632,
      "ving": 1633,
      "Ġstandard": 1634,
      "plit": 1635,
      "Ġmaxim": 1636,
      "Ġwrite": 1637,
      "Ġconsider": 1638,
      "bit": 1639,
      "sub": 1640,
      "ĠIs": 1641,
      "Ġlarge": 1642,
      "----------------": 1643,
      "ST": 1644,
      "Ġsure": 1645,
      "Ġlear": 1646,
      "AR": 1647,
      "eomet": 1648,
      "tal": 1649,
      "Ġâ": 1650,
      "ering": 1651,
      "Ġbefore": 1652,
      "ĠOct": 1653,
      "Ġtemperature": 1654,
      "ible": 1655,
      "ators": 1656,
      "Ġreference": 1657,
      "Ġneg": 1658,
      "ensity": 1659,
      "Ġtyp": 1660,
      "``": 1661,
      "Ġdiff": 1662,
      "Ġdoesn": 1663,
      "arget": 1664,
      "org": 1665,
      "ĠAnd": 1666,
      "amma": 1667,
      "tem": 1668,
      "Ġleast": 1669,
      "Ġcorrespond": 1670,
      "ype": 1671,
      "Ġart": 1672,
      "Ġquestions": 1673,
      "Ġanalysis": 1674,
      "',": 1675,
      "Ġtak": 1676,
      "ased": 1677,
      "Ġsurface": 1678,
      "ga": 1679,
      "ply": 1680,
      "rary": 1681,
      "}}$": 1682,
      "Ġq": 1683,
      "Ġhad": 1684,
      "Ġview": 1685,
      "duct": 1686,
      "ural": 1687,
      "ival": 1688,
      "ĠOr": 1689,
      "ER": 1690,
      "It": 1691,
      "li": 1692,
      "})": 1693,
      "hes": 1694,
      "Ġref": 1695,
      "ĠWh": 1696,
      "ĠOn": 1697,
      "Ġdescrib": 1698,
      "df": 1699,
      "rans": 1700,
      "yl": 1701,
      "$$,": 1702,
      "Ġcharacter": 1703,
      "itle": 1704,
      "Ġanother": 1705,
      "oci": 1706,
      "Ġscal": 1707,
      "Ġfinite": 1708,
      "iment": 1709,
      "Ġreally": 1710,
      "ĠLet": 1711,
      "ourse": 1712,
      "So": 1713,
      "ouble": 1714,
      "ĠJun": 1715,
      "Ġfactor": 1716,
      "Ġcle": 1717,
      "teg": 1718,
      "Ġsolutions": 1719,
      "olume": 1720,
      "nomial": 1721,
      "Ġfree": 1722,
      ")$.": 1723,
      "++": 1724,
      "nect": 1725,
      "wise": 1726,
      "Ġcar": 1727,
      "ott": 1728,
      "ivity": 1729,
      "apter": 1730,
      "oy": 1731,
      "sh": 1732,
      "abel": 1733,
      "ĠĠĠĠĠĠĠĠĠĠĠĠĠĠĠĠ": 1734,
      "How": 1735,
      "ww": 1736,
      "Ġpower": 1737,
      "plied": 1738,
      "roup": 1739,
      "ily": 1740,
      "ern": 1741,
      "ixed": 1742,
      "ules": 1743,
      "Ġproof": 1744,
      "Ġstructure": 1745,
      "Ġ^": 1746,
      "Ġinfin": 1747,
      "usion": 1748,
      "Ġcoe": 1749,
      "ivers": 1750,
      "sol": 1751,
      "ulation": 1752,
      "Ġmain": 1753,
      "ĠZbl": 1754,
      "Ġdefined": 1755,
      "ĠDec": 1756,
      "Ġalways": 1757,
      "lambda": 1758,
      "ĠMe": 1759,
      "Ġdeg": 1760,
      "Ġchang": 1761,
      "Ġangle": 1762,
      "Ġradi": 1763,
      "atist": 1764,
      "Ġshe": 1765,
      "Ġgives": 1766,
      "(\"": 1767,
      "As": 1768,
      "Delta": 1769,
      "Ġopen": 1770,
      "Ġpred": 1771,
      "Ġdifference": 1772,
      ";\\": 1773,
      "ared": 1774,
      "Ġmon": 1775,
      "Ġtotal": 1776,
      "Ġredu": 1777,
      "Ġreason": 1778,
      "dt": 1779,
      "pon": 1780,
      "ven": 1781,
      "Ġtable": 1782,
      "Ġwhe": 1783,
      "ody": 1784,
      "ification": 1785,
      "AN": 1786,
      "ln": 1787,
      "Ġmom": 1788,
      "Ġcheck": 1789,
      "be": 1790,
      "ash": 1791,
      "Ġlight": 1792,
      "ĠPost": 1793,
      "plies": 1794,
      "Ġcoordin": 1795,
      "Ġrespect": 1796,
      "rame": 1797,
      "}_": 1798,
      "Ġ->": 1799,
      "Ġunit": 1800,
      "Ġspaces": 1801,
      "Ġcontrol": 1802,
      "ĠâĪ": 1803,
      "Ġel": 1804,
      "crete": 1805,
      "'re": 1806,
      "iod": 1807,
      "}=\\": 1808,
      "Ġbit": 1809,
      "ĠMar": 1810,
      "'ve": 1811,
      "Ġdig": 1812,
      "âĢ¦": 1813,
      "omega": 1814,
      "Ġspeed": 1815,
      "Ġcontains": 1816,
      "beta": 1817,
      "ople": 1818,
      "Ġinitial": 1819,
      "Ġeffect": 1820,
      "quad": 1821,
      "plement": 1822,
      "}$,": 1823,
      "ĠThat": 1824,
      "orphism": 1825,
      "Ġsa": 1826,
      "kes": 1827,
      "Ġobtain": 1828,
      "Ġpolynomial": 1829,
      "ler": 1830,
      "man": 1831,
      "Ġcourse": 1832,
      "Ġput": 1833,
      "Ġdoc": 1834,
      "Ġ##": 1835,
      "Ġpath": 1836,
      "Ġrema": 1837,
      "ocument": 1838,
      "Ġarg": 1839,
      "Ġwater": 1840,
      "ade": 1841,
      "Ġmag": 1842,
      "angu": 1843,
      "Ġinteger": 1844,
      "Now": 1845,
      "Ġden": 1846,
      "ĠAug": 1847,
      "Ġsufficient": 1848,
      "Ġrot": 1849,
      "Ġra": 1850,
      "Ġdone": 1851,
      "less": 1852,
      "ges": 1853,
      "ness": 1854,
      "iss": 1855,
      "Ġrest": 1856,
      "Ġbeh": 1857,
      "ĠLa": 1858,
      "Ġknown": 1859,
      "Ġminim": 1860,
      "Ġstudy": 1861,
      "********": 1862,
      "What": 1863,
      "mod": 1864,
      "Ġaround": 1865,
      "Ġfull": 1866,
      "Ġpresent": 1867,
      "Ġhapp": 1868,
      "ĠApr": 1869,
      "ĠÂ·": 1870,
      "Ġpackage": 1871,
      "co": 1872,
      "way": 1873,
      "ift": 1874,
      "Ġcommand": 1875,
      "Ġinstead": 1876,
      "'ll": 1877,
      "verage": 1878,
      "atex": 1879,
      "thing": 1880,
      "aving": 1881,
      "Ġdefinition": 1882,
      "ique": 1883,
      "ĠÎ": 1884,
      "ets": 1885,
      "vec": 1886,
      "ĠSep": 1887,
      "Ġconnect": 1888,
      "Ġsepar": 1889,
      "ĠHowever": 1890,
      "ĠNov": 1891,
      "Ġleft": 1892,
      "print": 1893,
      "TeX": 1894,
      "Ġprove": 1895,
      "table": 1896,
      "ournal": 1897,
      "Ġworks": 1898,
      "Ġfollows": 1899,
      "Jo": 1900,
      "Post": 1901,
      "lor": 1902,
      "stit": 1903,
      "ĠCl": 1904,
      "Ġvol": 1905,
      "ude": 1906,
      "\".": 1907,
      "LA": 1908,
      "mer": 1909,
      "Ġimage": 1910,
      "Ġeither": 1911,
      "Ġlast": 1912,
      "Ġrange": 1913,
      "Ġcomplete": 1914,
      "ÂłÂłÂłÂł": 1915,
      "Ġsystems": 1916,
      "Ġpeople": 1917,
      "Ġnegative": 1918,
      "Com": 1919,
      "There": 1920,
      "min": 1921,
      "ences": 1922,
      "inder": 1923,
      "]{": 1924,
      "Ġocc": 1925,
      "ene": 1926,
      "Ġgot": 1927,
      "Ġbetter": 1928,
      "Ġwrong": 1929,
      "position": 1930,
      "imensional": 1931,
      "Ġwhether": 1932,
      "Ġequival": 1933,
      "Ġfiles": 1934,
      "ertain": 1935,
      "Ġflow": 1936,
      "Ġdraw": 1937,
      "ressure": 1938,
      "Ġcommon": 1939,
      "OR": 1940,
      "rho": 1941,
      "}}\\": 1942,
      "}{,": 1943,
      "comm": 1944,
      "Ġmoment": 1945,
      "ium": 1946,
      "Ġ%": 1947,
      "ert": 1948,
      "Ġhig": 1949,
      "ĠCal": 1950,
      "Ġexactly": 1951,
      "^\\": 1952,
      "_\\": 1953,
      "Ġaut": 1954,
      "urther": 1955,
      "Ġcannot": 1956,
      "Ġsugg": 1957,
      "plications": 1958,
      "Ġtrying": 1959,
      ")/": 1960,
      "ape": 1961,
      "dx": 1962,
      "ining": 1963,
      "Ġcolumn": 1964,
      "alle": 1965,
      "Ġlower": 1966,
      "ĠFind": 1967,
      "Ġparameter": 1968,
      "Al": 1969,
      "Ch": 1970,
      "DE": 1971,
      "stract": 1972,
      "Ġelements": 1973,
      "Ġexpression": 1974,
      "Ġstep": 1975,
      "color": 1976,
      "Qu": 1977,
      "rit": 1978,
      "ystem": 1979,
      "Ġcoun": 1980,
      "Ġfigure": 1981,
      "Ġshown": 1982,
      "Ġidea": 1983,
      ")-": 1984,
      "=\"": 1985,
      "by": 1986,
      "rangle": 1987,
      "Ġbook": 1988,
      "Ġcost": 1989,
      "Ġcoll": 1990,
      "Ġpair": 1991,
      "ublic": 1992,
      "Ġseems": 1993,
      "erial": 1994,
      "ĠSe": 1995,
      "ĠSch": 1996,
      "ames": 1997,
      "ocity": 1998,
      "Ġtechn": 1999,
      "Ġaddition": 2000,
      "Ġfew": 2001,
      "Ġproperties": 2002,
      "aking": 2003,
      "Ġside": 2004,
      "Ġdensity": 2005,
      "Ġatom": 2006,
      ")$,": 2007,
      "Ġenough": 2008,
      "Ġeval": 2009,
      "olec": 2010,
      "Ġoriginal": 2011,
      "AL": 2012,
      "ey": 2013,
      "xy": 2014,
      "Ġtag": 2015,
      "Ġweight": 2016,
      "matrix": 2017,
      "Ġappe": 2018,
      "Ġcondition": 2019,
      "name": 2020,
      "Ġpot": 2021,
      "Ġlow": 2022,
      "ĠDo": 2023,
      "ailable": 2024,
      "dro": 2025,
      "document": 2026,
      "ĠSci": 2027,
      "Ġspect": 2028,
      "Ġcalculate": 2029,
      "Ġyears": 2030,
      "Ġpredict": 2031,
      "ood": 2032,
      "rid": 2033,
      "ished": 2034,
      "Ġinc": 2035,
      "ention": 2036,
      "astic": 2037,
      "ological": 2038,
      "leq": 2039,
      "ctors": 2040,
      "Ġthings": 2041,
      "Ġlines": 2042,
      "igg": 2043,
      "Ġproject": 2044,
      "ĠMod": 2045,
      "Ġdiscus": 2046,
      "eq": 2047,
      "ients": 2048,
      "Ġvel": 2049,
      "Ġcard": 2050,
      "Ġiss": 2051,
      "etic": 2052,
      "rodu": 2053,
      "Ġhis": 2054,
      "ields": 2055,
      "ĠProblem": 2056,
      "ET": 2057,
      "side": 2058,
      "Ġsl": 2059,
      "Ġwithin": 2060,
      "ription": 2061,
      "abl": 2062,
      "ĠJul": 2063,
      "Ġsyn": 2064,
      "Ġmaximum": 2065,
      "}{,}{": 2066,
      "Â¶": 2067,
      "inally": 2068,
      "place": 2069,
      "day": 2070,
      "lation": 2071,
      "ring": 2072,
      "Ã©": 2073,
      "Ġname": 2074,
      "section": 2075,
      "itten": 2076,
      "Ġmultiple": 2077,
      "Ġfrequency": 2078,
      "iven": 2079,
      "def": 2080,
      "Ġversion": 2081,
      "%%%%": 2082,
      "]$": 2083,
      "ha": 2084,
      "Ġcall": 2085,
      "Ġpass": 2086,
      "Ġdom": 2087,
      "Ġlangu": 2088,
      "ĠNo": 2089,
      "Ġgoing": 2090,
      "Ġable": 2091,
      "Ġmode": 2092,
      "ively": 2093,
      "Ġindic": 2094,
      "AM": 2095,
      "On": 2096,
      "Ġmot": 2097,
      "ĠAb": 2098,
      "ĠAt": 2099,
      "iff": 2100,
      "chan": 2101,
      "Ġexplain": 2102,
      "Ġsupport": 2103,
      "Ġindependent": 2104,
      "Ġimportant": 2105,
      "Ġcertain": 2106,
      "Ġlo": 2107,
      "Ġvis": 2108,
      "ĠDis": 2109,
      "thon": 2110,
      "ferences": 2111,
      "Ġsets": 2112,
      "Ġtransform": 2113,
      "Ġstatement": 2114,
      "Ġexperiment": 2115,
      "Ġtriangle": 2116,
      "uthor": 2117,
      "delta": 2118,
      "Ġthing": 2119,
      "Ġrule": 2120,
      "ĠWhen": 2121,
      "Ġplane": 2122,
      "Ġmethods": 2123,
      "ittle": 2124,
      "Ġinfinite": 2125,
      "rate": 2126,
      "Ġ`": 2127,
      "inary": 2128,
      "oug": 2129,
      "Ġcome": 2130,
      "Ġadv": 2131,
      "ĠExample": 2132,
      "Ġactually": 2133,
      "Ġdefault": 2134,
      "('": 2135,
      "gin": 2136,
      "orre": 2137,
      "igen": 2138,
      "Ġimplement": 2139,
      "Ġscore": 2140,
      "ails": 2141,
      "Ġapproach": 2142,
      "Ġvelocity": 2143,
      "atch": 2144,
      "Ġfraction": 2145,
      "Ġbase": 2146,
      "Ġgra": 2147,
      "idth": 2148,
      "psi": 2149,
      "ensions": 2150,
      "Ġintegers": 2151,
      "Ġpotential": 2152,
      "SS": 2153,
      "\\{": 2154,
      "Ġsense": 2155,
      "ission": 2156,
      "anation": 2157,
      "Ġperiod": 2158,
      "Ġprec": 2159,
      "ready": 2160,
      "box": 2161,
      "Ġax": 2162,
      "onal": 2163,
      "Ġbi": 2164,
      "Ġsuper": 2165,
      "Ġshows": 2166,
      "Ġevalu": 2167,
      "Ġsat": 2168,
      "ters": 2169,
      "pping": 2170,
      "Ġeng": 2171,
      "Ġdefine": 2172,
      "pack": 2173,
      "onym": 2174,
      "Ġbest": 2175,
      "velop": 2176,
      "Ġdifferential": 2177,
      "ĠAnal": 2178,
      "ird": 2179,
      "ability": 2180,
      "Ġnumer": 2181,
      "Ġmaterial": 2182,
      "nown": 2183,
      "plicit": 2184,
      "Ġderivative": 2185,
      "Ġetc": 2186,
      "iversity": 2187,
      "rite": 2188,
      "Ġfour": 2189,
      "esc": 2190,
      "Ġvolume": 2191,
      "iron": 2192,
      "Ġoccur": 2193,
      "Ġhigher": 2194,
      "RE": 2195,
      "cm": 2196,
      "}+": 2197,
      "Ġfast": 2198,
      "ĠIm": 2199,
      "Ġhour": 2200,
      "ĠAp": 2201,
      "Ġnext": 2202,
      "Ġsimply": 2203,
      "Ġlooking": 2204,
      "________": 2205,
      "tical": 2206,
      "Ġsit": 2207,
      "Ġdel": 2208,
      "Ġmade": 2209,
      "Ġgeomet": 2210,
      "Ġago": 2211,
      "Ġelectr": 2212,
      "Con": 2213,
      "ior": 2214,
      "pa": 2215,
      "point": 2216,
      "}-": 2217,
      "erc": 2218,
      "Ġsource": 2219,
      "Ġalready": 2220,
      "linear": 2221,
      "Ġtried": 2222,
      "Ġinvol": 2223,
      "Ġsymmet": 2224,
      "Ġavailable": 2225,
      "Here": 2226,
      "Ġsays": 2227,
      "Ġinf": 2228,
      "Ġposition": 2229,
      "Ġprevious": 2230,
      "ches": 2231,
      "Ġelectron": 2232,
      "ope": 2233,
      "return": 2234,
      "Ġcount": 2235,
      "Ġlittle": 2236,
      "oose": 2237,
      "aves": 2238,
      "Ġprobably": 2239,
      "Ġequivalent": 2240,
      "lu": 2241,
      "Ġfil": 2242,
      "Ġpage": 2243,
      "Ġpressure": 2244,
      "Ġmov": 2245,
      "Ġthough": 2246,
      "Ġ(\\": 2247,
      "ĠPM": 2248,
      "pty": 2249,
      "Ġdocument": 2250,
      ")}{": 2251,
      "file": 2252,
      "lection": 2253,
      "ĠAr": 2254,
      "Ġpop": 2255,
      "ĠJournal": 2256,
      "Ġtell": 2257,
      "new": 2258,
      "Ġkey": 2259,
      "circ": 2260,
      "Ġaverage": 2261,
      "Ġfixed": 2262,
      "otes": 2263,
      "vert": 2264,
      "ives": 2265,
      "),(": 2266,
      "Ġapply": 2267,
      "Ġflu": 2268,
      "ĠÂłĠÂł": 2269,
      "And": 2270,
      "Ġcases": 2271,
      "Ġwho": 2272,
      "ĠThanks": 2273,
      "Ġconsist": 2274,
      "~~~~": 2275,
      "Ġarticle": 2276,
      "ought": 2277,
      "Ġ####": 2278,
      "Ġtarget": 2279,
      "atural": 2280,
      "Ġcap": 2281,
      "Ġnever": 2282,
      "Ġmap": 2283,
      "Ġsignal": 2284,
      "Ġcircle": 2285,
      "Ġsaid": 2286,
      "length": 2287,
      "ool": 2288,
      "uit": 2289,
      "wn": 2290,
      "Ġdoing": 2291,
      "Ġunits": 2292,
      "Ġplace": 2293,
      "Ġratio": 2294,
      "upp": 2295,
      "ital": 2296,
      "Ġfar": 2297,
      "Ġfinal": 2298,
      "Ġpers": 2299,
      "Ġmolec": 2300,
      "ĠRes": 2301,
      "Ġinterval": 2302,
      "Ġexpress": 2303,
      "Ġrelated": 2304,
      "Ġregular": 2305,
      "Ġstudents": 2306,
      "ĠQuestion": 2307,
      "Ġassoci": 2308,
      "Ġrather": 2309,
      "Ġclear": 2310,
      "DF": 2311,
      "ming": 2312,
      "med": 2313,
      "var": 2314,
      "ĠâĢ¢": 2315,
      "Ġtre": 2316,
      "atter": 2317,
      "ised": 2318,
      "ĠAM": 2319,
      "Ġuseful": 2320,
      "ottom": 2321,
      ")+": 2322,
      "Note": 2323,
      "pot": 2324,
      "iting": 2325,
      "Ġhard": 2326,
      "Ġlarg": 2327,
      "Ġselect": 2328,
      "Ġwritten": 2329,
      "Ġhyper": 2330,
      "Ġlocal": 2331,
      "Ġdiag": 2332,
      "Ġcenter": 2333,
      "ml": 2334,
      "son": 2335,
      "Ġcos": 2336,
      "alf": 2337,
      "Ġpres": 2338,
      "odes": 2339,
      "Ġobjects": 2340,
      "Ġbuild": 2341,
      "Is": 2342,
      "Ġoption": 2343,
      "anc": 2344,
      "Ġplease": 2345,
      "Ġlink": 2346,
      "ĠPre": 2347,
      "Ġdecom": 2348,
      "Ġsem": 2349,
      "Ġedge": 2350,
      ")]": 2351,
      "Sh": 2352,
      "Ġcell": 2353,
      "ited": 2354,
      "Ġtool": 2355,
      "Ġhaving": 2356,
      "Ġask": 2357,
      "ruction": 2358,
      "ched": 2359,
      "overline": 2360,
      "Ġassume": 2361,
      "ĠNew": 2362,
      "which": 2363,
      "Ġhttp": 2364,
      "Ġcorresponding": 2365,
      "CH": 2366,
      "ection": 2367,
      "Ġlot": 2368,
      "veral": 2369,
      "Ġsection": 2370,
      "indow": 2371,
      "Ġmakes": 2372,
      "ector": 2373,
      "Ġspecific": 2374,
      ";\\;\\": 2375,
      "Cl": 2376,
      "Ġpp": 2377,
      "Ġdue": 2378,
      "ĠII": 2379,
      "Ġformat": 2380,
      "Ġvia": 2381,
      "els": 2382,
      "Ġseveral": 2383,
      "ograph": 2384,
      "Ġwords": 2385,
      "ording": 2386,
      "Ġenv": 2387,
      "Ġexpon": 2388,
      "ĠPhysics": 2389,
      "ĠLevel": 2390,
      "Joined": 2391,
      ".$": 2392,
      "isf": 2393,
      "Ġday": 2394,
      "ĠInd": 2395,
      "Ġyet": 2396,
      "ĠSystem": 2397,
      "htt": 2398,
      "class": 2399,
      "Ġsimpl": 2400,
      "Ġneeded": 2401,
      "Ġarray": 2402,
      "Ġhydro": 2403,
      "Ġinvest": 2404,
      "Ġstring": 2405,
      "De": 2406,
      "]:": 2407,
      "Ġfurther": 2408,
      "arl": 2409,
      "Ġworking": 2410,
      "Ġprin": 2411,
      "Ġcomponent": 2412,
      "Ġnetwork": 2413,
      "Ġlearn": 2414,
      "[\\": 2415,
      "celer": 2416,
      "ĠSer": 2417,
      "Ġstates": 2418,
      "Ġcomment": 2419,
      "Ġcombin": 2420,
      "ĠEng": 2421,
      "ĠNow": 2422,
      "Ġword": 2423,
      "Ġrequired": 2424,
      "Ġsuggest": 2425,
      "IP": 2426,
      "na": 2427,
      "Ġtoget": 2428,
      "Ġeigen": 2429,
      "ump": 2430,
      "olds": 2431,
      "Ġiter": 2432,
      "ĠHe": 2433,
      "ĠGener": 2434,
      "comes": 2435,
      "Ġloop": 2436,
      "Ġlooks": 2437,
      "Ġtogether": 2438,
      "data": 2439,
      "with": 2440,
      "Ġ~": 2441,
      "Ġsw": 2442,
      "itch": 2443,
      "ances": 2444,
      "Ġdays": 2445,
      "Ġdimension": 2446,
      "ĠSol": 2447,
      "ife": 2448,
      "Ġconve": 2449,
      "adr": 2450,
      "Ġquite": 2451,
      "Ġenc": 2452,
      "Ġgroups": 2453,
      "Ġtypes": 2454,
      ")=\\": 2455,
      ">>": 2456,
      "SC": 2457,
      "Wh": 2458,
      "|\\": 2459,
      "Ġtherm": 2460,
      "Ġown": 2461,
      "any": 2462,
      "Ġreview": 2463,
      "Ġlaw": 2464,
      "Ġwhole": 2465,
      "Ġparameters": 2466,
      "Ġcreate": 2467,
      "Ġcoordinates": 2468,
      "Ġsatisf": 2469,
      "!!": 2470,
      "och": 2471,
      "Ġbre": 2472,
      "Ġmis": 2473,
      "rag": 2474,
      "Ġitself": 2475,
      "Ġdevelop": 2476,
      "Ġclosed": 2477,
      "Ġroot": 2478,
      "Ġdesign": 2479,
      "ractice": 2480,
      "Ġfeature": 2481,
      "But": 2482,
      "ience": 2483,
      "lt": 2484,
      "Ġcate": 2485,
      "Ġmess": 2486,
      "edia": 2487,
      "ldots": 2488,
      "Ġalong": 2489,
      "Ġkind": 2490,
      "iled": 2491,
      "allen": 2492,
      "Ġplay": 2493,
      "EN": 2494,
      "ii": 2495,
      "riv": 2496,
      "ially": 2497,
      "Ġmatter": 2498,
      "Ġamount": 2499,
      "Ġautom": 2500,
      "')": 2501,
      "When": 2502,
      "air": 2503,
      "book": 2504,
      "alse": 2505,
      "Ġdim": 2506,
      "rier": 2507,
      "bert": 2508,
      "Ġ&=": 2509,
      "rypt": 2510,
      "Ġupd": 2511,
      "Ġexpans": 2512,
      "Ġphase": 2513,
      "Ġeasy": 2514,
      "========": 2515,
      "fer": 2516,
      "oss": 2517,
      "Ġuses": 2518,
      "Ġnecess": 2519,
      "Ġexamples": 2520,
      "Ġadded": 2521,
      "exp": 2522,
      "Ġmodels": 2523,
      "ĠMathematics": 2524,
      "Ġexpected": 2525,
      "onymous": 2526,
      "allenge": 2527,
      "bed": 2528,
      "gamma": 2529,
      "oh": 2530,
      "off": 2531,
      "Ġrow": 2532,
      "ices": 2533,
      "icult": 2534,
      "Ġcontinuous": 2535,
      "sian": 2536,
      "earch": 2537,
      "Ġexists": 2538,
      "Ġargument": 2539,
      "Ġminimum": 2540,
      "pm": 2541,
      "Ġpat": 2542,
      "umer": 2543,
      "amp": 2544,
      "ĠHere": 2545,
      "ĠAlgebra": 2546,
      "Ġconditions": 2547,
      "Ġperformance": 2548,
      "solute": 2549,
      "])": 2550,
      "bal": 2551,
      "sim": 2552,
      "ware": 2553,
      "isions": 2554,
      "ĠSte": 2555,
      "Ġmechan": 2556,
      "max": 2557,
      "Ġplot": 2558,
      "Ġcompute": 2559,
      "Ġboundary": 2560,
      "ĠUniversity": 2561,
      "Right": 2562,
      "au": 2563,
      "roll": 2564,
      "ĠDynam": 2565,
      "inear": 2566,
      "Ġshort": 2567,
      "Ġimpro": 2568,
      "iply": 2569,
      "ĠAlso": 2570,
      "Ġdirection": 2571,
      "Ġgreater": 2572,
      "Ġobserv": 2573,
      "Ġlanguage": 2574,
      "Ġold": 2575,
      "Ġduring": 2576,
      "Ġmatch": 2577,
      "netic": 2578,
      "ips": 2579,
      "ceed": 2580,
      "Ġbel": 2581,
      "Ġquadr": 2582,
      "Ġlib": 2583,
      "Ġanaly": 2584,
      "Ġdecimal": 2585,
      "^*": 2586,
      "known": 2587,
      "Ġcy": 2588,
      "Ġdx": 2589,
      "ĠChe": 2590,
      "ĠCan": 2591,
      "ĠThese": 2592,
      "istance": 2593,
      "Ġuser": 2594,
      "Ġplan": 2595,
      "Ġparts": 2596,
      "Ġproperty": 2597,
      "Ġtakes": 2598,
      ".:": 2599,
      "AC": 2600,
      "bo": 2601,
      "mar": 2602,
      "word": 2603,
      "inant": 2604,
      "ĠSim": 2605,
      "Ġatt": 2606,
      "Ġsearch": 2607,
      "Ġequil": 2608,
      "Ġlead": 2609,
      "Ġrelation": 2610,
      "Ġhttps": 2611,
      "ED": 2612,
      "MAT": 2613,
      "cer": 2614,
      "{(": 2615,
      "ÏĢ": 2616,
      "Ġdat": 2617,
      "Ġnorm": 2618,
      "ĠPl": 2619,
      "ĠPy": 2620,
      "Ġasym": 2621,
      "Ġstra": 2622,
      "ĠOne": 2623,
      "Ġcho": 2624,
      "ĠâĢĶ": 2625,
      "Ġclose": 2626,
      "Ġprovide": 2627,
      "tices": 2628,
      "Ġinteresting": 2629,
      "tempt": 2630,
      "Posts": 2631,
      "*}": 2632,
      "Un": 2633,
      "ah": 2634,
      "Ġframe": 2635,
      "ety": 2636,
      "ĠMy": 2637,
      "Ġexec": 2638,
      "ccess": 2639,
      "Ġcurve": 2640,
      "Ġradius": 2641,
      "allel": 2642,
      "package": 2643,
      "most": 2644,
      "Ġ_{": 2645,
      "Ġsort": 2646,
      "olar": 2647,
      "ament": 2648,
      "Ġproport": 2649,
      "ĠGaus": 2650,
      "Thanks": 2651,
      "Ġanswers": 2652,
      "Ġdetermine": 2653,
      "By": 2654,
      "do": 2655,
      "dimensional": 2656,
      "asing": 2657,
      "ĠTrans": 2658,
      "Ġgrad": 2659,
      "ĠSince": 2660,
      "ilities": 2661,
      "Ġwhose": 2662,
      "though": 2663,
      "Ġhead": 2664,
      "Ġgenerated": 2665,
      "ĠComput": 2666,
      "Ġcomplexity": 2667,
      "riction": 2668,
      "Ġcomponents": 2669,
      "ĠCalcul": 2670,
      "Or": 2671,
      "aim": 2672,
      "sor": 2673,
      "Ġturn": 2674,
      "rel": 2675,
      "Ġsplit": 2676,
      "Ġcm": 2677,
      "Ġfam": 2678,
      "Ġoften": 2679,
      "Ġhor": 2680,
      "plot": 2681,
      "Ġnote": 2682,
      "Ġcompact": 2683,
      "Ġ<-": 2684,
      "........": 2685,
      "Ġquantum": 2686,
      "Ġmathematics": 2687,
      "ĠLaTeX": 2688,
      "Ġissue": 2689,
      "ĠSystems": 2690,
      "({": 2691,
      "();": 2692,
      "::": 2693,
      "Find": 2694,
      "IT": 2695,
      "].": 2696,
      "}}{\\": 2697,
      "Ġ###": 2698,
      "Ġisn": 2699,
      "sec": 2700,
      "ĠMember": 2701,
      "ploy": 2702,
      "aced": 2703,
      "Ġmach": 2704,
      "ustom": 2705,
      "top": 2706,
      "ieve": 2707,
      "Ġsomeone": 2708,
      "Ġpercent": 2709,
      "Ġsche": 2710,
      "Ġbasis": 2711,
      "Ġvectors": 2712,
      "Ġdomain": 2713,
      "back": 2714,
      "gory": 2715,
      "pose": 2716,
      "Ġnatural": 2717,
      "uted": 2718,
      "aylor": 2719,
      "ĠHel": 2720,
      "ĠNumber": 2721,
      "iles": 2722,
      "Ġconstruct": 2723,
      "Ġproduce": 2724,
      "Ġconverg": 2725,
      "Ġalgebraic": 2726,
      "Ġexpansion": 2727,
      "itude": 2728,
      "Ġthought": 2729,
      "Ġconcept": 2730,
      "ideo": 2731,
      "Ġsetting": 2732,
      "fficients": 2733,
      "iki": 2734,
      "Ġoperator": 2735,
      "Ġguess": 2736,
      "OS": 2737,
      "oper": 2738,
      "Ġsent": 2739,
      "Ġbox": 2740,
      "Ġdynam": 2741,
      "Ġ${": 2742,
      "Ġhalf": 2743,
      "map": 2744,
      "rule": 2745,
      "Ġsubt": 2746,
      "}^{\\": 2747,
      "itted": 2748,
      "âĪĴ": 2749,
      "Ġtaken": 2750,
      "like": 2751,
      "bf": 2752,
      "latex": 2753,
      "til": 2754,
      "uation": 2755,
      "Ġbottom": 2756,
      "Ġdouble": 2757,
      "Ġinverse": 2758,
      "utes": 2759,
      "ĠAre": 2760,
      "ĠBy": 2761,
      "ulti": 2762,
      "Ġheat": 2763,
      "Ġrelative": 2764,
      "Ġspecial": 2765,
      "Ġaccount": 2766,
      "Ġcoefficient": 2767,
      "Ġchanges": 2768,
      "atistics": 2769,
      "En": 2770,
      "]]": 2771,
      "ike": 2772,
      "no": 2773,
      "ooth": 2774,
      "vent": 2775,
      "Ġrese": 2776,
      "Ġdev": 2777,
      "ega": 2778,
      "Ġapplied": 2779,
      "Ġcircuit": 2780,
      "equiv": 2781,
      "Ġdirectly": 2782,
      "apt": 2783,
      "dc": 2784,
      "function": 2785,
      "mber": 2786,
      "mission": 2787,
      "ted": 2788,
      "ream": 2789,
      "Ġanonymous": 2790,
      "Ġinequ": 2791,
      "Ġthus": 2792,
      "Ġthird": 2793,
      "ĠSub": 2794,
      "elf": 2795,
      "ĠEd": 2796,
      "ĠEqu": 2797,
      "ended": 2798,
      "Ġgenerate": 2799,
      "Ġneeds": 2800,
      "load": 2801,
      "Ġprint": 2802,
      "Ġintrodu": 2803,
      "Ġkeep": 2804,
      "Ġbehav": 2805,
      "Ġelectrons": 2806,
      "IC": 2807,
      "LE": 2808,
      "vari": 2809,
      "Ġ_": 2810,
      "Ġmark": 2811,
      "Ġbegin": 2812,
      "Ġonce": 2813,
      "iform": 2814,
      "ĠTheory": 2815,
      "ĠEn": 2816,
      "sib": 2817,
      "ibri": 2818,
      "Ġrelations": 2819,
      "Ġchem": 2820,
      "ĠWhy": 2821,
      "Ġelse": 2822,
      "Ġload": 2823,
      "Ġenviron": 2824,
      "\")": 2825,
      "ek": 2826,
      "ires": 2827,
      "nu": 2828,
      "Ġcare": 2829,
      "Ġways": 2830,
      "uments": 2831,
      "Ġattempt": 2832,
      "tau": 2833,
      "Ġshape": 2834,
      "Ġcompar": 2835,
      "Ġupper": 2836,
      "Ġerrors": 2837,
      "Ġoptions": 2838,
      "abla": 2839,
      "Ġassociated": 2840,
      "Ab": 2841,
      "At": 2842,
      "ding": 2843,
      "Ġ//": 2844,
      "Ġtree": 2845,
      "lev": 2846,
      "Ġpick": 2847,
      "arithm": 2848,
      "eter": 2849,
      "rote": 2850,
      "Ġgas": 2851,
      "ĠMethod": 2852,
      "ĠThey": 2853,
      "ĠFirst": 2854,
      "tact": 2855,
      "resh": 2856,
      "ysical": 2857,
      "dots": 2858,
      "Ġnoise": 2859,
      "onsider": 2860,
      "Ġbasic": 2861,
      "Ġphot": 2862,
      "Ġsignific": 2863,
      "Ġacceler": 2864,
      "Ġindex": 2865,
      "www": 2866,
      "Ġengine": 2867,
      "Ġhours": 2868,
      "][": 2869,
      "come": 2870,
      "ken": 2871,
      "Ġcross": 2872,
      "ries": 2873,
      "Ġalone": 2874,
      "abor": 2875,
      "Ġvertices": 2876,
      "usepackage": 2877,
      "Ġblock": 2878,
      "Ġgreat": 2879,
      "ĠScience": 2880,
      "Ġconvex": 2881,
      "Rightarrow": 2882,
      ")*": 2883,
      "MS": 2884,
      "Ph": 2885,
      "but": 2886,
      "langle": 2887,
      "tan": 2888,
      "Ġpric": 2889,
      "Ġball": 2890,
      "Ġmove": 2891,
      "ently": 2892,
      "Ġrece": 2893,
      "Ġring": 2894,
      "ures": 2895,
      "ĠThus": 2896,
      "ĠUsing": 2897,
      "Ġsubstit": 2898,
      "swer": 2899,
      "value": 2900,
      "Ġmathematical": 2901,
      "subset": 2902,
      "Ġdegree": 2903,
      "ibrium": 2904,
      "from": 2905,
      "group": 2906,
      "ling": 2907,
      "lish": 2908,
      "tr": 2909,
      "Ġbo": 2910,
      "Ġlay": 2911,
      "lli": 2912,
      "idual": 2913,
      "Ġworld": 2914,
      "Ġsubset": 2915,
      "Ġdifferenti": 2916,
      "tty": 2917,
      "Example": 2918,
      "Ġcoefficients": 2919,
      "Ġvoltage": 2920,
      ".$$": 2921,
      "af": 2922,
      "az": 2923,
      "bul": 2924,
      "nabla": 2925,
      "range": 2926,
      "{-": 2927,
      "Ġage": 2928,
      "ats": 2929,
      "Ġwrote": 2930,
      "Ġpay": 2931,
      "Ġbody": 2932,
      "Ġdual": 2933,
      "rack": 2934,
      "Ġhowever": 2935,
      "space": 2936,
      "Ġlearning": 2937,
      "Ġconnected": 2938,
      "cs": 2939,
      "ðŁ": 2940,
      "Ġ!": 2941,
      "inter": 2942,
      "Ġsides": 2943,
      "Ġred": 2944,
      "Ġlater": 2945,
      "ĠSc": 2946,
      "ĠSp": 2947,
      "}\\\\": 2948,
      "ferent": 2949,
      "ounds": 2950,
      "Ġprovided": 2951,
      "Ġhypot": 2952,
      "ublished": 2953,
      "Ġrequire": 2954,
      "Ġsymbol": 2955,
      "Ġinclude": 2956,
      "'(": 2957,
      "'d": 2958,
      "ij": 2959,
      "type": 2960,
      "yp": 2961,
      "alk": 2962,
      "ourier": 2963,
      "ask": 2964,
      "Ġhom": 2965,
      "Ġusually": 2966,
      "Ġpretty": 2967,
      "ĠChallenge": 2968,
      "Ġdepends": 2969,
      "Ġassign": 2970,
      "rror": 2971,
      "Ġdiscuss": 2972,
      "ĠAnalysis": 2973,
      "Ġdecomposition": 2974,
      "AB": 2975,
      "EE": 2976,
      "PS": 2977,
      "gan": 2978,
      "}]": 2979,
      "Ġï": 2980,
      "rop": 2981,
      "ĠArt": 2982,
      "Ġproper": 2983,
      "Ġseen": 2984,
      "ĠNot": 2985,
      "ends": 2986,
      "ources": 2987,
      "Ġmeasurement": 2988,
      "Ġdivided": 2989,
      "Ġincrease": 2990,
      "ĠDiscrete": 2991,
      "Ġcapac": 2992,
      "bon": 2993,
      "code": 2994,
      "div": 2995,
      "ref": 2996,
      "Ġsite": 2997,
      "Ġfore": 2998,
      "edu": 2999,
      "utor": 3000,
      "Ġbecomes": 3001,
      "izont": 3002,
      "}}$$": 3003,
      "ĠStud": 3004,
      "Ġparticle": 3005,
      "Ġobtained": 3006,
      "Ġaxis": 3007,
      "/(": 3008,
      "\\,": 3009,
      "label": 3010,
      "pdf": 3011,
      "sis": 3012,
      "Ġsk": 3013,
      "ises": 3014,
      "icro": 3015,
      "Ġ\\,": 3016,
      "ĠĠĠĠĠ": 3017,
      "ĠUse": 3018,
      "Ġapplication": 3019,
      "Ġcharge": 3020,
      "ĠTherefore": 3021,
      "Ġedited": 3022,
      "ponse": 3023,
      "ĠPosted": 3024,
      "Question": 3025,
      "uppose": 3026,
      "gant": 3027,
      "mega": 3028,
      "}(\\": 3029,
      "anced": 3030,
      "Ġmention": 3031,
      "rain": 3032,
      "uler": 3033,
      "Ġdecre": 3034,
      "resents": 3035,
      "Ġinterpre": 3036,
      "ĠAny": 3037,
      "Ġcreated": 3038,
      "ĠContinuous": 3039,
      "dcds": 3040,
      "light": 3041,
      "ran": 3042,
      "test": 3043,
      "âĤ": 3044,
      "reg": 3045,
      "ooks": 3046,
      "Ġtherefore": 3047,
      "}}{{": 3048,
      "Ġstrong": 3049,
      "Ġlogic": 3050,
      "Ġdidn": 3051,
      "Ġapproximation": 3052,
      "cing": 3053,
      "hing": 3054,
      "uff": 3055,
      "what": 3056,
      "Ġir": 3057,
      "Ġaway": 3058,
      "Ġodd": 3059,
      "Ġfund": 3060,
      "Ġbal": 3061,
      "Ġrect": 3062,
      "Ġgen": 3063,
      "ĠAT": 3064,
      "ifferent": 3065,
      "ĠMore": 3066,
      "ĠPr": 3067,
      "omework": 3068,
      "Ġanything": 3069,
      "Ġgetting": 3070,
      "Ġvarious": 3071,
      "Ġparallel": 3072,
      "Ġregard": 3073,
      "Ġrecord": 3074,
      "Ġbounded": 3075,
      "const": 3076,
      "Ġrunning": 3077,
      "Ġrepresentation": 3078,
      "Ġproportion": 3079,
      "Ġenvironment": 3080,
      "ts": 3081,
      "uel": 3082,
      "uck": 3083,
      "arning": 3084,
      "ica": 3085,
      "Ġ(-": 3086,
      "ĠTaylor": 3087,
      "quare": 3088,
      "Ġ==": 3089,
      "ids": 3090,
      "Ġcontext": 3091,
      "ĠPlease": 3092,
      "ĠFunction": 3093,
      "ĠĠĠĠĠĠ": 3094,
      "pped": 3095,
      "Ġsubject": 3096,
      "opy": 3097,
      "Ġcomputer": 3098,
      "Ġallows": 3099,
      "Ġdifficult": 3100,
      "Ġdimensions": 3101,
      "${\\": 3102,
      "My": 3103,
      "SP": 3104,
      "Var": 3105,
      "land": 3106,
      "time": 3107,
      "})$": 3108,
      "aly": 3109,
      "omin": 3110,
      "Ġconc": 3111,
      "unic": 3112,
      "rices": 3113,
      "irect": 3114,
      "Ġapplications": 3115,
      "Ġinstance": 3116,
      "Ġprime": 3117,
      "works": 3118,
      "Ġacross": 3119,
      "Ġblack": 3120,
      "Ġstraight": 3121,
      "></": 3122,
      "AD": 3123,
      "First": 3124,
      "Given": 3125,
      "bs": 3126,
      "cap": 3127,
      "Ġlat": 3128,
      "ived": 3129,
      "Ġheight": 3130,
      "Ġaccept": 3131,
      "uthors": 3132,
      "ĠProblems": 3133,
      "haps": 3134,
      "''": 3135,
      "Last": 3136,
      "num": 3137,
      "ses": 3138,
      "Ġtaking": 3139,
      "Ġnice": 3140,
      "cell": 3141,
      "ĠBe": 3142,
      "ants": 3143,
      "ĠWith": 3144,
      "Ġchoose": 3145,
      "Then": 3146,
      "ĠInt": 3147,
      "econd": 3148,
      "Ġwriting": 3149,
      "ĠExpl": 3150,
      "Ġregion": 3151,
      "Ġestimate": 3152,
      "Ġidentity": 3153,
      "Ġdescribed": 3154,
      "Ġcollisions": 3155,
      "orrect": 3156,
      ".âĢĿ": 3157,
      "Le": 3158,
      "Se": 3159,
      "Since": 3160,
      "aj": 3161,
      "ered": 3162,
      "iter": 3163,
      "Ġpie": 3164,
      "Ġ$[": 3165,
      "ists": 3166,
      "ending": 3167,
      "Ġarbit": 3168,
      "cdots": 3169,
      "ciple": 3170,
      "ĠÂ»": 3171,
      "Ġgradient": 3172,
      "Ġhorizont": 3173,
      "LL": 3174,
      "based": 3175,
      "dy": 3176,
      "fo": 3177,
      "ious": 3178,
      "Ġfut": 3179,
      "Ġfields": 3180,
      "aries": 3181,
      "Ġinside": 3182,
      "iginally": 3183,
      "term": 3184,
      "ĠNote": 3185,
      "Ġvalid": 3186,
      "Ġpossib": 3187,
      "Ġmanif": 3188,
      "Ġmultiply": 3189,
      "Ġrepresents": 3190,
      "Ġscale": 3191,
      "Ġrespectively": 3192,
      "&=": 3193,
      "Do": 3194,
      "ID": 3195,
      "ION": 3196,
      "ares": 3197,
      "ged": 3198,
      "pri": 3199,
      "sk": 3200,
      "size": 3201,
      "»¿": 3202,
      "Ġcrit": 3203,
      "Ġflo": 3204,
      "Ġbond": 3205,
      "Ġthin": 3206,
      "html": 3207,
      "ĠĠĠĠĠĠĠ": 3208,
      "hence": 3209,
      "idered": 3210,
      "Ġsmooth": 3211,
      "Ġclasses": 3212,
      "Ġrecur": 3213,
      "ĠQuestions": 3214,
      "script": 3215,
      "Ġoperators": 3216,
      "span": 3217,
      "atistical": 3218,
      "Ġappear": 3219,
      "Ġmotion": 3220,
      "Hi": 3221,
      "Im": 3222,
      "ML": 3223,
      "Ne": 3224,
      "body": 3225,
      "rum": 3226,
      "rees": 3227,
      "ork": 3228,
      "lex": 3229,
      "Ġperm": 3230,
      "omorphism": 3231,
      "pling": 3232,
      "ogn": 3233,
      "Ġchapter": 3234,
      "Ġclaim": 3235,
      "Ġspecified": 3236,
      "Ġground": 3237,
      "ometimes": 3238,
      "Ġtopic": 3239,
      "orphic": 3240,
      "Ġreturns": 3241,
      "Ġrotation": 3242,
      "Ġnecessary": 3243,
      "Ġpattern": 3244,
      ")^{": 3245,
      "CC": 3246,
      "OT": 3247,
      "Omega": 3248,
      "Pa": 3249,
      "xi": 3250,
      "âĶ": 3251,
      "Ġpur": 3252,
      "imization": 3253,
      "Ġgame": 3254,
      "sequ": 3255,
      "ĠAll": 3256,
      "chi": 3257,
      "Ġproced": 3258,
      "Ġcand": 3259,
      "Ġ$$(": 3260,
      "arth": 3261,
      "Ġnear": 3262,
      "Ġmaking": 3263,
      "ĠInteg": 3264,
      "Ġsimul": 3265,
      "Ġmeaning": 3266,
      "Ġdivis": 3267,
      "Ġexplanation": 3268,
      "wards": 3269,
      "medi": 3270,
      "http": 3271,
      "ĠDynamical": 3272,
      "amental": 3273,
      "Ġmachine": 3274,
      "IS": 3275,
      "PU": 3276,
      "\\}": 3277,
      "cont": 3278,
      "Ġbar": 3279,
      "Ġrecomm": 3280,
      "Ġconj": 3281,
      "Ġatta": 3282,
      "ably": 3283,
      "Ġuniform": 3284,
      "Ġconsidered": 3285,
      "Ġparticles": 3286,
      "ikip": 3287,
      "Ġsteps": 3288,
      "Ġindiv": 3289,
      "Ġeasily": 3290,
      "Ġgeometry": 3291,
      "Ġlarger": 3292,
      "Ġexponential": 3293,
      "Ġequilibrium": 3294,
      "II": 3295,
      "opt": 3296,
      "pg": 3297,
      "sample": 3298,
      "there": 3299,
      "ery": 3300,
      "Ġsin": 3301,
      "Ġcustom": 3302,
      "ale": 3303,
      "Ġfit": 3304,
      "Ġpi": 3305,
      "âĢī": 3306,
      "idence": 3307,
      "ĠPa": 3308,
      "Ġshift": 3309,
      "Ġchild": 3310,
      "Ġquick": 3311,
      "Ġabsolute": 3312,
      "ortun": 3313,
      "Ġunique": 3314,
      "Ġconstra": 3315,
      "ledge": 3316,
      "ameter": 3317,
      "Ġprovides": 3318,
      "Ġangles": 3319,
      "ĠMathematical": 3320,
      "ikipedia": 3321,
      ")}$": 3322,
      "All": 3323,
      "No": 3324,
      "hom": 3325,
      "mit": 3326,
      "ze": 3327,
      "Ġcaus": 3328,
      "oring": 3329,
      "Ġnames": 3330,
      "rap": 3331,
      "âĢĶ": 3332,
      "ĠAd": 3333,
      "Ġ=>": 3334,
      "ĠCo": 3335,
      "uration": 3336,
      "Ġweak": 3337,
      "ĠFourier": 3338,
      "Ġdeal": 3339,
      "Ġanyone": 3340,
      "Ġpartial": 3341,
      "Ġnonlinear": 3342,
      "Ġaccess": 3343,
      "Ġeverything": 3344,
      "Ġmultiplication": 3345,
      "={": 3346,
      "Data": 3347,
      "Math": 3348,
      "loc": 3349,
      "uary": 3350,
      "orry": 3351,
      "idd": 3352,
      "ĠPer": 3353,
      "ĠFe": 3354,
      "Ġrules": 3355,
      "Ġaltern": 3356,
      "Ġalmost": 3357,
      "ĠGroup": 3358,
      "ĠOpt": 3359,
      "Ġchain": 3360,
      "ags": 3361,
      "Ġclos": 3362,
      "ecause": 3363,
      "Ġcalculation": 3364,
      "Ġcharacters": 3365,
      "Ġremove": 3366,
      "Ġmagnetic": 3367,
      "Ġdiagram": 3368,
      "Ġlibrary": 3369,
      "ĠGaussian": 3370,
      "Ġsignificant": 3371,
      "Ġhypothes": 3372,
      "SON": 3373,
      "];": 3374,
      "fra": 3375,
      "lib": 3376,
      "my": 3377,
      "number": 3378,
      "Ġtw": 3379,
      "isk": 3380,
      "ites": 3381,
      "Ġpul": 3382,
      "omorphic": 3383,
      "Ġnull": 3384,
      "Ġconne": 3385,
      "Ġpropos": 3386,
      "ĠRel": 3387,
      "ĠGe": 3388,
      "ocus": 3389,
      "Ġmodul": 3390,
      "Ġgoes": 3391,
      "Ġtopological": 3392,
      "Ġmonth": 3393,
      "Ġhappens": 3394,
      "Ġcards": 3395,
      "ĠHelp": 3396,
      "levant": 3397,
      "Ġacceleration": 3398,
      "GL": 3399,
      "hip": 3400,
      "rd": 3401,
      "uly": 3402,
      "reci": 3403,
      "atives": 3404,
      "lean": 3405,
      "Ġpractice": 3406,
      "ouse": 3407,
      "imer": 3408,
      "Ġreport": 3409,
      "char": 3410,
      "ĠMan": 3411,
      "acks": 3412,
      "Ġmax": 3413,
      "izes": 3414,
      "Ġadj": 3415,
      "ribution": 3416,
      "Ġtransformation": 3417,
      "lobal": 3418,
      "Ġsamples": 3419,
      "Ġobserved": 3420,
      "Ġprice": 3421,
      "NN": 3422,
      "down": 3423,
      "zz": 3424,
      "head": 3425,
      "Ġslow": 3426,
      "Ġfalse": 3427,
      "icles": 3428,
      "rable": 3429,
      "ĠTest": 3430,
      "Ġones": 3431,
      "ĠTheorem": 3432,
      "racy": 3433,
      "tag": 3434,
      "izing": 3435,
      "Ġthanks": 3436,
      "ĠAnswer": 3437,
      "Ġbecome": 3438,
      "values": 3439,
      "Ġcomputable": 3440,
      "Ġequals": 3441,
      "clude": 3442,
      "ifying": 3443,
      "Ġpackages": 3444,
      "Ġsmaller": 3445,
      "Ġdigits": 3446,
      "****************": 3447,
      "Ġgrav": 3448,
      "Ġcategory": 3449,
      "Ġï»¿": 3450,
      "$?": 3451,
      "With": 3452,
      "Ġhence": 3453,
      "Ġprom": 3454,
      "Ġlabel": 3455,
      "older": 3456,
      "ĠSolution": 3457,
      "geq": 3458,
      "ĠFrom": 3459,
      "Ġrational": 3460,
      "ivation": 3461,
      "ĠDet": 3462,
      "Ġjob": 3463,
      "Ġtransl": 3464,
      "Ġcurves": 3465,
      "Ġcalculated": 3466,
      "cale": 3467,
      "ĠQuant": 3468,
      "Ġempty": 3469,
      "Ġviews": 3470,
      "Ġfaster": 3471,
      "Ġthermal": 3472,
      "ĠPython": 3473,
      "Ġfuture": 3474,
      "&-": 3475,
      ",\"": 3476,
      ".\"": 3477,
      ":\\": 3478,
      "Loc": 3479,
      "Sub": 3480,
      "fit": 3481,
      "gener": 3482,
      "mic": 3483,
      "ino": 3484,
      "Ġself": 3485,
      "itation": 3486,
      "Ġreplace": 3487,
      "Ġorbit": 3488,
      "pth": 3489,
      "mail": 3490,
      "Ġimages": 3491,
      "Ġvertex": 3492,
      "comp": 3493,
      "Ġfinding": 3494,
      "Ġevent": 3495,
      "Ġmeasurements": 3496,
      "actions": 3497,
      "iques": 3498,
      "metric": 3499,
      "Ġhappen": 3500,
      "ĠModel": 3501,
      "%%%%%%%%": 3502,
      "((": 3503,
      "Are": 3504,
      "ES": 3505,
      "RU": 3506,
      "Solution": 3507,
      "cur": 3508,
      "cast": 3509,
      "list": 3510,
      "mary": 3511,
      "}[": 3512,
      "Ġcyl": 3513,
      "Ġmember": 3514,
      "Ġins": 3515,
      "que": 3516,
      "ĠSome": 3517,
      "Ġnotation": 3518,
      "ush": 3519,
      "ĠGeomet": 3520,
      "Ġquot": 3521,
      "Ġcopy": 3522,
      "Ġresponse": 3523,
      "arily": 3524,
      "Ġintersection": 3525,
      "Ġdetails": 3526,
      "},\\": 3527,
      "Ġdeterminant": 3528,
      "escription": 3529,
      "Ġpopulation": 3530,
      "Ġperson": 3531,
      "Ġhydrogen": 3532,
      "Ġinvestig": 3533,
      "Ġmissing": 3534,
      "Ġimprove": 3535,
      "llipt": 3536,
      "Ġarbitrary": 3537,
      "Can": 3538,
      "That": 3539,
      "Ġach": 3540,
      "Ġaction": 3541,
      "Ġop": 3542,
      "alue": 3543,
      "Ġfont": 3544,
      "Ġbinary": 3545,
      "stack": 3546,
      "Ġ\\{": 3547,
      "iding": 3548,
      "under": 3549,
      "rior": 3550,
      "aches": 3551,
      "ored": 3552,
      "Ġnothing": 3553,
      "ĠâĢ¦": 3554,
      "Ġkg": 3555,
      "Ġuntil": 3556,
      "Ġ:=": 3557,
      "Ġscript": 3558,
      "prime": 3559,
      "ibility": 3560,
      "Ġactual": 3561,
      "Ġaccording": 3562,
      "Ġelectric": 3563,
      "Ġreading": 3564,
      "Ġstarting": 3565,
      "LAS": 3566,
      "Ġbreak": 3567,
      "operator": 3568,
      "Sim": 3569,
      "jection": 3570,
      "oph": 3571,
      "spec": 3572,
      "uild": 3573,
      "Ġ;": 3574,
      "Ġher": 3575,
      "Ġess": 3576,
      "Ġopp": 3577,
      "itor": 3578,
      "Ġfriction": 3579,
      "Ġpublic": 3580,
      "Ġmed": 3581,
      "Ġmorphism": 3582,
      "Ġnu": 3583,
      "see": 3584,
      "ampling": 3585,
      "ĠâĢĺ": 3586,
      "ables": 3587,
      "Ġcover": 3588,
      "Ġimag": 3589,
      "scill": 3590,
      "Ġdecay": 3591,
      "Ġgraphs": 3592,
      "Ġunderstanding": 3593,
      "Ġoptimal": 3594,
      "Ġremov": 3595,
      "Ġcarbon": 3596,
      "EC": 3597,
      "cy": 3598,
      "how": 3599,
      "Ġbro": 3600,
      "Ġdri": 3601,
      "Ġrepe": 3602,
      "Ġreach": 3603,
      "amed": 3604,
      "Ġitem": 3605,
      "$$-": 3606,
      "ĠPo": 3607,
      "Ġexplicit": 3608,
      "rie": 3609,
      "rip": 3610,
      "Ġord": 3611,
      "key": 3612,
      "ĠThank": 3613,
      "Ġsolving": 3614,
      "}}}": 3615,
      "ube": 3616,
      "Ġperfect": 3617,
      "Ġobvious": 3618,
      "order": 3619,
      "Ġvariance": 3620,
      "Ġresulting": 3621,
      "Ġinstall": 3622,
      "ĠChapter": 3623,
      "encies": 3624,
      "Ġreactions": 3625,
      "ĠâĪĴ": 3626,
      "Ġcompletely": 3627,
      "ercise": 3628,
      "ĠSeries": 3629,
      "ĠGeneral": 3630,
      "Ġdatas": 3631,
      "Ġresearch": 3632,
      "Ġinequality": 3633,
      "Abstract": 3634,
      "$(": 3635,
      "AG": 3636,
      "UR": 3637,
      "fl": 3638,
      "mal": 3639,
      "Ġauthor": 3640,
      "ison": 3641,
      "ising": 3642,
      "Ġwidth": 3643,
      "Ġfine": 3644,
      "Ġbin": 3645,
      "sto": 3646,
      "Ġlife": 3647,
      "olic": 3648,
      "ĠApp": 3649,
      "change": 3650,
      "Ġconcent": 3651,
      "Ġconduct": 3652,
      "ĠPDF": 3653,
      "istry": 3654,
      "tab": 3655,
      "ints": 3656,
      "Ġmatrices": 3657,
      "Ġ&&": 3658,
      "Ġcalculations": 3659,
      "ĠComp": 3660,
      "appro": 3661,
      "Ġcorrectly": 3662,
      "axis": 3663,
      "Ġentire": 3664,
      "Ġprogramming": 3665,
      "ĠShow": 3666,
      "Ġcoordinate": 3667,
      "Ġfractional": 3668,
      "Ġprinciple": 3669,
      "Ġhorizontal": 3670,
      "/\\": 3671,
      "Ar": 3672,
      "Dis": 3673,
      "NA": 3674,
      "SO": 3675,
      "oles": 3676,
      "tz": 3677,
      "txt": 3678,
      "Ġill": 3679,
      "Ġbad": 3680,
      "omen": 3681,
      "Ġthread": 3682,
      "Ġonline": 3683,
      "Ġprot": 3684,
      "Ġvideo": 3685,
      "Ġstat": 3686,
      "Ġdevi": 3687,
      "ĠRev": 3688,
      "Ġadding": 3689,
      "example": 3690,
      "Ġspecif": 3691,
      "Ġphysics": 3692,
      "lope": 3693,
      "ĠComm": 3694,
      "Ġcontaining": 3695,
      "ĠControl": 3696,
      "Ġpolynomials": 3697,
      "Ġremainder": 3698,
      "LAB": 3699,
      "Ġfundamental": 3700,
      "${": 3701,
      "ms": 3702,
      "width": 3703,
      "ĠÃĹ": 3704,
      "reen": 3705,
      "Ġcou": 3706,
      "Ġmar": 3707,
      "Ġ$-": 3708,
      "Ġforces": 3709,
      "Ġund": 3710,
      "Ġexc": 3711,
      "Ġcomb": 3712,
      "ĠDO": 3713,
      "ĠIntern": 3714,
      "Ġintegr": 3715,
      "Ġdescription": 3716,
      "ĠJanuary": 3717,
      "Ġconfus": 3718,
      "Ġorigin": 3719,
      "Ġavoid": 3720,
      "--------------------------------": 3721,
      "Ġconvergence": 3722,
      "Ġchemical": 3723,
      "Ġindividual": 3724,
      "Ġhypothesis": 3725,
      ",$": 3726,
      ".;": 3727,
      "br": 3728,
      "big": 3729,
      "full": 3730,
      "uracy": 3731,
      "input": 3732,
      "Ġband": 3733,
      "ĠTi": 3734,
      "Ġbeam": 3735,
      "oding": 3736,
      "tered": 3737,
      "plex": 3738,
      "taff": 3739,
      "acy": 3740,
      "ĠError": 3741,
      "ĠNon": 3742,
      "mathfra": 3743,
      "oolean": 3744,
      "Ġimp": 3745,
      "ĠYour": 3746,
      "Ġconstruction": 3747,
      ")\\\\": 3748,
      "Ġagree": 3749,
      "valu": 3750,
      "Ġappropri": 3751,
      "Ġmeasured": 3752,
      "ymbol": 3753,
      "ighb": 3754,
      "Ġanalog": 3755,
      "Ġrequires": 3756,
      "Ġsequences": 3757,
      "Ġconfig": 3758,
      "Ġcolumns": 3759,
      "ĠDoes": 3760,
      "reshold": 3761,
      "ðŁĶ": 3762,
      "Ġprocedure": 3763,
      "lliptic": 3764,
      "mathfrak": 3765,
      "qquad": 3766,
      "xx": 3767,
      "âĦ": 3768,
      "ĨĴ": 3769,
      "Ġcut": 3770,
      "enn": 3771,
      "Ġinner": 3772,
      "Ġnode": 3773,
      "import": 3774,
      "lling": 3775,
      "âĢľ": 3776,
      "ols": 3777,
      "ĠMa": 3778,
      "ĠMAT": 3779,
      "ĠPart": 3780,
      "urity": 3781,
      "osen": 3782,
      "tering": 3783,
      "ĠHence": 3784,
      "Ġabsor": 3785,
      "Ġfunctional": 3786,
      "Ġformed": 3787,
      "Integ": 3788,
      "Ġinterview": 3789,
      "open": 3790,
      "ĠZh": 3791,
      "Ġoperations": 3792,
      "Ġlogarithm": 3793,
      "Ġcharacteristic": 3794,
      "ĠATLAS": 3795,
      "='": 3796,
      "Che": 3797,
      "Code": 3798,
      "IG": 3799,
      "cher": 3800,
      "cip": 3801,
      "cup": 3802,
      "flow": 3803,
      "long": 3804,
      "write": 3805,
      "Ġtask": 3806,
      "Ġaffect": 3807,
      "Ġsound": 3808,
      "Ġfun": 3809,
      "Ġbig": 3810,
      "Ġdt": 3811,
      "Ġdot": 3812,
      "Ġmem": 3813,
      "ste": 3814,
      "otic": 3815,
      "ĠMin": 3816,
      "Ġcomes": 3817,
      "Ġorgan": 3818,
      "ĠGu": 3819,
      "Ġlikely": 3820,
      "Ġappreci": 3821,
      "Ġdistin": 3822,
      "Ġroots": 3823,
      "Ġedges": 3824,
      "Ġserver": 3825,
      "Ġtesting": 3826,
      "Ġsingular": 3827,
      "hood": 3828,
      "Ġmomentum": 3829,
      "ĠSee": 3830,
      "Ġadditional": 3831,
      "xygen": 3832,
      "Ġdiscussion": 3833,
      "Ġprecise": 3834,
      "Ġsymmetry": 3835,
      "Ġasympt": 3836,
      "âĶĢ": 3837,
      "Mat": 3838,
      "ND": 3839,
      "ait": 3840,
      "nitude": 3841,
      "por": 3842,
      "trans": 3843,
      "Ġauthors": 3844,
      "integ": 3845,
      "isher": 3846,
      "Ġox": 3847,
      "Ġcrypt": 3848,
      "Ġfive": 3849,
      "Ġant": 3850,
      "Ġindu": 3851,
      "otal": 3852,
      "Ġreact": 3853,
      "Ġgram": 3854,
      "ĠAc": 3855,
      "ĠFigure": 3856,
      "tax": 3857,
      "ĠBl": 3858,
      "ĠOb": 3859,
      "angles": 3860,
      "Ġvertical": 3861,
      "clusion": 3862,
      "Ġprim": 3863,
      "ometric": 3864,
      "ello": 3865,
      "Ġlimits": 3866,
      "Ġextension": 3867,
      "aneous": 3868,
      "Ġlonger": 3869,
      "annel": 3870,
      "Ġcurrently": 3871,
      "Ġincluding": 3872,
      "ĠPosts": 3873,
      "Ġconjug": 3874,
      "\":": 3875,
      "FT": 3876,
      "Figure": 3877,
      "HC": 3878,
      "OM": 3879,
      "ailed": 3880,
      "bi": 3881,
      "faces": 3882,
      "tice": 3883,
      "})^": 3884,
      "Ġpolar": 3885,
      "Ġdu": 3886,
      "ĠSet": 3887,
      "Ġ=\\": 3888,
      "ĠMR": 3889,
      "ĠForm": 3890,
      "Ġ$\\{": 3891,
      "ĠReg": 3892,
      "Ġamong": 3893,
      "Ġcontent": 3894,
      "Ġcalculus": 3895,
      "Ġsupply": 3896,
      "Ġassumption": 3897,
      "Ġderived": 3898,
      "Ġeasier": 3899,
      "Ġalgorithms": 3900,
      "Ġinterested": 3901,
      "Ġreduction": 3902,
      "Ġdenomin": 3903,
      "Ġimplementation": 3904,
      "Ġquadratic": 3905,
      "CD": 3906,
      "Cont": 3907,
      "Set": 3908,
      "ai": 3909,
      "bb": 3910,
      "bmatrix": 3911,
      "dim": 3912,
      "ront": 3913,
      "Ã¢": 3914,
      "Ġ}{": 3915,
      "Ġloss": 3916,
      "ĠSing": 3917,
      "Ġvac": 3918,
      "Ġexam": 3919,
      "iling": 3920,
      "actor": 3921,
      "ĠInter": 3922,
      "Ġcohom": 3923,
      "ĠKe": 3924,
      "Ġamplit": 3925,
      "plicity": 3926,
      "}$$.": 3927,
      "Ġphysical": 3928,
      "Ġstudent": 3929,
      "iction": 3930,
      "Ġposted": 3931,
      "Ġoperation": 3932,
      "indows": 3933,
      "ochastic": 3934,
      "Ġfeatures": 3935,
      "gantt": 3936,
      "SD": 3937,
      "ging": 3938,
      "lin": 3939,
      "Ġut": 3940,
      "Ġ}$": 3941,
      "ination": 3942,
      "Ġmind": 3943,
      "Ġhum": 3944,
      "ĠTop": 3945,
      "cember": 3946,
      "Ġstochastic": 3947,
      "Ġdemon": 3948,
      "ensor": 3949,
      "Ġimplies": 3950,
      "ĠVer": 3951,
      "ĠView": 3952,
      "Ġcompared": 3953,
      "fined": 3954,
      "ava": 3955,
      "Ġintegration": 3956,
      "Ġ<=": 3957,
      "Ġfactors": 3958,
      "ithmetic": 3959,
      "Ġaccur": 3960,
      "entially": 3961,
      "Ġintegrals": 3962,
      "Ġprocesses": 3963,
      "Ġcommands": 3964,
      "Ġspectrum": 3965,
      "Ġprecision": 3966,
      "Ġsymmetric": 3967,
      "Ġobservations": 3968,
      "words": 3969,
      "Ġbehavior": 3970,
      "Ġproportional": 3971,
      "Ġcandid": 3972,
      "Ġconnection": 3973,
      "approx": 3974,
      "=-": 3975,
      "OH": 3976,
      "Res": 3977,
      "Î¸": 3978,
      "à¦": 3979,
      "Ġtor": 3980,
      "rec": 3981,
      "Ġfocus": 3982,
      "esian": 3983,
      "state": 3984,
      "ĠSu": 3985,
      "urren": 3986,
      "ili": 3987,
      "osp": 3988,
      "ineering": 3989,
      "ĠLinear": 3990,
      "Ġusers": 3991,
      "Ġ:)": 3992,
      "Ġcompare": 3993,
      "Ġdisplay": 3994,
      "Ġproduced": 3995,
      "Ġseconds": 3996,
      "Ġsaying": 3997,
      "Ġtags": 3998,
      "Ġevaluate": 3999,
      "Ġmaterials": 4000,
      "Ġmoving": 4001,
      "Ġfluid": 4002,
      "$)": 4003,
      "Cal": 4004,
      "Mod": 4005,
      "SB": 4006,
      "hline": 4007,
      "pd": 4008,
      "}.": 4009,
      "Ġign": 4010,
      "Ġtitle": 4011,
      "Ġsal": 4012,
      "Ġwond": 4013,
      "Ġmist": 4014,
      "roid": 4015,
      "Ġhope": 4016,
      "Ġ($": 4017,
      "Ġforward": 4018,
      "quant": 4019,
      "Ġasking": 4020,
      "Ġexcept": 4021,
      "unc": 4022,
      "Ġrank": 4023,
      "Ġrisk": 4024,
      "istory": 4025,
      "Ġseg": 4026,
      "ĠLi": 4027,
      "this": 4028,
      "ftware": 4029,
      "Ġmapping": 4030,
      "Ġchosen": 4031,
      "ards": 4032,
      "itional": 4033,
      "Ġplaced": 4034,
      "Ġtransition": 4035,
      "scr": 4036,
      "Ġextre": 4037,
      "ĠPhys": 4038,
      "pecially": 4039,
      "Ġdegrees": 4040,
      "Also": 4041,
      "Ġnumerical": 4042,
      "Ġswitch": 4043,
      "Ġmessage": 4044,
      "Ġpiece": 4045,
      "AP": 4046,
      "Col": 4047,
      "LU": 4048,
      "aut": 4049,
      "ext": 4050,
      "more": 4051,
      "oot": 4052,
      "Ġport": 4053,
      "arly": 4054,
      "ster": 4055,
      "ĠTwo": 4056,
      "Ġgl": 4057,
      "ĠSoc": 4058,
      "ĠSearch": 4059,
      "Ġcontact": 4060,
      "ĠCar": 4061,
      "ĠBi": 4062,
      "ĠEuler": 4063,
      "Ġusual": 4064,
      "ĠGo": 4065,
      "Ġunknown": 4066,
      "Ġcompos": 4067,
      "Ġforms": 4068,
      "Ġsimulation": 4069,
      "ĠRead": 4070,
      "ĠReferences": 4071,
      "######": 4072,
      "ateral": 4073,
      "Ġproduction": 4074,
      "Ġdetect": 4075,
      "Ġminutes": 4076,
      "lectron": 4077,
      "Ġdistributions": 4078,
      "ternal": 4079,
      "Ġdivide": 4080,
      "ĠWhich": 4081,
      "Ġupdate": 4082,
      "Ġsentence": 4083,
      "ortunately": 4084,
      "ĠMATLAB": 4085,
      "$:": 4086,
      "*(": 4087,
      "><": 4088,
      "From": 4089,
      "Pl": 4090,
      "Use": 4091,
      "Yes": 4092,
      "cript": 4093,
      "ground": 4094,
      "year": 4095,
      "ĠÏ": 4096,
      "inc": 4097,
      "ones": 4098,
      "redu": 4099,
      "Ġoscill": 4100,
      "Ġfall": 4101,
      "Ġfix": 4102,
      "inger": 4103,
      "omic": 4104,
      "Ġ$|": 4105,
      "Ġrepl": 4106,
      "Ġsuccess": 4107,
      "}}}$": 4108,
      "textcolor": 4109,
      "Ġvers": 4110,
      "ĠReview": 4111,
      "Ġknowledge": 4112,
      "Ġgenerally": 4113,
      "aker": 4114,
      "ĠWell": 4115,
      "Ġtriv": 4116,
      "Ġrecent": 4117,
      "Ġacid": 4118,
      "ĠDecember": 4119,
      "Ġrepresented": 4120,
      "Ġincreases": 4121,
      "Ġagainst": 4122,
      "Ġdescribe": 4123,
      "Ġchanged": 4124,
      "Ġappears": 4125,
      "Ġmolecules": 4126,
      "Ġselected": 4127,
      "ohn": 4128,
      "Ġbeginning": 4129,
      "Ġmentioned": 4130,
      "operatorname": 4131,
      "Ġnucle": 4132,
      "Consider": 4133,
      "Sol": 4134,
      "Ste": 4135,
      "[[": 4136,
      "jor": 4137,
      "mm": 4138,
      "public": 4139,
      "rs": 4140,
      "za": 4141,
      "Â°": 4142,
      "Ã¶": 4143,
      "Ġes": 4144,
      "Ġtang": 4145,
      "inetic": 4146,
      "Ġpict": 4147,
      "arn": 4148,
      "Ġthreshold": 4149,
      "Ġefficient": 4150,
      "Ġhar": 4151,
      "ĠTitle": 4152,
      "ĠAB": 4153,
      "ĠAct": 4154,
      "ĠAss": 4155,
      "ĠAfter": 4156,
      "Ġweek": 4157,
      "ĠDi": 4158,
      "acher": 4159,
      "Ġmeas": 4160,
      "ĠOf": 4161,
      "Ġspan": 4162,
      "textrm": 4163,
      "Ġothers": 4164,
      "Ġoverl": 4165,
      "prod": 4166,
      "cible": 4167,
      "Ġregression": 4168,
      "Ġfeed": 4169,
      "Ġconversion": 4170,
      "limits": 4171,
      "Ġdepending": 4172,
      "Ġestimates": 4173,
      "However": 4174,
      "Ġvisual": 4175,
      "Ġdelay": 4176,
      "~~~~~~~~": 4177,
      "Ġcombination": 4178,
      "Ġchoice": 4179,
      "Ġthinking": 4180,
      "=(": 4181,
      "PA": 4182,
      "gt": 4183,
      "mes": 4184,
      "pag": 4185,
      "}+\\": 4186,
      "Ġtalk": 4187,
      "Ġsch": 4188,
      "Ġslope": 4189,
      "Ġfill": 4190,
      "Ġbund": 4191,
      "Ġreferences": 4192,
      "Ġla": 4193,
      "Ġyield": 4194,
      "ĠSur": 4195,
      "ĠCol": 4196,
      "Ġstand": 4197,
      "Ġalpha": 4198,
      "that": 4199,
      "Ġneut": 4200,
      "ocurren": 4201,
      "Ġcop": 4202,
      "ructions": 4203,
      "Ġelectro": 4204,
      "Ġtests": 4205,
      "Ġtraining": 4206,
      "Ġmetric": 4207,
      "ING": 4208,
      "Ġdiffusion": 4209,
      "Comput": 4210,
      "Ġatoms": 4211,
      "Ġsatisfy": 4212,
      "Ġscheme": 4213,
      "Ġrelationship": 4214,
      "Ġdistinct": 4215,
      "MSE": 4216,
      "SR": 4217,
      "Time": 4218,
      "erv": 4219,
      "orn": 4220,
      "icular": 4221,
      "Ġret": 4222,
      "Ġlabor": 4223,
      "lying": 4224,
      "quid": 4225,
      "ĠData": 4226,
      "acing": 4227,
      "Ġalign": 4228,
      "Ġneighb": 4229,
      "Ġmajor": 4230,
      "ĠUR": 4231,
      "Ġotherwise": 4232,
      "Ġevolution": 4233,
      "Ġspecify": 4234,
      "}^\\": 4235,
      "Ġembed": 4236,
      "Ġinputs": 4237,
      "Ġentry": 4238,
      "Ġproducts": 4239,
      "Ġremember": 4240,
      "Ġfrequencies": 4241,
      "command": 4242,
      "Ġpairs": 4243,
      "documentclass": 4244,
      "iggs": 4245,
      "roduction": 4246,
      "ĠAbstract": 4247,
      "ĠApplications": 4248,
      "Ġbelieve": 4249,
      "mapsto": 4250,
      "Ġsubtract": 4251,
      "Phi": 4252,
      "Ġdemonstr": 4253,
      "AS": 4254,
      "Per": 4255,
      "Sigma": 4256,
      "cles": 4257,
      "frame": 4258,
      "iem": 4259,
      "oon": 4260,
      "Â·": 4261,
      "Ġaff": 4262,
      "lege": 4263,
      "Ġpow": 4264,
      "Ġpages": 4265,
      "Ġprior": 4266,
      "Ġbus": 4267,
      "Ġge": 4268,
      "Ġgrow": 4269,
      "seud": 4270,
      "ĠAge": 4271,
      "ĠAdd": 4272,
      "Ġprog": 4273,
      "Ġstress": 4274,
      "iving": 4275,
      "ĠDist": 4276,
      "ials": 4277,
      "user": 4278,
      "empty": 4279,
      "ĠJuly": 4280,
      "thesis": 4281,
      "neq": 4282,
      "Ġminimal": 4283,
      "Ġhelps": 4284,
      "sert": 4285,
      "Ġaccuracy": 4286,
      "Ġformulas": 4287,
      "ishing": 4288,
      "Any": 4289,
      "Ġmetal": 4290,
      "binom": 4291,
      "ĠOriginally": 4292,
      "Ġdescribes": 4293,
      "Ġexpressed": 4294,
      "rivial": 4295,
      "================": 4296,
      "Ġcycle": 4297,
      "Ġillust": 4298,
      "$=": 4299,
      "'.": 4300,
      ")?": 4301,
      ",-": 4302,
      "Not": 4303,
      "PR": 4304,
      "Rec": 4305,
      "Top": 4306,
      "\\}$": 4307,
      "hy": 4308,
      "neg": 4309,
      "ris": 4310,
      "ante": 4311,
      "Ġnp": 4312,
      "oted": 4313,
      "Ġland": 4314,
      "ĠSum": 4315,
      "ifier": 4316,
      "irt": 4317,
      "taint": 4318,
      "ĠHil": 4319,
      "ĠGiven": 4320,
      "ĠInst": 4321,
      "Ġplug": 4322,
      "Ġmodified": 4323,
      "Ġinternal": 4324,
      "Ġdefinite": 4325,
      "Ġregions": 4326,
      "Ġfeel": 4327,
      "Ġruns": 4328,
      "Ġlocally": 4329,
      "Ġwavelength": 4330,
      "Ġdirectory": 4331,
      "Ġâī": 4332,
      "Ġseparate": 4333,
      "ĠExamples": 4334,
      "ĠArticle": 4335,
      "Ġcouple": 4336,
      "\");": 4337,
      "One": 4338,
      "free": 4339,
      "mol": 4340,
      "mid": 4341,
      "path": 4342,
      "rand": 4343,
      "sive": 4344,
      "ä¸": 4345,
      "Ġens": 4346,
      "Ġtheore": 4347,
      "ather": 4348,
      "Ġpm": 4349,
      "Ġpy": 4350,
      "aring": 4351,
      "iments": 4352,
      "osing": 4353,
      "acro": 4354,
      "ĠEu": 4355,
      "}\\,": 4356,
      "Ġ{-": 4357,
      "Ġsetup": 4358,
      "ĠVol": 4359,
      "dered": 4360,
      "Ġgets": 4361,
      "ĠState": 4362,
      "produ": 4363,
      "Ġinvari": 4364,
      "aligned": 4365,
      "Ġreduce": 4366,
      "Ġcounter": 4367,
      "Ġadvan": 4368,
      "Ġmolecular": 4369,
      "Ġlargest": 4370,
      "Ġhyperbol": 4371,
      "Ġsubstitution": 4372,
      "Ġrectangle": 4373,
      "ĠGeometry": 4374,
      "Ġappropriate": 4375,
      "??": 4376,
      "Par": 4377,
      "Some": 4378,
      "Type": 4379,
      "TML": 4380,
      "bound": 4381,
      "ev": 4382,
      "iy": 4383,
      "rue": 4384,
      "random": 4385,
      "sl": 4386,
      "sm": 4387,
      "zero": 4388,
      "|^": 4389,
      "lete": 4390,
      "Ġwarning": 4391,
      "Ġpast": 4392,
      "rogen": 4393,
      "ĠIN": 4394,
      "Ġgain": 4395,
      "ĠAut": 4396,
      "..#": 4397,
      "ĠPC": 4398,
      "ilt": 4399,
      "ĠFr": 4400,
      "ĠLu": 4401,
      "ĠJo": 4402,
      "Ġclust": 4403,
      "Ġclick": 4404,
      "Ġliquid": 4405,
      "Ġvariety": 4406,
      "sume": 4407,
      "plicate": 4408,
      "Ġinteract": 4409,
      "Ġgoal": 4410,
      "Ġcomputation": 4411,
      "Ġprobabilities": 4412,
      "appa": 4413,
      "lected": 4414,
      "Ġdivision": 4415,
      "Ġrequest": 4416,
      "Ġsuppose": 4417,
      "Ġderivatives": 4418,
      "Ġdetermined": 4419,
      "ĠTeV": 4420,
      "++++": 4421,
      "Ġmagnitude": 4422,
      "ÂłÂłÂłÂłÂłÂłÂłÂł": 4423,
      "Ġspectral": 4424,
      "Ġsituation": 4425,
      "Ġasked": 4426,
      "âĤ¬": 4427,
      "Ġamplitude": 4428,
      "Ġtrivial": 4429,
      "&=\\": 4430,
      ",âĢĿ": 4431,
      "Key": 4432,
      "PL": 4433,
      "cat": 4434,
      "cks": 4435,
      "hbar": 4436,
      "normal": 4437,
      "wide": 4438,
      "Ġer": 4439,
      "Ġtension": 4440,
      "Ġwon": 4441,
      "Ġfail": 4442,
      "Ġfair": 4443,
      "Ġphen": 4444,
      "stim": 4445,
      "Ġhit": 4446,
      "ĠSm": 4447,
      "Ġprote": 4448,
      "ĠPress": 4449,
      "Ġweb": 4450,
      "iral": 4451,
      "ivari": 4452,
      "Ġnotes": 4453,
      "ĠEach": 4454,
      "ocks": 4455,
      "Ġuncer": 4456,
      "Ġsolid": 4457,
      "Ġdesired": 4458,
      "ĠStandard": 4459,
      "forall": 4460,
      "Ġgeneralized": 4461,
      "Ġcircular": 4462,
      "Ġlocation": 4463,
      "Ġdiver": 4464,
      "Ġquantity": 4465,
      "Ġlevels": 4466,
      "string": 4467,
      "Ġapproximate": 4468,
      "Ġscalar": 4469,
      "Ġdigit": 4470,
      "Ġslight": 4471,
      "Ġgeometric": 4472,
      "varphi": 4473,
      "Ġtreat": 4474,
      "ĠEnglish": 4475,
      "Ġdevelopment": 4476,
      "Ġalternative": 4477,
      "Location": 4478,
      "Ġdataset": 4479,
      "Ġdeviation": 4480,
      "Ġcohomology": 4481,
      "iemann": 4482,
      "Ġuncertaint": 4483,
      "->": 4484,
      "Hello": 4485,
      "JSON": 4486,
      "LP": 4487,
      "MO": 4488,
      "View": 4489,
      "aily": 4490,
      "fs": 4491,
      "lab": 4492,
      "ok": 4493,
      "ãĢ": 4494,
      "orth": 4495,
      "itz": 4496,
      "itrogen": 4497,
      "Ġwin": 4498,
      "Ġpdf": 4499,
      "Ġmut": 4500,
      "Ġ\\$": 4501,
      "entor": 4502,
      "utput": 4503,
      "Ġholds": 4504,
      "cel": 4505,
      "amil": 4506,
      "Ġconv": 4507,
      "ĠMed": 4508,
      "ĠPR": 4509,
      "ĠPar": 4510,
      "Ġvan": 4511,
      "Ġrout": 4512,
      "Ġround": 4513,
      "istor": 4514,
      "article": 4515,
      "izer": 4516,
      "Ġquality": 4517,
      "aged": 4518,
      "agement": 4519,
      "}}(": 4520,
      "Ġspot": 4521,
      "Ġdifferences": 4522,
      "jecture": 4523,
      "finite": 4524,
      "ĠYes": 4525,
      "Thank": 4526,
      "posit": 4527,
      "Ġmeasures": 4528,
      "Ġposts": 4529,
      "Ġconverges": 4530,
      "Ġmaximal": 4531,
      "Ġclean": 4532,
      "Ġdrawing": 4533,
      "Ġtechniques": 4534,
      "Ġsyntax": 4535,
      "doi": 4536,
      "Ġinterpret": 4537,
      "Ġpulse": 4538,
      "Ġcylinder": 4539,
      "Ġespecially": 4540,
      "([": 4541,
      ",...": 4542,
      ".#": 4543,
      "Bl": 4544,
      "Reg": 4545,
      "Suppose": 4546,
      "[#": 4547,
      "aps": 4548,
      "hand": 4549,
      "iers": 4550,
      "kappa": 4551,
      "mult": 4552,
      "rc": 4553,
      "Ġcore": 4554,
      "arp": 4555,
      "Ġmicro": 4556,
      "asic": 4557,
      "ĠAmer": 4558,
      "ula": 4559,
      "ĠMon": 4560,
      "ĠMark": 4561,
      "ĠCur": 4562,
      "Ġstuff": 4563,
      "Ġdepth": 4564,
      "ĠLog": 4565,
      "phant": 4566,
      "ĠGraph": 4567,
      "------": 4568,
      "roups": 4569,
      "Ġsolved": 4570,
      "dependent": 4571,
      "Ġperhaps": 4572,
      "ĠKey": 4573,
      "plicated": 4574,
      "Ġdiscrete": 4575,
      "ĠStatistics": 4576,
      "Ġspecies": 4577,
      "Ġfeet": 4578,
      "Ġassumed": 4579,
      "Ġestimated": 4580,
      "Ġexperience": 4581,
      "Ġtextbook": 4582,
      "Ġincludes": 4583,
      "strong": 4584,
      "Ġnetworks": 4585,
      "Ġfully": 4586,
      "Ġsites": 4587,
      "ĠExplanation": 4588,
      "Ġconfused": 4589,
      "Ġdenominator": 4590,
      "ĠHilbert": 4591,
      "CO": 4592,
      "List": 4593,
      "Of": 4594,
      "PI": 4595,
      "Point": 4596,
      "UT": 4597,
      "case": 4598,
      "go": 4599,
      "mi": 4600,
      "sign": 4601,
      "square": 4602,
      "tes": 4603,
      "Ġsqrt": 4604,
      "Ġbigg": 4605,
      "Ġmm": 4606,
      "Ġrev": 4607,
      "ĠTags": 4608,
      "ĠST": 4609,
      "ĠSpec": 4610,
      "ĠMag": 4611,
      "Ġstatistical": 4612,
      "ung": 4613,
      "unity": 4614,
      "plus": 4615,
      "istics": 4616,
      "Ġmaps": 4617,
      "ĠOther": 4618,
      "Ġtrick": 4619,
      "Ġ{{": 4620,
      "ryst": 4621,
      "Ġfollowed": 4622,
      "pendicular": 4623,
      "othermic": 4624,
      "Ġcentral": 4625,
      "Ġexisting": 4626,
      "Ġpapers": 4627,
      "Ġidentify": 4628,
      "Ġincreasing": 4629,
      "tenna": 4630,
      "ĠâĨĴ": 4631,
      "Posted": 4632,
      "ĠClass": 4633,
      "Ġoccurs": 4634,
      ";\\;\\;\\;\\": 4635,
      "ĠEquations": 4636,
      "bullet": 4637,
      "Ġrecommend": 4638,
      "ĠPaper": 4639,
      "Spec": 4640,
      "cus": 4641,
      "nb": 4642,
      "rl": 4643,
      "su": 4644,
      "wiki": 4645,
      "Ġ**": 4646,
      "hel": 4647,
      "onst": 4648,
      "Ġsend": 4649,
      "Ġsometimes": 4650,
      "isual": 4651,
      "Ġoxygen": 4652,
      "Ġcat": 4653,
      "Ġpseud": 4654,
      "Ġdra": 4655,
      "Ġdimensional": 4656,
      "Ġmarg": 4657,
      "Ġtoday": 4658,
      "Ġyes": 4659,
      "olf": 4660,
      "amer": 4661,
      "ĠMulti": 4662,
      "Ġstatic": 4663,
      "unch": 4664,
      "Ġdecl": 4665,
      "ĠDescription": 4666,
      "ĠBay": 4667,
      "ĠOpen": 4668,
      "Ġque": 4669,
      "Ġtrig": 4670,
      "Ġresistance": 4671,
      "ĠVari": 4672,
      "finition": 4673,
      "aven": 4674,
      "avid": 4675,
      "ccording": 4676,
      "Ġtransfer": 4677,
      "ibration": 4678,
      "Ġminus": 4679,
      "Ġcorrel": 4680,
      "gories": 4681,
      "Ġtopology": 4682,
      "Ġdiameter": 4683,
      "Ġindeed": 4684,
      "Ġidentical": 4685,
      "monic": 4686,
      "Ġarticles": 4687,
      "Ġrefer": 4688,
      "ponent": 4689,
      "Ġdenote": 4690,
      "Ġcountable": 4691,
      "ridge": 4692,
      "Ġexperimental": 4693,
      "ography": 4694,
      "Ġsimplify": 4695,
      "stackrel": 4696,
      "fully": 4697,
      "cipal": 4698,
      "Ġcryptocurren": 4699,
      "$).": 4700,
      "){": 4701,
      ")}\\": 4702,
      "Diff": 4703,
      "FF": 4704,
      "Gamma": 4705,
      "HE": 4706,
      "coun": 4707,
      "font": 4708,
      "flo": 4709,
      "fortunately": 4710,
      "norm": 4711,
      "rics": 4712,
      "tfrac": 4713,
      "Ġair": 4714,
      "hev": 4715,
      "ley": 4716,
      "Ġbed": 4717,
      "Ġann": 4718,
      "arante": 4719,
      "Ġinert": 4720,
      "imet": 4721,
      "Ġgrid": 4722,
      "ception": 4723,
      "ĠAm": 4724,
      "ulate": 4725,
      "ĠCre": 4726,
      "ĠCode": 4727,
      "ĠCirc": 4728,
      "Ġstream": 4729,
      "ils": 4730,
      "else": 4731,
      "elian": 4732,
      "ĠRE": 4733,
      "ĠRiemann": 4734,
      "ĠWindows": 4735,
      "ĠGra": 4736,
      "Ġkern": 4737,
      "acter": 4738,
      "anged": 4739,
      "udos": 4740,
      "Ġjo": 4741,
      "Ġimplicit": 4742,
      "ruary": 4743,
      "Inst": 4744,
      "Ġcontin": 4745,
      "Ġarithmetic": 4746,
      "Ġproduces": 4747,
      "Ġdefines": 4748,
      "Ġwanted": 4749,
      "âĢĿ.": 4750,
      "Ġrecogn": 4751,
      "Ġstrate": 4752,
      "Ġestabl": 4753,
      "selves": 4754,
      "Ġapproximately": 4755,
      "Ġreduced": 4756,
      "Ġremaining": 4757,
      "Ġrestrict": 4758,
      "________________": 4759,
      "Ġinvolves": 4760,
      "Ġfilter": 4761,
      "https": 4762,
      "Ġdevice": 4763,
      "Ġlattice": 4764,
      "Ġchildren": 4765,
      "Ġquotient": 4766,
      ")}$$": 4767,
      "Ac": 4768,
      "Ed": 4769,
      "NE": 4770,
      "Using": 4771,
      "can": 4772,
      "ech": 4773,
      "large": 4774,
      "mitted": 4775,
      "Ġ]": 4776,
      "iness": 4777,
      "Ġcause": 4778,
      "Ġdate": 4779,
      "Ġdrop": 4780,
      "Ġmol": 4781,
      "Ġever": 4782,
      "eties": 4783,
      "vey": 4784,
      "Ġhold": 4785,
      "Ġlost": 4786,
      "idation": 4787,
      "Ġproton": 4788,
      "ĠMO": 4789,
      "Ġstar": 4790,
      "Ġstore": 4791,
      "Ġstyle": 4792,
      "peed": 4793,
      "ĠHiggs": 4794,
      "berg": 4795,
      "ĠWord": 4796,
      "ĠWrite": 4797,
      "ĠNa": 4798,
      "ĠGMAT": 4799,
      "ults": 4800,
      "ogle": 4801,
      "ĠOur": 4802,
      "Ġcharg": 4803,
      "ĠJust": 4804,
      "ĠJohn": 4805,
      "Ġspin": 4806,
      "Ġplus": 4807,
      "Ġperpendicular": 4808,
      "ĠYear": 4809,
      "Ġgenerator": 4810,
      "Ġgenerating": 4811,
      "pringer": 4812,
      "Ġpron": 4813,
      "Ġclassical": 4814,
      "Ġtopics": 4815,
      "Ġbuy": 4816,
      "Ġcolor": 4817,
      "```": 4818,
      ")/(": 4819,
      "Ġtechnique": 4820,
      "Why": 4821,
      "ĠStep": 4822,
      "Ġdynamics": 4823,
      "ĠArea": 4824,
      "Ġmanifold": 4825,
      "Ġconcentration": 4826,
      "Ġphenomen": 4827,
      "().": 4828,
      "FI": 4829,
      "ME": 4830,
      "NP": 4831,
      "Name": 4832,
      "PDF": 4833,
      "^(-": 4834,
      "ios": 4835,
      "uits": 4836,
      "ĠÏĢ": 4837,
      "Ġsampling": 4838,
      "itative": 4839,
      "Ġpure": 4840,
      "Ġpix": 4841,
      "Ġans": 4842,
      "Ġdelta": 4843,
      "Ġmill": 4844,
      "Ġyields": 4845,
      "ĠSecond": 4846,
      "ĠCent": 4847,
      "Ġstack": 4848,
      "ille": 4849,
      "rient": 4850,
      "elow": 4851,
      "Ġwhite": 4852,
      "Ġcomments": 4853,
      "Ġrating": 4854,
      "add": 4855,
      "ĠHar": 4856,
      "ĠEm": 4857,
      "ĠLaw": 4858,
      "maths": 4859,
      "mathop": 4860,
      "mathscr": 4861,
      "^{(": 4862,
      "Ġkinetic": 4863,
      "Ġclar": 4864,
      "Ġouter": 4865,
      "Ġoutside": 4866,
      "Ġgiving": 4867,
      "Ġintegrate": 4868,
      "Ġcontinu": 4869,
      "Ġbasically": 4870,
      "ĠExp": 4871,
      "Ġactivation": 4872,
      "Ġcorrelation": 4873,
      "Ġangular": 4874,
      "Ġflag": 4875,
      "Ġdependence": 4876,
      "Ġexperiments": 4877,
      "ĠTechn": 4878,
      "ĠMean": 4879,
      "AND": 4880,
      "Ġscores": 4881,
      "Ġtools": 4882,
      "arlier": 4883,
      "Ġeigenve": 4884,
      "ĠMethods": 4885,
      "subseteq": 4886,
      "Ġquickly": 4887,
      "ĠTiO": 4888,
      "After": 4889,
      "Be": 4890,
      "He": 4891,
      "La": 4892,
      "Stage": 4893,
      "bre": 4894,
      "dat": 4895,
      "dent": 4896,
      "graph": 4897,
      "iB": 4898,
      "pir": 4899,
      "ina": 4900,
      "Ġsil": 4901,
      "Ġface": 4902,
      "Ġelliptic": 4903,
      "Ġhome": 4904,
      "ĠType": 4905,
      "Ġgate": 4906,
      "Ġconjecture": 4907,
      "Ġprojection": 4908,
      "ĠMSC": 4909,
      "}{(": 4910,
      "Ġcomplicated": 4911,
      "Ġran": 4912,
      "ĠDifferent": 4913,
      "Ġseed": 4914,
      "ptions": 4915,
      "ĠHomework": 4916,
      "using": 4917,
      "ogene": 4918,
      "Theta": 4919,
      "ĠInformation": 4920,
      "Ġplaces": 4921,
      "ryption": 4922,
      "ouns": 4923,
      "Ġcontrib": 4924,
      "dsymbol": 4925,
      "Ġrob": 4926,
      "Ġcomputed": 4927,
      "âĢĿ,": 4928,
      "ĠComment": 4929,
      "ometry": 4930,
      "Ġdistributed": 4931,
      "conduct": 4932,
      "Ġlocated": 4933,
      "Ġsupposed": 4934,
      "Ġdependent": 4935,
      "boldsymbol": 4936,
      "while": 4937,
      "Problem": 4938,
      "ĠĠĠĠĠĠĠĠĠĠĠĠĠĠĠĠĠĠĠĠĠĠĠĠĠĠĠĠĠĠĠĠ": 4939,
      "Ġstructures": 4940,
      "Ġarguments": 4941,
      "Ġbehind": 4942,
      "Ġdrawn": 4943,
      "Ġweights": 4944,
      "Ġissues": 4945,
      "ographic": 4946,
      "Ġprincipal": 4947,
      "ĠCalculate": 4948,
      "Ġsettings": 4949,
      "Ġdivisor": 4950,
      "Ġtwice": 4951,
      "Ġappreciated": 4952,
      "ganttbar": 4953,
      "Ġhuman": 4954,
      "reducible": 4955,
      "Ġpicture": 4956,
      "Net": 4957,
      "PC": 4958,
      "Pr": 4959,
      "Pos": 4960,
      "XX": 4961,
      "cd": 4962,
      "draw": 4963,
      "ops": 4964,
      "rist": 4965,
      "rant": 4966,
      "rated": 4967,
      "}|": 4968,
      "à¤": 4969,
      "Ġid": 4970,
      "Ġsave": 4971,
      "Ġcub": 4972,
      "algebra": 4973,
      "Ġwire": 4974,
      "Ġfolder": 4975,
      "Ġbrow": 4976,
      "uting": 4977,
      "Ġlatter": 4978,
      "ĠTO": 4979,
      "Ġglobal": 4980,
      "sem": 4981,
      "ĠStage": 4982,
      "ĠMost": 4983,
      "ĠMax": 4984,
      "urb": 4985,
      "matic": 4986,
      "Ġdeb": 4987,
      "acs": 4988,
      "ĠEl": 4989,
      "Ġalthough": 4990,
      "Ġkm": 4991,
      "Ġleg": 4992,
      "ensive": 4993,
      "Ġjoint": 4994,
      "Ġheav": 4995,
      "ĠValue": 4996,
      "wered": 4997,
      "oney": 4998,
      "Ġscience": 4999,
      "Ġthank": 5000,
      "Ġupon": 5001,
      "Ġsubst": 5002,
      "}$$,": 5003,
      "Ġtriangles": 5004,
      "Ġmaybe": 5005,
      "overrightarrow": 5006,
      "Ġstudies": 5007,
      "Ġsignals": 5008,
      "Ġextra": 5009,
      "Ġstarted": 5010,
      "Ġentries": 5011,
      "limin": 5012,
      "Ġexistence": 5013,
      "Ġradiation": 5014,
      "Ġdenotes": 5015,
      "stitute": 5016,
      "Ġincorrect": 5017,
      "Ġclearly": 5018,
      "ĠEngineering": 5019,
      ">>>": 5020,
      "Ġrows": 5021,
      "Ġanalytic": 5022,
      "Ġnormally": 5023,
      "ĠEdition": 5024,
      "mediate": 5025,
      "Ġconstraints": 5026,
      "underline": 5027,
      "Ġmemory": 5028,
      "Ġensure": 5029,
      "phantom": 5030,
      "Ġqueue": 5031,
      "));": 5032,
      "LO": 5033,
      "NO": 5034,
      "Ok": 5035,
      "Your": 5036,
      "aks": 5037,
      "cot": 5038,
      "det": 5039,
      "dig": 5040,
      "ka": 5041,
      "kin": 5042,
      "mr": 5043,
      "nt": 5044,
      "sur": 5045,
      "Ġtensor": 5046,
      "atically": 5047,
      "Ġwaves": 5048,
      "Ġbos": 5049,
      "Ġbatter": 5050,
      "edge": 5051,
      "icon": 5052,
      "ĠIss": 5053,
      "Ġrender": 5054,
      "Ġhaven": 5055,
      "ĠTime": 5056,
      "ĠPoint": 5057,
      "urt": 5058,
      "Ġaspect": 5059,
      "osite": 5060,
      "ĠFull": 5061,
      "Ġrough": 5062,
      "ĠRMS": 5063,
      "permal": 5064,
      "ĠNet": 5065,
      "thog": 5066,
      "ĠGRE": 5067,
      "ĠOP": 5068,
      "duate": 5069,
      "angular": 5070,
      "make": 5071,
      "Ġspat": 5072,
      "ĠVector": 5073,
      "Ġteacher": 5074,
      "Ġtranslation": 5075,
      "ientific": 5076,
      "Ġevents": 5077,
      "Ġdetector": 5078,
      "Ġcalculating": 5079,
      "Ġactivity": 5080,
      "âĪĤ": 5081,
      "oxide": 5082,
      "Ġblue": 5083,
      "Ġblog": 5084,
      "Ġconvert": 5085,
      "Ġconverge": 5086,
      "ublisher": 5087,
      "Ġbackground": 5088,
      "ĠText": 5089,
      "white": 5090,
      "Ġreasonable": 5091,
      "ercises": 5092,
      "Ġconsists": 5093,
      "ĠResearch": 5094,
      "ĠChem": 5095,
      "Ġfamily": 5096,
      "Ġforecast": 5097,
      "Ġproposed": 5098,
      "amilton": 5099,
      "permalink": 5100,
      "())": 5101,
      "-+": 5102,
      "Eng": 5103,
      "Try": 5104,
      "^-": 5105,
      "cking": 5106,
      "fess": 5107,
      "vable": 5108,
      "vare": 5109,
      "wt": 5110,
      "Ġion": 5111,
      "Ġtutor": 5112,
      "hell": 5113,
      "eros": 5114,
      "Ġsens": 5115,
      "Ġsources": 5116,
      "Ġwel": 5117,
      "anach": 5118,
      "Ġfrag": 5119,
      "Ġmus": 5120,
      "ican": 5121,
      "Ġtowards": 5122,
      "Ġeffic": 5123,
      "Ġnor": 5124,
      "ĠSche": 5125,
      "ĠMVar": 5126,
      "oder": 5127,
      "Ġstatistics": 5128,
      "iler": 5129,
      "ĠDep": 5130,
      "rence": 5131,
      "ĠGal": 5132,
      "oop": 5133,
      "Ġsoftware": 5134,
      "Ġworth": 5135,
      "Ġheur": 5136,
      "Ġplain": 5137,
      "ĠKar": 5138,
      "rows": 5139,
      "ĠRec": 5140,
      "ountain": 5141,
      "Ġgeneration": 5142,
      "Ġinteraction": 5143,
      "Ġarch": 5144,
      "product": 5145,
      "Ġapproaches": 5146,
      "ĠCompar": 5147,
      "Ġactive": 5148,
      "ĠChar": 5149,
      "Ġradio": 5150,
      "Ġoptim": 5151,
      "Ġideas": 5152,
      "Ġperformed": 5153,
      "Ġguarante": 5154,
      "INT": 5155,
      "Ġinfinity": 5156,
      "Ġrain": 5157,
      "Ġlanguages": 5158,
      "Ġmoves": 5159,
      "Ġtells": 5160,
      "ĠNewton": 5161,
      "Ġsatisfies": 5162,
      "ployment": 5163,
      "iddle": 5164,
      "Area": 5165,
      "ĠInternational": 5166,
      "Ġslightly": 5167,
      "Me": 5168,
      "Open": 5169,
      "Staff": 5170,
      "VE": 5171,
      "[{": 5172,
      "^(": 5173,
      "gu": 5174,
      "gies": 5175,
      "joint": 5176,
      "mark": 5177,
      "rical": 5178,
      "})$$": 5179,
      "Ġfront": 5180,
      "oud": 5181,
      "Ġmid": 5182,
      "Ġnodes": 5183,
      "Ġ\\;": 5184,
      "vered": 5185,
      "Ġrelevant": 5186,
      "Ġlatex": 5187,
      "Ġgave": 5188,
      "sect": 5189,
      "Ġconcrete": 5190,
      "odynam": 5191,
      "Ġaren": 5192,
      "Ġvary": 5193,
      "rial": 5194,
      "Ġatm": 5195,
      "plain": 5196,
      "ĠDate": 5197,
      "ĠEstim": 5198,
      "Ġshare": 5199,
      "ultaneous": 5200,
      "Ġchance": 5201,
      "active": 5202,
      "Ġcovered": 5203,
      "Ġresolution": 5204,
      "Int": 5205,
      "Ġsubgroup": 5206,
      "Ġcorner": 5207,
      "Ġdisk": 5208,
      "Ġprevent": 5209,
      "bability": 5210,
      "Ġcommunic": 5211,
      "Ġcalculator": 5212,
      "Exp": 5213,
      "Ġbuilt": 5214,
      "Ġhandle": 5215,
      "Ġmaintain": 5216,
      "Ġchanging": 5217,
      "Ġcontrols": 5218,
      "allest": 5219,
      "Ġperiodic": 5220,
      "Ġflux": 5221,
      "ĠPrep": 5222,
      "Ġreviewed": 5223,
      "ENT": 5224,
      "Ġmechanics": 5225,
      "Ġmechanism": 5226,
      "ĠComputer": 5227,
      "Ġturns": 5228,
      "................": 5229,
      "Ġcomparison": 5230,
      "Ġphoton": 5231,
      "Ġreceived": 5232,
      "ĠOptimization": 5233,
      "Ġessentially": 5234,
      "Ġsegment": 5235,
      "Ġpowers": 5236,
      "Ġtheoretical": 5237,
      "ãĢĤ": 5238,
      "mathsf": 5239,
      ")}{\\": 5240,
      ")}^{": 5241,
      "<}{": 5242,
      "?]:": 5243,
      "CT": 5244,
      "Kudos": 5245,
      "Pe": 5246,
      "RC": 5247,
      "gle": 5248,
      "gra": 5249,
      "iol": 5250,
      "iver": 5251,
      "ius": 5252,
      "ky": 5253,
      "lat": 5254,
      "multi": 5255,
      "po": 5256,
      "then": 5257,
      "you": 5258,
      "};": 5259,
      "Ġ)$": 5260,
      "ret": 5261,
      "rew": 5262,
      "Ġsigma": 5263,
      "Ġcapt": 5264,
      "ories": 5265,
      "itational": 5266,
      "alph": 5267,
      "Ġwindow": 5268,
      "Ġmix": 5269,
      "ingu": 5270,
      "Ġearlier": 5271,
      "Ġnamed": 5272,
      "ropy": 5273,
      "utive": 5274,
      "Ġreprodu": 5275,
      "Ġliter": 5276,
      "ĠAND": 5277,
      "ĠSE": 5278,
      "ĠSuppose": 5279,
      "idel": 5280,
      "ĠCa": 5281,
      "Ġstrict": 5282,
      "Ġ-\\": 5283,
      "irm": 5284,
      "ĠRo": 5285,
      "periment": 5286,
      "Ġnotion": 5287,
      "ĠHy": 5288,
      "ender": 5289,
      "Ġ[?]:": 5290,
      "Ġsomewhere": 5291,
      "Ġsomewhat": 5292,
      "Ġoutcome": 5293,
      "Ġ::": 5294,
      "avor": 5295,
      "well": 5296,
      "ipher": 5297,
      "Ġvarieties": 5298,
      "Ġteach": 5299,
      "Ġcontrad": 5300,
      "Ġcontract": 5301,
      "Ġsquared": 5302,
      "ĠDef": 5303,
      "Ġtook": 5304,
      "tember": 5305,
      "Ġcarry": 5306,
      "Ġdigital": 5307,
      "Ġeffects": 5308,
      "Ġremains": 5309,
      "issions": 5310,
      "Ġpresented": 5311,
      "ORT": 5312,
      "Ġindicates": 5313,
      "Ġnumerator": 5314,
      "Ġinvolving": 5315,
      "Ġexpressions": 5316,
      "Ġpreser": 5317,
      "Ġattrib": 5318,
      "Ġdynamic": 5319,
      "Ġlayer": 5320,
      "Ġbalance": 5321,
      "Ġaccurate": 5322,
      "Ġcandidate": 5323,
      "Ġextreme": 5324,
      "ogeneous": 5325,
      "varepsilon": 5326,
      "(*": 5327,
      "-)": 5328,
      "Trans": 5329,
      "ca": 5330,
      "fr": 5331,
      "fil": 5332,
      "iency": 5333,
      "title": 5334,
      "ux": 5335,
      "uge": 5336,
      "Ġtrad": 5337,
      "lement": 5338,
      "Ġwide": 5339,
      "Ġwiki": 5340,
      "Ġfri": 5341,
      "arse": 5342,
      "oms": 5343,
      "Ġ$(\\": 5344,
      "otimes": 5345,
      "Ġrele": 5346,
      "Ġhol": 5347,
      "ĠSign": 5348,
      "ams": 5349,
      "ching": 5350,
      "Ġproceed": 5351,
      "ĠMart": 5352,
      "ĠCO": 5353,
      "ĠCor": 5354,
      "odium": 5355,
      "}{{": 5356,
      "Ġvoid": 5357,
      "rian": 5358,
      "inted": 5359,
      "ĠLHC": 5360,
      "Ġmeet": 5361,
      "Ġmeant": 5362,
      "dule": 5363,
      "ĠUS": 5364,
      "Ġsimultaneous": 5365,
      "Ġmyself": 5366,
      "Ġinterface": 5367,
      "Ġdisplaystyle": 5368,
      "ovember": 5369,
      "ĠIts": 5370,
      "Ġapplies": 5371,
      "Ġinstant": 5372,
      "Ġthemselves": 5373,
      "forward": 5374,
      "Ġserv": 5375,
      "Ġreads": 5376,
      "Ġsquares": 5377,
      "Ġmeters": 5378,
      "Ġeditor": 5379,
      "Ġletter": 5380,
      "Ġcollection": 5381,
      "ĠFebruary": 5382,
      "Ġcorresponds": 5383,
      "Therefore": 5384,
      "Ġexplained": 5385,
      "Ġinvolved": 5386,
      "Ġiteration": 5387,
      "ĠSimilar": 5388,
      "ĠSubject": 5389,
      "ypes": 5390,
      "Ġirreducible": 5391,
      "Ġcriter": 5392,
      "Ġcritical": 5393,
      "Ġpatterns": 5394,
      "RUE": 5395,
      "Ġconfiguration": 5396,
      "Ġinertia": 5397,
      "Ġbattery": 5398,
      "+&": 5399,
      "<=": 5400,
      "Like": 5401,
      "MP": 5402,
      "Pi": 5403,
      "Please": 5404,
      "Rem": 5405,
      "ULL": 5406,
      "Where": 5407,
      "find": 5408,
      "gl": 5409,
      "ger": 5410,
      "rig": 5411,
      "scale": 5412,
      "uf": 5413,
      "void": 5414,
      "yan": 5415,
      "Ġtank": 5416,
      "inks": 5417,
      "atur": 5418,
      "atory": 5419,
      "enari": 5420,
      "item": 5421,
      "alled": 5422,
      "ana": 5423,
      "Ġbra": 5424,
      "Ġbir": 5425,
      "Ġbits": 5426,
      "Ġdense": 5427,
      "Ġmer": 5428,
      "Ġmoney": 5429,
      "edit": 5430,
      "Ġtold": 5431,
      "Ġisomorphism": 5432,
      "stood": 5433,
      "Ġhost": 5434,
      "ĠTarget": 5435,
      "Ġgamma": 5436,
      "Ġult": 5437,
      "ĠSpringer": 5438,
      "Ġvs": 5439,
      "ried": 5440,
      "ĠFlu": 5441,
      "Ġsections": 5442,
      "ĠRay": 5443,
      "ĠEq": 5444,
      "ĠGet": 5445,
      "Ġability": 5446,
      "tokes": 5447,
      "Ġcovari": 5448,
      "textbf": 5449,
      "Ġcompet": 5450,
      "ressed": 5451,
      "Ġedition": 5452,
      "Ġdefinitions": 5453,
      "Ġsecurity": 5454,
      "possible": 5455,
      "Ġsmallest": 5456,
      "Ġextend": 5457,
      "Ġestimation": 5458,
      "Ġestimator": 5459,
      "Ġoptimization": 5460,
      "Ġgreen": 5461,
      "ĠConst": 5462,
      "Ġquantities": 5463,
      "Ġdownload": 5464,
      "ĠTeX": 5465,
      "Ġprograms": 5466,
      "Ġatomic": 5467,
      "Ġcardinal": 5468,
      "ĠArray": 5469,
      "Ġbuilding": 5470,
      "Ġcells": 5471,
      "Which": 5472,
      "Ġupdated": 5473,
      "Ġmatching": 5474,
      "Ġpercentage": 5475,
      "Ġbehavi": 5476,
      "ĠIntroduction": 5477,
      "Left": 5478,
      "local": 5479,
      "ĠManagement": 5480,
      "âĶĢâĶĢ": 5481,
      "iliar": 5482,
      "Ġmistake": 5483,
      "thogonal": 5484,
      "-}\\": 5485,
      "App": 5486,
      "CE": 5487,
      "FC": 5488,
      "Follow": 5489,
      "RS": 5490,
      "Ver": 5491,
      "[ÃĹ": 5492,
      "]=": 5493,
      "ael": 5494,
      "cor": 5495,
      "count": 5496,
      "hn": 5497,
      "hib": 5498,
      "len": 5499,
      "pG": 5500,
      "pol": 5501,
      "rank": 5502,
      "Â«": 5503,
      "Ġsine": 5504,
      "Ġorient": 5505,
      "Ġpublished": 5506,
      "Ġbug": 5507,
      "Ġdou": 5508,
      "icolumn": 5509,
      "Ġnature": 5510,
      "ette": 5511,
      "rot": 5512,
      "rast": 5513,
      "iginal": 5514,
      "ĠSy": 5515,
      "ĠConsider": 5516,
      ".....": 5517,
      "ĠEven": 5518,
      "ĠWikipedia": 5519,
      "ĠNormal": 5520,
      "Ġpole": 5521,
      "abs": 5522,
      "izations": 5523,
      "Ġbutton": 5524,
      "ensities": 5525,
      "Ġyourself": 5526,
      "ĠVir": 5527,
      "Ġpert": 5528,
      "ĠReply": 5529,
      "suming": 5530,
      "Ġshowing": 5531,
      "Ġreconst": 5532,
      "Ġstatements": 5533,
      "obile": 5534,
      "Ġstrings": 5535,
      "Ġends": 5536,
      "ĠMaybe": 5537,
      "Ġlisted": 5538,
      "Ġlogical": 5539,
      "Ġtrain": 5540,
      "Ġincluded": 5541,
      "ĠShare": 5542,
      "Ġreflect": 5543,
      "Ġinflu": 5544,
      "Ġpreviously": 5545,
      "Ġapplying": 5546,
      "Ġconsistent": 5547,
      "attering": 5548,
      "Ġdeveloped": 5549,
      "Ġleading": 5550,
      "Ġconcepts": 5551,
      "Entering": 5552,
      "Ġengineering": 5553,
      "Ġdiscussed": 5554,
      "Ġconcern": 5555,
      "&=&": 5556,
      "acksl": 5557,
      "Ġachieve": 5558,
      "âĦ¢": 5559,
      "Calcul": 5560,
      "quantity": 5561,
      "Step": 5562,
      "Ġschool": 5563,
      "<\\": 5564,
      "Act": 5565,
      "Hence": 5566,
      "Jan": 5567,
      "MVar": 5568,
      "]\\": 5569,
      "fig": 5570,
      "gence": 5571,
      "ham": 5572,
      "ians": 5573,
      "non": 5574,
      "oad": 5575,
      "page": 5576,
      "split": 5577,
      "ÎĶ": 5578,
      "ĠčĊ": 5579,
      "Ġtal": 5580,
      "ativity": 5581,
      "ister": 5582,
      "Ġcame": 5583,
      "level": 5584,
      "Ġbene": 5585,
      "Ġdil": 5586,
      "Ġdrag": 5587,
      "omas": 5588,
      "Ġnan": 5589,
      "Ġhim": 5590,
      "Ġln": 5591,
      "Ġgene": 5592,
      "ĠAg": 5593,
      "ĠSem": 5594,
      "Ġstop": 5595,
      "ĠRun": 5596,
      "ĠRad": 5597,
      "ĠRem": 5598,
      "ĠBecause": 5599,
      "ĠExt": 5600,
      "ĠWill": 5601,
      "ĠList": 5602,
      "endix": 5603,
      "formance": 5604,
      "ĠVolume": 5605,
      "Ġverb": 5606,
      "ĠKiB": 5607,
      "ĠĠĠĠĠĠĠĠĠĠĠ": 5608,
      "atures": 5609,
      "Ġparab": 5610,
      "ught": 5611,
      "format": 5612,
      "Ġsurfaces": 5613,
      "Ġmassive": 5614,
      "Ġbuff": 5615,
      "Ġhighlight": 5616,
      "ordinate": 5617,
      "Ġrepresentations": 5618,
      "Text": 5619,
      "prec": 5620,
      "````": 5621,
      "Ġconditional": 5622,
      "Ġsupported": 5623,
      "ginia": 5624,
      "Ġdocumentation": 5625,
      "Ġdiagonal": 5626,
      "Ġlearned": 5627,
      "Ġdesigned": 5628,
      "Ġintroduced": 5629,
      "See": 5630,
      "Ġpossibly": 5631,
      "Does": 5632,
      "Ġpurpose": 5633,
      "Ġcauses": 5634,
      "Ġmonths": 5635,
      "Ġadjust": 5636,
      "Ġgravity": 5637,
      "ĠDeterm": 5638,
      "ĠCommunic": 5639,
      "Ġexcav": 5640,
      "Ġinterviewer": 5641,
      "Ġprecisely": 5642,
      "widehat": 5643,
      "ĠAmerican": 5644,
      "amiltonian": 5645,
      ")[": 5646,
      ")|": 5647,
      "-(": 5648,
      "CF": 5649,
      "Function": 5650,
      "Full": 5651,
      "MA": 5652,
      "NG": 5653,
      "Ob": 5654,
      "Well": 5655,
      "^+": 5656,
      "groups": 5657,
      "just": 5658,
      "mann": 5659,
      "ners": 5660,
      "oe": 5661,
      "uan": 5662,
      "van": 5663,
      "ÃŃ": 5664,
      "ï¸": 5665,
      "inline": 5666,
      "info": 5667,
      "reed": 5668,
      "atus": 5669,
      "itus": 5670,
      "Ġfram": 5671,
      "Ġpip": 5672,
      "Ġantenna": 5673,
      "Ġmen": 5674,
      "Ġisol": 5675,
      "Ġnitrogen": 5676,
      "ractions": 5677,
      "Ġ((": 5678,
      "ĠTake": 5679,
      "amin": 5680,
      "choose": 5681,
      "ĠMountain": 5682,
      "ĠCH": 5683,
      "ĠCPU": 5684,
      "ĠPage": 5685,
      "Ġexternal": 5686,
      "ĠFurther": 5687,
      "Ġdeep": 5688,
      "ached": 5689,
      "ands": 5690,
      "ĠBanach": 5691,
      "Ġsup": 5692,
      "ĠNav": 5693,
      "ĠNotes": 5694,
      "ĠNumer": 5695,
      "artment": 5696,
      "iesel": 5697,
      "Ġchannel": 5698,
      "Ġtrouble": 5699,
      "Ġcool": 5700,
      "Ġjump": 5701,
      "Ġclock": 5702,
      "Ġspring": 5703,
      "Ġsparse": 5704,
      "finity": 5705,
      "closed": 5706,
      "Ġmodule": 5707,
      "Ġrock": 5708,
      "ibli": 5709,
      "ĠForum": 5710,
      "Ġcommut": 5711,
      "Ġcomputers": 5712,
      "Ġrecently": 5713,
      "Ġbounds": 5714,
      "ATE": 5715,
      "Ġstarts": 5716,
      "Ġhighly": 5717,
      "Ġideal": 5718,
      "Ġ-->": 5719,
      "Ġtypically": 5720,
      "show": 5721,
      "ĠAugust": 5722,
      "model": 5723,
      "meritus": 5724,
      "Ġflows": 5725,
      "placement": 5726,
      "Ġsuperconduct": 5727,
      "ĠÂłĠÂłĠÂłĠÂł": 5728,
      "Def": 5729,
      "Ġautomatically": 5730,
      "Ġasymmetric": 5731,
      "Ġdecrease": 5732,
      "ĠMoreover": 5733,
      "mediately": 5734,
      "Ġopposite": 5735,
      "Ġbinomial": 5736,
      "Ġasymptotic": 5737,
      "ĠSuper": 5738,
      "Ġwondering": 5739,
      "Ġversions": 5740,
      "Ġtangent": 5741,
      "Ġfeedback": 5742,
      "Ġgrowth": 5743,
      "Ġinvariant": 5744,
      "Ġadvantage": 5745,
      "Ġuncertainty": 5746,
      "Ġcontinue": 5747,
      ")!": 5748,
      "Ad": 5749,
      "BA": 5750,
      "Det": 5751,
      "IL": 5752,
      "Ind": 5753,
      "Pre": 5754,
      "build": 5755,
      "cases": 5756,
      "dr": 5757,
      "foo": 5758,
      "field": 5759,
      "kl": 5760,
      "mode": 5761,
      "mars": 5762,
      "mbox": 5763,
      "pid": 5764,
      "trivial": 5765,
      "âĭ": 5766,
      "rem": 5767,
      "atio": 5768,
      "Ġsun": 5769,
      "Ġsorry": 5770,
      "eness": 5771,
      "alities": 5772,
      "Ġwent": 5773,
      "Ġwish": 5774,
      "Ġbran": 5775,
      "Ġdc": 5776,
      "Ġdie": 5777,
      "Ġmacro": 5778,
      "eturn": 5779,
      "util": 5780,
      "imo": 5781,
      "oton": 5782,
      "ĠAu": 5783,
      "chron": 5784,
      "Ġconclude": 5785,
      "atell": 5786,
      "Ġstren": 5787,
      "Ġstated": 5788,
      "ilos": 5789,
      "eli": 5790,
      "Ġrig": 5791,
      "ĠRam": 5792,
      "oren": 5793,
      "ĠBoth": 5794,
      "ĠEIP": 5795,
      "ĠNone": 5796,
      "ĠGave": 5797,
      "index": 5798,
      "erson": 5799,
      "Ġabstract": 5800,
      "ecture": 5801,
      "Ġimmediately": 5802,
      "Ġconstit": 5803,
      "Ġrole": 5804,
      "Ġoverall": 5805,
      "Ġaddress": 5806,
      "atern": 5807,
      "Ġunderlying": 5808,
      "ĠProve": 5809,
      "ÂłÂłÂł": 5810,
      "Ġworked": 5811,
      "ĠComplex": 5812,
      "Ġacts": 5813,
      "rently": 5814,
      "Ġproved": 5815,
      "perty": 5816,
      ")$$,": 5817,
      "Ġhelpful": 5818,
      "Ġemission": 5819,
      "Ġassuming": 5820,
      "Ġenter": 5821,
      "Ann": 5822,
      "Stud": 5823,
      "month": 5824,
      "Ġmathrm": 5825,
      "Ġreturned": 5826,
      "Ġconsidering": 5827,
      "Ġsheaf": 5828,
      "Ġreasoning": 5829,
      "points": 5830,
      "Ġintervals": 5831,
      "Ġeigenvalues": 5832,
      "Ġmessages": 5833,
      "Ġnecessarily": 5834,
      "Ġleads": 5835,
      "Ġpermut": 5836,
      "thereum": 5837,
      "Ġremoved": 5838,
      "Ġbroad": 5839,
      "flag": 5840,
      "negative": 5841,
      "ivariate": 5842,
      "multicolumn": 5843,
      "Ġbigger": 5844,
      "amera": 5845,
      "Ġbehaviour": 5846,
      "ĠVirginia": 5847,
      "ackslash": 5848,
      "ï¸ı": 5849,
      "'$": 5850,
      "CS": 5851,
      "Equ": 5852,
      "Just": 5853,
      "Long": 5854,
      "Output": 5855,
      "Source": 5856,
      "Second": 5857,
      "Test": 5858,
      "[]": 5859,
      "ded": 5860,
      "ddot": 5861,
      "ked": 5862,
      "mass": 5863,
      "rin": 5864,
      "tl": 5865,
      "tion": 5866,
      "uc": 5867,
      "uations": 5868,
      "ye": 5869,
      "ÂŃ": 5870,
      "Ëľ": 5871,
      "hest": 5872,
      "Ġcryst": 5873,
      "leigh": 5874,
      "Ġwall": 5875,
      "Ġpract": 5876,
      "Ġtoken": 5877,
      "ĠIR": 5878,
      "ĠTotal": 5879,
      "ĠMentor": 5880,
      "bles": 5881,
      "ĠPDE": 5882,
      "ights": 5883,
      "iring": 5884,
      "ĠDon": 5885,
      "ĠDavid": 5886,
      "ĠEvery": 5887,
      "ĠNE": 5888,
      "Ġneur": 5889,
      "ogen": 5890,
      "Ġchart": 5891,
      "Ġchlor": 5892,
      "Ġnums": 5893,
      "Ġabelian": 5894,
      "Ġuni": 5895,
      "ieved": 5896,
      "ĠUs": 5897,
      "Ġwouldn": 5898,
      "Ġenumer": 5899,
      "Ġprefer": 5900,
      "project": 5901,
      "Ġcomputing": 5902,
      "ĠAlgorithm": 5903,
      "ĠAlthough": 5904,
      "Ġsurvey": 5905,
      "Ġcreating": 5906,
      "Ġcolour": 5907,
      "ĠMeasure": 5908,
      "Ġcosts": 5909,
      "ĠSciences": 5910,
      "ĠApplied": 5911,
      "rivate": 5912,
      "Ġfamiliar": 5913,
      "csv": 5914,
      "Ġassignment": 5915,
      "ĠFunctions": 5916,
      "bsite": 5917,
      "sequence": 5918,
      "Ġuniformly": 5919,
      "library": 5920,
      "Ġgravitational": 5921,
      "ĠQuantum": 5922,
      "Ġeventually": 5923,
      "Ġitems": 5924,
      "ĠPoly": 5925,
      "Ġignore": 5926,
      "Ġcomposition": 5927,
      "Ġharmonic": 5928,
      "Ġoverlap": 5929,
      "pagation": 5930,
      "Ġcharged": 5931,
      "Ġheavy": 5932,
      "Ġspatial": 5933,
      "'),": 5934,
      "?)": 5935,
      "Sp": 5936,
      "Take": 5937,
      "dor": 5938,
      "dist": 5939,
      "ew": 5940,
      "iable": 5941,
      "mag": 5942,
      "some": 5943,
      "}:": 5944,
      "Ã¤": 5945,
      "Ġten": 5946,
      "Ġsodium": 5947,
      "orter": 5948,
      "itors": 5949,
      "Ġpush": 5950,
      "Ġdice": 5951,
      "Ġmixed": 5952,
      "omain": 5953,
      "Ġemail": 5954,
      "step": 5955,
      "stron": 5956,
      "implies": 5957,
      "ĠTimer": 5958,
      "ĠSequ": 5959,
      "ĠSource": 5960,
      "Ġonto": 5961,
      "ifting": 5962,
      "version": 5963,
      "Ġstability": 5964,
      "eline": 5965,
      "ĠFin": 5966,
      "ĠRus": 5967,
      "orean": 5968,
      "ĠEthereum": 5969,
      "ĠLast": 5970,
      "ĠName": 5971,
      "ichael": 5972,
      "abled": 5973,
      "anges": 5974,
      "Ġunion": 5975,
      "Ġunless": 5976,
      "Ġresource": 5977,
      "Ġcompany": 5978,
      "defined": 5979,
      "Ġformal": 5980,
      "Ġwasn": 5981,
      "Ġscenari": 5982,
      "apes": 5983,
      "akes": 5984,
      "aket": 5985,
      "overed": 5986,
      "Ġtransmission": 5987,
      "exe": 5988,
      "Ġparen": 5989,
      "Ġcommunity": 5990,
      "Ġtrial": 5991,
      "Ġcomputational": 5992,
      "Ġprimes": 5993,
      "check": 5994,
      "Ġblocks": 5995,
      "Ġsurpr": 5996,
      "cepted": 5997,
      "Ġoperating": 5998,
      "Ġdecision": 5999,
      "conom": 6000,
      "Ġintu": 6001,
      "Ġlengths": 6002,
      "requency": 6003,
      "Ġrandomly": 6004,
      "Ġincreased": 6005,
      "leted": 6006,
      "ĠNext": 6007,
      "Ġshell": 6008,
      "Ġmonoid": 6009,
      "ĠSection": 6010,
      "Ġpredictions": 6011,
      "ancy": 6012,
      "Ġlinked": 6013,
      "Ġbelong": 6014,
      "ployed": 6015,
      "topic": 6016,
      "Ġdevices": 6017,
      "dinger": 6018,
      "Ġattached": 6019,
      "Ġpipe": 6020,
      "Ġprompt": 6021,
      "Ġorbitals": 6022,
      "Ġspecifies": 6023,
      "Compute": 6024,
      "Ġaffine": 6025,
      "pository": 6026,
      "Ġmarginal": 6027,
      "Ġanswered": 6028,
      "./": 6029,
      "Author": 6030,
      "Bbb": 6031,
      "DP": 6032,
      "Date": 6033,
      "PE": 6034,
      "Ser": 6035,
      "Stokes": 6036,
      "\\!": 6037,
      "bys": 6038,
      "bits": 6039,
      "kg": 6040,
      "ny": 6041,
      "night": 6042,
      "rim": 6043,
      "source": 6044,
      "vature": 6045,
      "yond": 6046,
      "Ġtrack": 6047,
      "Ġsatell": 6048,
      "ales": 6049,
      "leg": 6050,
      "Ġinclusion": 6051,
      "icking": 6052,
      "Ġisomorphic": 6053,
      "uty": 6054,
      "Ġhot": 6055,
      "Ġhint": 6056,
      "Ġgames": 6057,
      "Ġbeyond": 6058,
      "ĠAD": 6059,
      "ĠAuthor": 6060,
      "ulations": 6061,
      "chapter": 6062,
      "Ġcone": 6063,
      "ĠMake": 6064,
      "ĠCould": 6065,
      "}{<}{": 6066,
      "url": 6067,
      "Ġstd": 6068,
      "Ġexpert": 6069,
      "Ġexceed": 6070,
      "ĠFFT": 6071,
      "Ġdem": 6072,
      "Ġordered": 6073,
      "Ġorthogonal": 6074,
      "romag": 6075,
      "ĠHi": 6076,
      "ĠHz": 6077,
      "ĠEv": 6078,
      "ĠEmeritus": 6079,
      "ĠLat": 6080,
      "ĠNOT": 6081,
      "ĠNovember": 6082,
      "emma": 6083,
      "ĠOR": 6084,
      "ĠOper": 6085,
      "erset": 6086,
      "ĠJava": 6087,
      "output": 6088,
      "jective": 6089,
      "ructor": 6090,
      "clus": 6091,
      "aved": 6092,
      "Ġmodules": 6093,
      "rown": 6094,
      "Ġvariation": 6095,
      "Ġ||": 6096,
      "Ġintersect": 6097,
      "oving": 6098,
      "Ġ<<": 6099,
      "Ġunderstood": 6100,
      "cosx": 6101,
      "ĠStatistical": 6102,
      "process": 6103,
      "Ġinstalled": 6104,
      "poses": 6105,
      "Ġobjective": 6106,
      "Ġcircum": 6107,
      "Ġcircuits": 6108,
      "Ġderive": 6109,
      "Ġextract": 6110,
      "equation": 6111,
      "Ġconfidence": 6112,
      "ĠMathematica": 6113,
      "ĠâĪļ": 6114,
      "ĠÎĶ": 6115,
      "Ġtechnology": 6116,
      "ALSE": 6117,
      "Ġindicate": 6118,
      "Ġelectrical": 6119,
      "Ġexponent": 6120,
      "Ġcategories": 6121,
      "Ġ&=&": 6122,
      "ĠGauss": 6123,
      "Ġcapacity": 6124,
      "dcdsb": 6125,
      "Ġmanifolds": 6126,
      "Ġfloat": 6127,
      "Ġsimulations": 6128,
      "idden": 6129,
      "%%%%%%%%%%%%%%%%": 6130,
      "rief": 6131,
      "valued": 6132,
      "longrightarrow": 6133,
      "Ġpronouns": 6134,
      "English": 6135,
      "Ġatmosp": 6136,
      "ĠRayleigh": 6137,
      ":$": 6138,
      "IST": 6139,
      "Known": 6140,
      "LS": 6141,
      "Li": 6142,
      "Man": 6143,
      "TE": 6144,
      "[-": 6145,
      "ae": 6146,
      "bt": 6147,
      "cong": 6148,
      "fi": 6149,
      "fill": 6150,
      "ford": 6151,
      "futil": 6152,
      "hi": 6153,
      "run": 6154,
      "rust": 6155,
      "rating": 6156,
      "rings": 6157,
      "sy": 6158,
      "spect": 6159,
      "uk": 6160,
      "}^{-": 6161,
      "ĠÃ": 6162,
      "Ġ}}": 6163,
      "Ġtour": 6164,
      "Ġtick": 6165,
      "heet": 6166,
      "Ġcash": 6167,
      "arter": 6168,
      "Ġdy": 6169,
      "Ġdest": 6170,
      "Ġdensities": 6171,
      "Ġinches": 6172,
      "Ġearth": 6173,
      "static": 6174,
      "asks": 6175,
      "imate": 6176,
      "umann": 6177,
      "Ġconsec": 6178,
      "Ġstuck": 6179,
      "Ġexercise": 6180,
      "ilateral": 6181,
      "ĠFiles": 6182,
      "ache": 6183,
      "ĠEarth": 6184,
      "ĠOF": 6185,
      "Ġquas": 6186,
      "ustrial": 6187,
      "aging": 6188,
      "ductor": 6189,
      "Ġcoin": 6190,
      "Ġsomehow": 6191,
      "close": 6192,
      "ĠKB": 6193,
      "Ġmodify": 6194,
      "ĠItal": 6195,
      "Ġzeros": 6196,
      "Ġmultiplied": 6197,
      "}}{,": 6198,
      "ATION": 6199,
      "Ġlinearly": 6200,
      "Ġtravel": 6201,
      "nergy": 6202,
      "Ġguys": 6203,
      "ociety": 6204,
      "Ġeffective": 6205,
      "ĠSeptember": 6206,
      "Ġseparable": 6207,
      "Ġequivalence": 6208,
      "Ġtransformations": 6209,
      "Ġinfinitely": 6210,
      "ĠArch": 6211,
      "Ġobservation": 6212,
      "ceedings": 6213,
      "functions": 6214,
      "Ġboard": 6215,
      "EEE": 6216,
      "Ġfloating": 6217,
      "&-&": 6218,
      "Ġexplicitly": 6219,
      "ĠAppro": 6220,
      "Matrix": 6221,
      "ĠDirac": 6222,
      "Ġmeasuring": 6223,
      "ĠBayesian": 6224,
      "float": 6225,
      "Ġboson": 6226,
      "ĠNavier": 6227,
      "\">": 6228,
      "AQ": 6229,
      "Get": 6230,
      "LF": 6231,
      "More": 6232,
      "Number": 6233,
      "OW": 6234,
      "Our": 6235,
      "Title": 6236,
      "]^": 6237,
      "]);": 6238,
      "cut": 6239,
      "cate": 6240,
      "core": 6241,
      "date": 6242,
      "hard": 6243,
      "pass": 6244,
      "pole": 6245,
      "zer": 6246,
      "ä»": 6247,
      "Ġtur": 6248,
      "onical": 6249,
      "onometric": 6250,
      "Ġsed": 6251,
      "Ġsaw": 6252,
      "isation": 6253,
      "Ġpg": 6254,
      "esign": 6255,
      "Ġbooks": 6256,
      "outh": 6257,
      "Ġmu": 6258,
      "Ġmole": 6259,
      "Ġmiss": 6260,
      "Ġmiles": 6261,
      "ctic": 6262,
      "Ġell": 6263,
      "Ġearly": 6264,
      "Ġelimin": 6265,
      "Ġ\\}$": 6266,
      "asons": 6267,
      "ĠISB": 6268,
      "ĠIdent": 6269,
      "Ġreplies": 6270,
      "ationary": 6271,
      "ĠTry": 6272,
      "ĠTex": 6273,
      "umb": 6274,
      "ĠSO": 6275,
      "Ġsto": 6276,
      "ĠFinally": 6277,
      "irich": 6278,
      "tages": 6279,
      "ĠRed": 6280,
      "period": 6281,
      "ĠBen": 6282,
      "ĠBook": 6283,
      "Ġsuit": 6284,
      "ĠWang": 6285,
      "abil": 6286,
      "Ġnumpy": 6287,
      "Ġleaves": 6288,
      "essage": 6289,
      "ancel": 6290,
      "Ġcompre": 6291,
      "Ġformation": 6292,
      "Ġscreen": 6293,
      "Ġsubmission": 6294,
      "opic": 6295,
      "ĠAnn": 6296,
      "since": 6297,
      "Ġdetail": 6298,
      "Ġcommitted": 6299,
      "proton": 6300,
      "Ġphys": 6301,
      "scrib": 6302,
      "Ġparametric": 6303,
      "python": 6304,
      "Ġderivation": 6305,
      "Ġprocessing": 6306,
      "Ġidentified": 6307,
      "Ġmathematic": 6308,
      "Proof": 6309,
      "rrrr": 6310,
      "Ġallowed": 6311,
      "organ": 6312,
      "ĠJune": 6313,
      "Ġseparately": 6314,
      "Ġpassed": 6315,
      "Ġloan": 6316,
      "Ġinequalities": 6317,
      "Ġdifferentiable": 6318,
      "Ġproperly": 6319,
      "Ġbalanced": 6320,
      "Ġregarding": 6321,
      "Ġpossibility": 6322,
      "ĠRelated": 6323,
      "Ġlabels": 6324,
      "ophy": 6325,
      "Ġstatistic": 6326,
      "ĠAcad": 6327,
      "ĠGoogle": 6328,
      "Ġbundle": 6329,
      "Ġkernel": 6330,
      "ĠIssue": 6331,
      "Ġefficiency": 6332,
      "Peer": 6333,
      "Ġtalking": 6334,
      "dorff": 6335,
      "ĠItalian": 6336,
      "ĠISBN": 6337,
      "irichlet": 6338,
      "':": 6339,
      "+(": 6340,
      ".[": 6341,
      "Box": 6342,
      "CM": 6343,
      "Double": 6344,
      "Fe": 6345,
      "Graph": 6346,
      "NS": 6347,
      "QL": 6348,
      "Sum": 6349,
      "Table": 6350,
      "Two": 6351,
      "diff": 6352,
      "ee": 6353,
      "hol": 6354,
      "iest": 6355,
      "karl": 6356,
      "mv": 6357,
      "mis": 6358,
      "mers": 6359,
      "ober": 6360,
      "oplus": 6361,
      "post": 6362,
      "power": 6363,
      "squ": 6364,
      "speed": 6365,
      "uzz": 6366,
      "|=": 6367,
      "}-\\": 6368,
      "Â®": 6369,
      "Ġtends": 6370,
      "include": 6371,
      "Ġsix": 6372,
      "Ġsizes": 6373,
      "Ġwatch": 6374,
      "Ġfuel": 6375,
      "Ġdro": 6376,
      "Ġmiddle": 6377,
      "Ġinsert": 6378,
      "Ġhistory": 6379,
      "ĠSR": 6380,
      "amps": 6381,
      "ifies": 6382,
      "ulated": 6383,
      "atever": 6384,
      "Ġareas": 6385,
      "Ġvon": 6386,
      "Ġvar": 6387,
      "Ġstage": 6388,
      "Ġstory": 6389,
      "Ġexhib": 6390,
      "riz": 6391,
      "ĠFree": 6392,
      "plectic": 6393,
      "Ġdelete": 6394,
      "ĠDown": 6395,
      "ĠDaily": 6396,
      "Ġsear": 6397,
      "ĠBoolean": 6398,
      "ĠLoc": 6399,
      "ĠLear": 6400,
      "Ġneither": 6401,
      "mathit": 6402,
      "ĠGold": 6403,
      "ĠODE": 6404,
      "izza": 6405,
      "Ġkil": 6406,
      "ager": 6407,
      "agraph": 6408,
      "anging": 6409,
      "ĠInstitute": 6410,
      "Ġ{}": 6411,
      "Ġcovers": 6412,
      "âĢĻ$": 6413,
      "Ġworry": 6414,
      "Ġanywhere": 6415,
      "Ġknows": 6416,
      "Thus": 6417,
      "Ġteam": 6418,
      "Ġarrange": 6419,
      "eck": 6420,
      "ibrary": 6421,
      "Ġbases": 6422,
      "ĠProgram": 6423,
      "Ġcurvature": 6424,
      "ximum": 6425,
      "Ġwants": 6426,
      "posed": 6427,
      "Ġacting": 6428,
      "^{-\\": 6429,
      "series": 6430,
      "}}{}\\": 6431,
      "Ġdescent": 6432,
      "Ġexplore": 6433,
      "Ġassumptions": 6434,
      "Ġentropy": 6435,
      "Ġtraject": 6436,
      "Ġconstants": 6437,
      "State": 6438,
      "monia": 6439,
      "ARSE": 6440,
      "ĠOnly": 6441,
      "shift": 6442,
      "Ġproofs": 6443,
      "solve": 6444,
      "ĠApril": 6445,
      "Ġprediction": 6446,
      "asticity": 6447,
      "Ġcalling": 6448,
      "Ġcertainly": 6449,
      "ĠImage": 6450,
      "Ġconsisting": 6451,
      "Ġsuggested": 6452,
      "Ġiterations": 6453,
      "auge": 6454,
      "ĠDynamics": 6455,
      "Ġexecute": 6456,
      "Originally": 6457,
      "Ġconstructed": 6458,
      "Ġbonds": 6459,
      "samples": 6460,
      "Ġrepeated": 6461,
      "Ġspecifically": 6462,
      "ĠViews": 6463,
      "ĠSurface": 6464,
      "Ġroutine": 6465,
      "nbsp": 6466,
      "Ġcryptocurrency": 6467,
      "Ġstrategy": 6468,
      "ĠChemistry": 6469,
      "ĠDepartment": 6470,
      "ĠCharacter": 6471,
      "Ġbirth": 6472,
      "stronom": 6473,
      "Ġcomprehen": 6474,
      "\"]": 6475,
      "$'": 6476,
      ",$$": 6477,
      "Ag": 6478,
      "Add": 6479,
      "According": 6480,
      "IR": 6481,
      "OP": 6482,
      "Py": 6483,
      "Rel": 6484,
      "Value": 6485,
      "](": 6486,
      "ao": 6487,
      "cancel": 6488,
      "different": 6489,
      "git": 6490,
      "gth": 6491,
      "jo": 6492,
      "last": 6493,
      "np": 6494,
      "rv": 6495,
      "rons": 6496,
      "sch": 6497,
      "ty": 6498,
      "uro": 6499,
      "urable": 6500,
      "vised": 6501,
      "||": 6502,
      "Îµ": 6503,
      "âī": 6504,
      "ĠÃ¢": 6505,
      "Ġtan": 6506,
      "ini": 6507,
      "Ġfails": 6508,
      "Ġbatch": 6509,
      "Ġdr": 6510,
      "Ġms": 6511,
      "ico": 6512,
      "Ġtoward": 6513,
      "etal": 6514,
      "ras": 6515,
      "ĠIEEE": 6516,
      "Ġreverse": 6517,
      "Ġreasons": 6518,
      "Ġlinks": 6519,
      "ĠSym": 6520,
      "ifiers": 6521,
      "Ġconsum": 6522,
      "ĠMC": 6523,
      "ĠCpG": 6524,
      "terest": 6525,
      "$$)": 6526,
      "ĠPublished": 6527,
      "Ġexert": 6528,
      "osis": 6529,
      "ĠFactor": 6530,
      "ĠBound": 6531,
      "ĠWor": 6532,
      "ĠNational": 6533,
      "ĠNULL": 6534,
      "physics": 6535,
      "Ġshad": 6536,
      "ocol": 6537,
      "These": 6538,
      "ooking": 6539,
      "ĠThread": 6540,
      "tools": 6541,
      "),\\": 6542,
      "Ġmatches": 6543,
      "main": 6544,
      "Ġspread": 6545,
      "ffort": 6546,
      "Ġadapt": 6547,
      "jects": 6548,
      "ĠYork": 6549,
      "ĠReason": 6550,
      "Ġdistances": 6551,
      "Ġdisplacement": 6552,
      "Ġcontents": 6553,
      "Ġtransverse": 6554,
      "ney": 6555,
      "Ġdetailed": 6556,
      "Ġ}^{": 6557,
      "display": 6558,
      "Ġinstructions": 6559,
      "Ġtriple": 6560,
      "ĠChrist": 6561,
      "ructural": 6562,
      "Ġaccom": 6563,
      "}_{\\": 6564,
      "Ġdecide": 6565,
      "Ġgeneralization": 6566,
      "Ġlimited": 6567,
      "clear": 6568,
      "Ġtypical": 6569,
      "Ġtables": 6570,
      "cope": 6571,
      "Ġseparated": 6572,
      "Ġcommonly": 6573,
      "Quote": 6574,
      "riting": 6575,
      "Ġimplemented": 6576,
      "parent": 6577,
      "Ġpopular": 6578,
      "Ġpersonal": 6579,
      "Ġsimpler": 6580,
      "Ġmechanical": 6581,
      "Ġdatab": 6582,
      "ĠCalculus": 6583,
      "Ġschemes": 6584,
      "Ġrelatively": 6585,
      "Ġmarket": 6586,
      "Ġballs": 6587,
      "true": 6588,
      "Ġclosest": 6589,
      "Ġinvestigate": 6590,
      "Ġordinal": 6591,
      "olicy": 6592,
      "enny": 6593,
      "ĠFormula": 6594,
      "Ġcopies": 6595,
      "irtual": 6596,
      "ĠEucl": 6597,
      "Ġinterpretation": 6598,
      ",...,": 6599,
      "olfram": 6600,
      "digit": 6601,
      "Ġextremely": 6602,
      "Ġperturb": 6603,
      "Ġconsecutive": 6604,
      "&&": 6605,
      "=>": 6606,
      "Am": 6607,
      "BC": 6608,
      "Both": 6609,
      "Co": 6610,
      "DM": 6611,
      "Each": 6612,
      "GC": 6613,
      "Group": 6614,
      "LT": 6615,
      "Mar": 6616,
      "MENT": 6617,
      "PG": 6618,
      "Page": 6619,
      "UP": 6620,
      "Write": 6621,
      "cover": 6622,
      "eks": 6623,
      "game": 6624,
      "ls": 6625,
      "mation": 6626,
      "nov": 6627,
      "pact": 6628,
      "raries": 6629,
      "ued": 6630,
      "wave": 6631,
      "wikipedia": 6632,
      "Ġì": 6633,
      "Ġions": 6634,
      "Ġtun": 6635,
      "inner": 6636,
      "real": 6637,
      "Ġwait": 6638,
      "Ġfavor": 6639,
      "Ġbill": 6640,
      "Ġdark": 6641,
      "Ġmort": 6642,
      "Ġmoles": 6643,
      "iced": 6644,
      "omot": 6645,
      "Ġ$=": 6646,
      "strap": 6647,
      "ĠID": 6648,
      "Ġrepository": 6649,
      "Ġlive": 6650,
      "âĢĭ": 6651,
      "ĠTuring": 6652,
      "ĠAccess": 6653,
      "amater": 6654,
      "charge": 6655,
      "Ġcong": 6656,
      "Ġconform": 6657,
      "ĠCyl": 6658,
      "ayer": 6659,
      "ĠPractice": 6660,
      "Ġstable": 6661,
      "Ġexcess": 6662,
      "ilinear": 6663,
      "unk": 6664,
      "plify": 6665,
      "Ġrates": 6666,
      "Ġrings": 6667,
      "plete": 6668,
      "Ġdead": 6669,
      "ĠDual": 6670,
      "ĠDirect": 6671,
      "ĠDirichlet": 6672,
      "ady": 6673,
      "_{-\\": 6674,
      "ĠHamiltonian": 6675,
      "emic": 6676,
      "ersion": 6677,
      "Ġlect": 6678,
      "Ġleave": 6679,
      "ĠThomas": 6680,
      "Ġsoil": 6681,
      "Ġunlike": 6682,
      "ĠVisual": 6683,
      "Ġcompat": 6684,
      "Ġcompound": 6685,
      "Ġmodern": 6686,
      "Ġscope": 6687,
      "common": 6688,
      "Ġvariant": 6689,
      "apse": 6690,
      "Ġexpand": 6691,
      "sinx": 6692,
      "Ġdetection": 6693,
      "valuation": 6694,
      "Ġcouldn": 6695,
      "Ġclassification": 6696,
      "Ġ\\\\\\\\": 6697,
      "Ġstudied": 6698,
      "score": 6699,
      "Ġreply": 6700,
      ")^{\\": 6701,
      "Ġequality": 6702,
      "Ġsummary": 6703,
      "Ġchecking": 6704,
      "Ġintensity": 6705,
      "Ġdiode": 6706,
      "Ġflat": 6707,
      "Ġcentre": 6708,
      "Ġcentroid": 6709,
      "Ġwavelet": 6710,
      "Ġcharacteristics": 6711,
      "++)": 6712,
      "Ġpaths": 6713,
      "Join": 6714,
      "Ġincident": 6715,
      "Ġnamely": 6716,
      "Ġcalls": 6717,
      "Ġpassing": 6718,
      "Ġsupports": 6719,
      "Ġevaluated": 6720,
      "Ġfilled": 6721,
      "Ġsemi": 6722,
      "Ġencoun": 6723,
      "iculty": 6724,
      "Ġplanet": 6725,
      "MATH": 6726,
      "tilde": 6727,
      "ICE": 6728,
      "Ġsubstitute": 6729,
      "downarrow": 6730,
      "Ġmedium": 6731,
      "Ġmarks": 6732,
      "valuate": 6733,
      "chers": 6734,
      "Mathemat": 6735,
      "Solve": 6736,
      "ĠURL": 6737,
      "Ġdemonstrate": 6738,
      "Ġprogress": 6739,
      "ĠInstead": 6740,
      "Ġhyperbolic": 6741,
      "Ġtreatment": 6742,
      "_________________": 6743,
      "Accepted": 6744,
      "Ġmillion": 6745,
      "Ġtutorial": 6746,
      "Ġcommunication": 6747,
      "Expand": 6748,
      "Ġframes": 6749,
      "*\\": 6750,
      "Cre": 6751,
      "File": 6752,
      "Ge": 6753,
      "Hz": 6754,
      "High": 6755,
      "Val": 6756,
      "Wor": 6757,
      "aught": 6758,
      "ball": 6759,
      "cond": 6760,
      "cov": 6761,
      "eed": 6762,
      "hm": 6763,
      "hal": 6764,
      "mma": 6765,
      "ni": 6766,
      "uum": 6767,
      "when": 6768,
      "})\\": 6769,
      "ðĿ": 6770,
      "ĉĉ": 6771,
      "Ġactions": 6772,
      "Ġok": 6773,
      "Ġcot": 6774,
      "orrow": 6775,
      "Ġwx": 6776,
      "Ġwalk": 6777,
      "anel": 6778,
      "aniel": 6779,
      "Ġpull": 6780,
      "Ġmi": 6781,
      "Ġinvert": 6782,
      "etch": 6783,
      "asc": 6784,
      "imits": 6785,
      "Ġretain": 6786,
      "Ġreached": 6787,
      "Ġhole": 6788,
      "Ġur": 6789,
      "ola": 6790,
      "ĠAust": 6791,
      "ĠSi": 6792,
      "ĠSociety": 6793,
      "Ġyoung": 6794,
      "ĠMult": 6795,
      "ĠMarch": 6796,
      "unuel": 6797,
      "plane": 6798,
      "Ġwebsite": 6799,
      "Ġweeks": 6800,
      "ĠDig": 6801,
      "ĠDem": 6802,
      "ĠHal": 6803,
      "ĠHas": 6804,
      "ĠHistory": 6805,
      "ĠHTML": 6806,
      "ĠEnergy": 6807,
      "ĠLM": 6808,
      "ĠLo": 6809,
      "usr": 6810,
      "ustion": 6811,
      "iley": 6812,
      "ession": 6813,
      "hentic": 6814,
      "Ġ[âĢ¦": 6815,
      "Ġsoon": 6816,
      "}}_{": 6817,
      "Ġplant": 6818,
      "theses": 6819,
      "Ġscattering": 6820,
      "ĠĠĠĠĠĠĠĠĠ": 6821,
      "Ġdistingu": 6822,
      "sia": 6823,
      "next": 6824,
      "Ġzz": 6825,
      "pective": 6826,
      "Ġcomplement": 6827,
      "ĠProbability": 6828,
      "Ġveh": 6829,
      "ameters": 6830,
      "Ġcontained": 6831,
      "parse": 6832,
      "ikes": 6833,
      "cluding": 6834,
      "ĠMatrix": 6835,
      "Ġdividing": 6836,
      "Another": 6837,
      "center": 6838,
      "Ġmetamater": 6839,
      "ĠDefinition": 6840,
      "ĠAssume": 6841,
      "ĠConference": 6842,
      "ordinates": 6843,
      "Ġrepresenting": 6844,
      "ĠNeumann": 6845,
      "ĠMechan": 6846,
      "Ġsafe": 6847,
      "isson": 6848,
      "ĠÎ¸": 6849,
      "minus": 6850,
      "Ġhighest": 6851,
      "Ġsuggestions": 6852,
      "riter": 6853,
      "Once": 6854,
      "Ġmotor": 6855,
      "Ġadvanced": 6856,
      "Ġinfo": 6857,
      "Ġsimplified": 6858,
      "Ġthermodynam": 6859,
      "Ġplayer": 6860,
      "Ġcycles": 6861,
      "Ġattention": 6862,
      "Ġintroduction": 6863,
      "Ġassigned": 6864,
      "Ġdivisible": 6865,
      "ĠAdv": 6866,
      "Ġmembers": 6867,
      "Ġabsorb": 6868,
      "Integer": 6869,
      "Check": 6870,
      "Ġoxidation": 6871,
      "Ġconjugacy": 6872,
      "Ġsales": 6873,
      "Ġneighbor": 6874,
      "small": 6875,
      "Ġfairly": 6876,
      "Ġpixel": 6877,
      "ĠTechnology": 6878,
      "Ġeigenvectors": 6879,
      "Ġliterature": 6880,
      "Ġfriend": 6881,
      "ufact": 6882,
      "Followers": 6883,
      "Ġbuffer": 6884,
      "Ġstrength": 6885,
      "byshev": 6886,
      "Ġ[âĢ¦]": 6887,
      "\";": 6888,
      "\"?": 6889,
      "$;": 6890,
      "'_": 6891,
      ".-": 6892,
      "AA": 6893,
      "AE": 6894,
      "Ap": 6895,
      "DO": 6896,
      "Ext": 6897,
      "Error": 6898,
      "Homework": 6899,
      "Method": 6900,
      "RD": 6901,
      "RT": 6902,
      "den": 6903,
      "double": 6904,
      "fp": 6905,
      "ias": 6906,
      "js": 6907,
      "ker": 6908,
      "lic": 6909,
      "pace": 6910,
      "rÃ¶": 6911,
      "such": 6912,
      "tically": 6913,
      "target": 6914,
      "ui": 6915,
      "}/": 6916,
      "Ġ____": 6917,
      "Ġiron": 6918,
      "ato": 6919,
      "erator": 6920,
      "Ġsounds": 6921,
      "isons": 6922,
      "Ġcodes": 6923,
      "Ġcipher": 6924,
      "Ġft": 6925,
      "Ġfractions": 6926,
      "Ġbunch": 6927,
      "Ġdedu": 6928,
      "icial": 6929,
      "Ġ$-\\": 6930,
      "Ġeffort": 6931,
      "start": 6932,
      "Ġ\\)": 6933,
      "otion": 6934,
      "ceived": 6935,
      "umps": 6936,
      "ĠStaff": 6937,
      "Ġconven": 6938,
      "ĠMac": 6939,
      "ĠPe": 6940,
      "ĠPublic": 6941,
      "Ġviol": 6942,
      "Ġstri": 6943,
      "Ġstationary": 6944,
      "Ġstabil": 6945,
      "Ġstructural": 6946,
      "Ġexception": 6947,
      "riangle": 6948,
      "plan": 6949,
      "ĠFlow": 6950,
      "ĠFund": 6951,
      "Ġdep": 6952,
      "ured": 6953,
      "Ġnoticed": 6954,
      "ĠBooks": 6955,
      "ĠEr": 6956,
      "ĠWork": 6957,
      "ĠLag": 6958,
      "ĠGerm": 6959,
      "Ġshall": 6960,
      "Ġchip": 6961,
      "ĠInverse": 6962,
      "âĢĻ(": 6963,
      "Ġsolver": 6964,
      "Ġspher": 6965,
      "Ġoutcomes": 6966,
      "Ġplots": 6967,
      "Ġcompression": 6968,
      "rick": 6969,
      "ĠKn": 6970,
      "Ġpositions": 6971,
      "composition": 6972,
      "Ġ|\\": 6973,
      "Ġdifferently": 6974,
      "Ġintern": 6975,
      "Ġinteractions": 6976,
      "Ġgover": 6977,
      "Ġarri": 6978,
      "ĠWeb": 6979,
      "onsist": 6980,
      "ologies": 6981,
      "Ġdefining": 6982,
      "cium": 6983,
      "ĠExercise": 6984,
      "Ġminute": 6985,
      "Ġserious": 6986,
      "Ġ*)": 6987,
      "Ġmultiplicity": 6988,
      "Ġconverted": 6989,
      "blue": 6990,
      "Ġratios": 6991,
      "Ġdetermin": 6992,
      "{{{": 6993,
      "mean": 6994,
      "Ġparticularly": 6995,
      "Ġfinitely": 6996,
      "ANT": 6997,
      "Ġremain": 6998,
      "Ġrare": 6999,
      "Ġminimize": 7000,
      "ĠSchool": 7001,
      "Ġtechnical": 7002,
      "ĠAbsolute": 7003,
      "Ġadvance": 7004,
      "orrey": 7005,
      "Ġevaluation": 7006,
      "Ġmoved": 7007,
      "Ġpresence": 7008,
      "Ġcombinations": 7009,
      "!!!!": 7010,
      "Ġautomorphism": 7011,
      "Ġframework": 7012,
      "Ġcarefully": 7013,
      "Ġcomparing": 7014,
      "Ġboot": 7015,
      "Ġlayout": 7016,
      "ĠStudy": 7017,
      "ajor": 7018,
      "Ġrecommended": 7019,
      "Ġconstraint": 7020,
      "********************************": 7021,
      "Similar": 7022,
      "Ġmorphisms": 7023,
      "Ġimaginary": 7024,
      "Ġobviously": 7025,
      "ĠJoined": 7026,
      "ĠMedian": 7027,
      "fessor": 7028,
      "Ġsimultaneously": 7029,
      "ĠCommunications": 7030,
      "âĭĬ": 7031,
      "romagnetic": 7032,
      "Ġsuitable": 7033,
      "!)": 7034,
      "+--------": 7035,
      ".\\": 7036,
      ">&": 7037,
      "AV": 7038,
      "BR": 7039,
      "CP": 7040,
      "Cur": 7041,
      "Dec": 7042,
      "FA": 7043,
      "Frame": 7044,
      "Go": 7045,
      "Gener": 7046,
      "HTML": 7047,
      "MM": 7048,
      "Min": 7049,
      "Normal": 7050,
      "OK": 7051,
      "Pb": 7052,
      "Something": 7053,
      "Script": 7054,
      "True": 7055,
      "XY": 7056,
      "Xiv": 7057,
      "\\$": 7058,
      "]$$": 7059,
      "aa": 7060,
      "aff": 7061,
      "backslash": 7062,
      "correct": 7063,
      "grad": 7064,
      "kens": 7065,
      "none": 7066,
      "pite": 7067,
      "pons": 7068,
      "uj": 7069,
      "ubert": 7070,
      "ville": 7071,
      "wer": 7072,
      "{Ëľ": 7073,
      "çļ": 7074,
      "Ġ..": 7075,
      "Ġ}\\": 7076,
      "Ġtips": 7077,
      "Ġtimer": 7078,
      "Ġaware": 7079,
      "Ġcast": 7080,
      "Ġcru": 7081,
      "Ġcamera": 7082,
      "lections": 7083,
      "Ġpd": 7084,
      "Ġpizza": 7085,
      "Ġbul": 7086,
      "Ġdiction": 7087,
      "Ġthick": 7088,
      "stic": 7089,
      "stro": 7090,
      "stac": 7091,
      "rob": 7092,
      "ĠIK": 7093,
      "imeter": 7094,
      "Ġhal": 7095,
      "Ġholes": 7096,
      "ĠTrue": 7097,
      "Ġgal": 7098,
      "Ġgap": 7099,
      "Ġforum": 7100,
      "questions": 7101,
      "Ġbeg": 7102,
      "ĠSP": 7103,
      "ulf": 7104,
      "ulus": 7105,
      "ĠMc": 7106,
      "ĠCorre": 7107,
      "}{-": 7108,
      "Ġstim": 7109,
      "plays": 7110,
      "Ġrou": 7111,
      "Ġcancel": 7112,
      "orel": 7113,
      "Ġnotice": 7114,
      "ĠBer": 7115,
      "ĠBas": 7116,
      "ĠLie": 7117,
      "ĠLike": 7118,
      "ĠGood": 7119,
      "Ġxy": 7120,
      ").$$": 7121,
      "aste": 7122,
      "Ġsold": 7123,
      "Ġimpossible": 7124,
      "reev": 7125,
      "Ġcompounds": 7126,
      "Ġcompiler": 7127,
      "Ġpartition": 7128,
      "Ġmodes": 7129,
      "Ġcalibration": 7130,
      "Inter": 7131,
      "Ġ$$\\{": 7132,
      "Ġenh": 7133,
      "Ġcontrast": 7134,
      "########": 7135,
      "Ġtransport": 7136,
      "Ġloops": 7137,
      "Ġexpensive": 7138,
      "Ġrod": 7139,
      "Ġroom": 7140,
      "Ġroad": 7141,
      "ĠProceedings": 7142,
      "Ġminor": 7143,
      "ymmetric": 7144,
      "uchy": 7145,
      "Ġparticip": 7146,
      "Ġblind": 7147,
      "Ġsums": 7148,
      "particle": 7149,
      "Ġdecided": 7150,
      "Ġextensions": 7151,
      "Ġpacket": 7152,
      "Ġfinally": 7153,
      "ĠDepend": 7154,
      "Ġcolors": 7155,
      "Real": 7156,
      "Ġobserve": 7157,
      "Program": 7158,
      "})^{-": 7159,
      "ĠOnce": 7160,
      "ĠOnline": 7161,
      "Ġfactorization": 7162,
      "iversal": 7163,
      "Ġrotate": 7164,
      "Ġindices": 7165,
      "Ġbioc": 7166,
      "files": 7167,
      "Ġtrees": 7168,
      "ancial": 7169,
      "Show": 7170,
      "ĠIndustrial": 7171,
      "ĠSolutions": 7172,
      "Button": 7173,
      "Ġlibraries": 7174,
      "Ġequilateral": 7175,
      "Ġsymbols": 7176,
      "Ġrecursive": 7177,
      "lexive": 7178,
      "Ġsimulate": 7179,
      "Ġcloser": 7180,
      "Ġmodulus": 7181,
      "Ġreplacement": 7182,
      "tabular": 7183,
      "bigcup": 7184,
      "Ġbandwidth": 7185,
      "Ġgrammar": 7186,
      "ĠSingle": 7187,
      "Ġreplaced": 7188,
      "Ġmeasurable": 7189,
      "Ġbundles": 7190,
      "ĠCollege": 7191,
      "Ġembedded": 7192,
      "Ġcluster": 7193,
      "Difficulty": 7194,
      "ĠRiemannian": 7195,
      "Ġrobust": 7196,
      "Ġdebug": 7197,
      "Ġreleased": 7198,
      "ĠMartin": 7199,
      "elihood": 7200,
      "months": 7201,
      "Ġturbul": 7202,
      "{Ëľ}{": 7203,
      "çļĦ": 7204,
      ")+\\": 7205,
      "BD": 7206,
      "Jax": 7207,
      "Light": 7208,
      "May": 7209,
      "Ra": 7210,
      "Run": 7211,
      "Read": 7212,
      "Sc": 7213,
      "Si": 7214,
      "Section": 7215,
      "Upd": 7216,
      "Vector": 7217,
      "\\|": 7218,
      "base": 7219,
      "bmod": 7220,
      "cf": 7221,
      "ependent": 7222,
      "folder": 7223,
      "har": 7224,
      "hspace": 7225,
      "iation": 7226,
      "jimo": 7227,
      "lig": 7228,
      "png": 7229,
      "vy": 7230,
      "vin": 7231,
      "war": 7232,
      "Î±": 7233,
      "âİ": 7234,
      "âľ": 7235,
      "åı": 7236,
      "Ġener": 7237,
      "Ġ),": 7238,
      "Ġ__": 7239,
      "Ġtroll": 7240,
      "iny": 7241,
      "orous": 7242,
      "itivity": 7243,
      "lements": 7244,
      "Ġfoo": 7245,
      "Ġbrief": 7246,
      "Ġinference": 7247,
      "Ġep": 7248,
      "stream": 7249,
      "Ġnone": 7250,
      "veal": 7251,
      "asible": 7252,
      "utter": 7253,
      "ota": 7254,
      "Ġlies": 7255,
      "Ġlack": 7256,
      "Ġlots": 7257,
      "ĠTra": 7258,
      "ĠSM": 7259,
      "ampa": 7260,
      "idity": 7261,
      "ĠMS": 7262,
      "ĠMr": 7263,
      "ĠMass": 7264,
      "ĠCount": 7265,
      "ĠPO": 7266,
      "ĠPas": 7267,
      "ĠPower": 7268,
      "Ġstret": 7269,
      "ĠFl": 7270,
      "ĠFound": 7271,
      "irr": 7272,
      "Ġrid": 7273,
      "ester": 7274,
      "peaker": 7275,
      "Ġcanonical": 7276,
      "ĠDiff": 7277,
      "ĠDNA": 7278,
      "Ġseven": 7279,
      "ĠRandom": 7280,
      "ĠRaj": 7281,
      "_{-": 7282,
      "ĠBar": 7283,
      "ĠWhere": 7284,
      "ĠLine": 7285,
      "ĠNatural": 7286,
      "artesian": 7287,
      "Ġneural": 7288,
      "ĠOk": 7289,
      "ĠOver": 7290,
      "Ġchiral": 7291,
      "Ġequally": 7292,
      "idean": 7293,
      "Ġcoinc": 7294,
      "Ġreson": 7295,
      "Ġsolvable": 7296,
      "Ġworst": 7297,
      "}},": 7298,
      "Ġclim": 7299,
      "ĠUnder": 7300,
      "Ġcompile": 7301,
      "arest": 7302,
      "ĠRecent": 7303,
      "ĠRelevant": 7304,
      "ipse": 7305,
      "Ġknowing": 7306,
      "ĠĠĠĠĠĠĠĠĠĠ": 7307,
      "irection": 7308,
      "Ġcontroll": 7309,
      "Ġcontribution": 7310,
      "Ġmanual": 7311,
      "Ġmanner": 7312,
      "Ġmanaged": 7313,
      "cret": 7314,
      "Ġ}_{": 7315,
      "ĠStates": 7316,
      "Ġtermin": 7317,
      "Ġagent": 7318,
      "setminus": 7319,
      "Ġinstr": 7320,
      "error": 7321,
      "Ġactiv": 7322,
      "ielding": 7323,
      "Ġeveryone": 7324,
      "Ġtested": 7325,
      "Ġcircles": 7326,
      "Ġformulation": 7327,
      "Ġruntime": 7328,
      "Ġextended": 7329,
      "ĠUnfortunately": 7330,
      "Ġoutputs": 7331,
      "Ġtraffic": 7332,
      "Ġmeter": 7333,
      "Ġdetermines": 7334,
      "Ġediting": 7335,
      "ambridge": 7336,
      "Ġletters": 7337,
      "Ġconfusion": 7338,
      "String": 7339,
      "Ġdirected": 7340,
      "ART": 7341,
      "Ġâ©": 7342,
      "ĠWhile": 7343,
      "Ġdocuments": 7344,
      "Ġhappy": 7345,
      "olecular": 7346,
      "Ġspectra": 7347,
      "eqn": 7348,
      "Ġadvice": 7349,
      "Ġfourth": 7350,
      "escrib": 7351,
      "Ġsituations": 7352,
      "upport": 7353,
      "Ġmolecule": 7354,
      "Ġsemant": 7355,
      "Ġlaws": 7356,
      "ĠChebyshev": 7357,
      "board": 7358,
      "related": 7359,
      "Ġboxes": 7360,
      "variant": 7361,
      "Ġphotons": 7362,
      "PSK": 7363,
      "Ġcapacitor": 7364,
      "Ġstrongly": 7365,
      "Ġregardless": 7366,
      "Ġrecorded": 7367,
      "Ġaccepted": 7368,
      "ski": 7369,
      "therefore": 7370,
      "Ġsignificantly": 7371,
      "Ġreported": 7372,
      "Ġjobs": 7373,
      "tably": 7374,
      "Array": 7375,
      "Ġinduced": 7376,
      "Ġgrammars": 7377,
      "Ġprimary": 7378,
      "SDL": 7379,
      "Ġutility": 7380,
      "Ġswitching": 7381,
      "years": 7382,
      "âĤ¬âĢľ": 7383,
      "Ġheuristic": 7384,
      "ãĢĤãĢĤ": 7385,
      "Ġstrictly": 7386,
      "Ġparabolic": 7387,
      "Ġconstitu": 7388,
      "ĠNEET": 7389,
      "Ġscenario": 7390,
      "ĠDownload": 7391,
      "Ġmixt": 7392,
      "ponses": 7393,
      "(),": 7394,
      ";</": 7395,
      "<<": 7396,
      "Aug": 7397,
      "BM": 7398,
      "Did": 7399,
      "GO": 7400,
      "GMAT": 7401,
      "Hint": 7402,
      "Jul": 7403,
      "NH": 7404,
      "Over": 7405,
      "Part": 7406,
      "Path": 7407,
      "Sometimes": 7408,
      "[,": 7409,
      "band": 7410,
      "di": 7411,
      "dp": 7412,
      "flu": 7413,
      "ko": 7414,
      "la": 7415,
      "loop": 7416,
      "mx": 7417,
      "nes": 7418,
      "paket": 7419,
      "sche": 7420,
      "two": 7421,
      "zy": 7422,
      "}%": 7423,
      "}.$": 7424,
      "}.$$": 7425,
      "Ã¡": 7426,
      "Î»": 7427,
      "Ġesc": 7428,
      "Ġtrac": 7429,
      "Ġtasks": 7430,
      "ativ": 7431,
      "itance": 7432,
      "leep": 7433,
      "Ġfault": 7434,
      "Ġfailed": 7435,
      "Ġfreed": 7436,
      "Ġbur": 7437,
      "Ġdip": 7438,
      "rab": 7439,
      "Ġreaches": 7440,
      "Ġlab": 7441,
      "Ġ($$": 7442,
      "ĠTable": 7443,
      "ĠTRUE": 7444,
      "ume": 7445,
      "olve": 7446,
      "ĠAC": 7447,
      "ĠSD": 7448,
      "ĠSec": 7449,
      "ĠScal": 7450,
      "ĠSyn": 7451,
      "ĠSET": 7452,
      "ĠSorry": 7453,
      "ithub": 7454,
      "ĠCF": 7455,
      "odwt": 7456,
      "Ġstay": 7457,
      "Ġstored": 7458,
      "Ġcoming": 7459,
      "ested": 7460,
      "istant": 7461,
      "istors": 7462,
      "ĠDel": 7463,
      "ĠDiv": 7464,
      "ĠRMSE": 7465,
      "hern": 7466,
      "ĠBasic": 7467,
      "ĠHard": 7468,
      "ĠElect": 7469,
      "ĠEffect": 7470,
      "Ġ+\\": 7471,
      "thag": 7472,
      "ĠGa": 7473,
      "ĠGram": 7474,
      "Ġchurn": 7475,
      "Ġequip": 7476,
      "ĠkJ": 7477,
      "Ġiff": 7478,
      "leftarrow": 7479,
      "Ġcohe": 7480,
      "Ġunem": 7481,
      "}}=": 7482,
      "Ġimply": 7483,
      "Ġsphere": 7484,
      "textit": 7485,
      "Ġplate": 7486,
      "ĠVal": 7487,
      "Ġlik": 7488,
      "avin": 7489,
      "theorem": 7490,
      "Ġscientific": 7491,
      "oseph": 7492,
      "Input": 7493,
      "Ġgenerators": 7494,
      "Ġsubspace": 7495,
      "atively": 7496,
      "Ġmanually": 7497,
      "Ġshouldn": 7498,
      "Ġshowed": 7499,
      "deriv": 7500,
      "othing": 7501,
      ")\\;": 7502,
      "Ġrelates": 7503,
      "ĠProcess": 7504,
      "Ġspecification": 7505,
      "ĠCombin": 7506,
      "apping": 7507,
      ")=(": 7508,
      "âĪļ": 7509,
      "Ġcontainer": 7510,
      ")$$.": 7511,
      "Ġdivid": 7512,
      "isms": 7513,
      "Ġmostly": 7514,
      "Ġbackward": 7515,
      "Ġtrade": 7516,
      "Ġassess": 7517,
      "iqueness": 7518,
      "undle": 7519,
      "Ġsymplectic": 7520,
      "Ġtheorems": 7521,
      "teness": 7522,
      "Ġscaling": 7523,
      "Ġdegener": 7524,
      "bered": 7525,
      "Ġmagnet": 7526,
      "anguage": 7527,
      "Comp": 7528,
      "Ġpairwise": 7529,
      "Ġlowest": 7530,
      "Ġsynonym": 7531,
      "Ġdomin": 7532,
      "ĠAnaly": 7533,
      "Class": 7534,
      "Ġencryption": 7535,
      "Ġkinds": 7536,
      "Ġautomatic": 7537,
      "boot": 7538,
      "Ġattract": 7539,
      "Ġchoosing": 7540,
      "Ġmarked": 7541,
      "Ġchemistry": 7542,
      "trl": 7543,
      "Ġlayers": 7544,
      "Ġdifferentiate": 7545,
      "Ġdecreases": 7546,
      "Ġdifficulty": 7547,
      "Ġmultiplying": 7548,
      "New": 7549,
      "Paren": 7550,
      "Ġdealing": 7551,
      "current": 7552,
      "Ġrepeat": 7553,
      "Ġordinary": 7554,
      "Ġstatus": 7555,
      "Ġcombined": 7556,
      "Ġlogarithmic": 7557,
      "IGH": 7558,
      "Ġinduction": 7559,
      "ĠSingh": 7560,
      "Ġvacuum": 7561,
      "ĠLiu": 7562,
      "ĠReviews": 7563,
      "Ġsatisfying": 7564,
      "Ġneighbour": 7565,
      "================================": 7566,
      "Ġconvention": 7567,
      "ĠMarkov": 7568,
      "signed": 7569,
      "ĠCreate": 7570,
      "ĠMOD": 7571,
      "Ġranking": 7572,
      "ĠCauchy": 7573,
      "Ġteaching": 7574,
      "Ġattribute": 7575,
      "Ġholomorphic": 7576,
      "Ġreconstruction": 7577,
      "Ġinfluence": 7578,
      "ibliography": 7579,
      "chronous": 7580,
      "Ġgovern": 7581,
      "ampaign": 7582,
      "\"\"": 7583,
      "\"))": 7584,
      "*)": 7585,
      ":]": 7586,
      "DI": 7587,
      "EM": 7588,
      "Em": 7589,
      "GD": 7590,
      "HS": 7591,
      "LY": 7592,
      "Log": 7593,
      "Member": 7594,
      "NAM": 7595,
      "OC": 7596,
      "OU": 7597,
      "Oct": 7598,
      "Put": 7599,
      "Return": 7600,
      "TR": 7601,
      "\\{{": 7602,
      "`.": 7603,
      "bow": 7604,
      "bMATH": 7605,
      "eah": 7606,
      "electron": 7607,
      "frag": 7608,
      "gn": 7609,
      "iac": 7610,
      "lis": 7611,
      "mp": 7612,
      "nx": 7613,
      "overy": 7614,
      "sed": 7615,
      "sup": 7616,
      "ti": 7617,
      "tra": 7618,
      "try": 7619,
      "wp": 7620,
      "Ġ^{": 7621,
      "Ġ}{\\": 7622,
      "Ġaim": 7623,
      "onna": 7624,
      "Ġthesis": 7625,
      "Ġson": 7626,
      "Ġcube": 7627,
      "ench": 7628,
      "alind": 7629,
      "alone": 7630,
      "Ġwar": 7631,
      "arc": 7632,
      "Ġmor": 7633,
      "Ġmood": 7634,
      "cted": 7635,
      "oment": 7636,
      "etime": 7637,
      "vector": 7638,
      "iming": 7639,
      "Ġrear": 7640,
      "Ġrelease": 7641,
      "Ġhidden": 7642,
      "Ġgonna": 7643,
      "separ": 7644,
      "umin": 7645,
      "ĠAv": 7646,
      "ĠSI": 7647,
      "ĠSquare": 7648,
      "Ġpropose": 7649,
      "ĠMater": 7650,
      "ĠColl": 7651,
      "ĠCambridge": 7652,
      "odge": 7653,
      "ĠPut": 7654,
      "Ġexchange": 7655,
      "Ġ---": 7656,
      "plate": 7657,
      "elastic": 7658,
      "ĠFri": 7659,
      "ĠFalse": 7660,
      "tach": 7661,
      "tack": 7662,
      "Ġdeath": 7663,
      "ĠDistance": 7664,
      "Ġseason": 7665,
      "_{(": 7666,
      "acc": 7667,
      "acob": 7668,
      "orest": 7669,
      "ĠBull": 7670,
      "ĠHu": 7671,
      "ĠElliptic": 7672,
      "renet": 7673,
      "ĠLong": 7674,
      "ĠLips": 7675,
      "Ġ+=": 7676,
      "ĠOS": 7677,
      "ĠOh": 7678,
      "ĠOut": 7679,
      "Ġchallenge": 7680,
      "Ġquatern": 7681,
      "Ġlex": 7682,
      "uster": 7683,
      "ĠJSON": 7684,
      "Ġtruth": 7685,
      "Ġfunctionality": 7686,
      "ĠInput": 7687,
      "ĠInfo": 7688,
      ").$": 7689,
      "udio": 7690,
      "ideos": 7691,
      "allic": 7692,
      "}}}{": 7693,
      "soft": 7694,
      "ĠUV": 7695,
      "Ġcomposed": 7696,
      "clic": 7697,
      "coming": 7698,
      "veloper": 7699,
      "Ġammonia": 7700,
      "swers": 7701,
      "Ġappa": 7702,
      "Ġtransactions": 7703,
      "Ġarc": 7704,
      "Ġprep": 7705,
      "pendence": 7706,
      "ugg": 7707,
      "Ġcorrection": 7708,
      "serv": 7709,
      "Ġsurv": 7710,
      "Ġstrange": 7711,
      "ĠUnited": 7712,
      "Ġpacked": 7713,
      "Ġlogistic": 7714,
      "Answer": 7715,
      "Ġmetrics": 7716,
      "Expl": 7717,
      "metry": 7718,
      "Ġdiscovered": 7719,
      "Ġtempor": 7720,
      "Ġeasiest": 7721,
      "ĠPhysical": 7722,
      "Ġhandling": 7723,
      "Ġexperi": 7724,
      "Ġalgebras": 7725,
      "Ġnormalized": 7726,
      "ricted": 7727,
      "ARI": 7728,
      "ĠâĪĨ": 7729,
      "Ġelastic": 7730,
      "Ġauthentic": 7731,
      "ĠFinding": 7732,
      "ĠSchubert": 7733,
      "Ġweighted": 7734,
      "Ġpredicted": 7735,
      "ĠModels": 7736,
      "Ġsynthe": 7737,
      "ĠAtomic": 7738,
      "Concept": 7739,
      "ĠPrevious": 7740,
      "Ġcombining": 7741,
      "Ġencoding": 7742,
      "While": 7743,
      "Ġquadrilateral": 7744,
      "cerning": 7745,
      "Ġexecution": 7746,
      "Ġsplitting": 7747,
      "Ġconvergent": 7748,
      "Ġresear": 7749,
      "Ġgreatly": 7750,
      "Ġsubsets": 7751,
      "Ġinterpreted": 7752,
      "dcdss": 7753,
      "Ġstraightforward": 7754,
      "&=&-": 7755,
      "Next": 7756,
      "Ġtranslate": 7757,
      "Ġtranslated": 7758,
      "ĠQuantitative": 7759,
      "Ġinstallation": 7760,
      "Ġprotocol": 7761,
      "Ġfunctor": 7762,
      "integer": 7763,
      "Color": 7764,
      "~~~~~~~~~~~~~~~~": 7765,
      "ervation": 7766,
      "Ġbusiness": 7767,
      "Ġprogression": 7768,
      "++++++++": 7769,
      "Views": 7770,
      "countable": 7771,
      "Ġphenomenon": 7772,
      "Ġwelcome": 7773,
      "Ġarchit": 7774,
      "Ġsatellite": 7775,
      "ĠSRFI": 7776,
      "Ġ_____": 7777,
      "Ġfreedom": 7778,
      "&+&": 7779,
      "Back": 7780,
      "Bunuel": 7781,
      "Dist": 7782,
      "Finally": 7783,
      "IX": 7784,
      "Line": 7785,
      "Na": 7786,
      "\\,\\": 7787,
      "aq": 7788,
      "bool": 7789,
      "cpa": 7790,
      "codes": 7791,
      "dl": 7792,
      "got": 7793,
      "iam": 7794,
      "ipped": 7795,
      "json": 7796,
      "lg": 7797,
      "nel": 7798,
      "names": 7799,
      "pbo": 7800,
      "qn": 7801,
      "ritten": 7802,
      "sided": 7803,
      "tally": 7804,
      "tons": 7805,
      "ying": 7806,
      "zed": 7807,
      "ĠÂłÂł": 7808,
      "Ġtend": 7809,
      "init": 7810,
      "Ġtheta": 7811,
      "Ġoh": 7812,
      "Ġcold": 7813,
      "itations": 7814,
      "Ġwa": 7815,
      "Ġbis": 7816,
      "Ġbring": 7817,
      "Ġbrain": 7818,
      "Ġdont": 7819,
      "Ġmoon": 7820,
      "Ġtotally": 7821,
      "Ġeconom": 7822,
      "rase": 7823,
      "raft": 7824,
      "asy": 7825,
      "ĠIP": 7826,
      "img": 7827,
      "otype": 7828,
      "Ġhuge": 7829,
      "Ġlove": 7830,
      "Ġluck": 7831,
      "llar": 7832,
      "igm": 7833,
      "ĠTHE": 7834,
      "Ġgone": 7835,
      "umux": 7836,
      "ĠAcc": 7837,
      "ĠShe": 7838,
      "ĠSin": 7839,
      "ĠSun": 7840,
      "ĠSample": 7841,
      "chitz": 7842,
      "changed": 7843,
      "oded": 7844,
      "Ġasc": 7845,
      "Ġwhatever": 7846,
      "ĠDC": 7847,
      "ĠDr": 7848,
      "ĠDu": 7849,
      "ĠBuild": 7850,
      "rome": 7851,
      "bers": 7852,
      "ĠWed": 7853,
      "ĠLond": 7854,
      "ĠLemma": 7855,
      "ills": 7856,
      "ĠGre": 7857,
      "Ġknew": 7858,
      "They": 7859,
      "Ġlemma": 7860,
      "actic": 7861,
      "Ġcoil": 7862,
      "Ġclient": 7863,
      "Ġsomebody": 7864,
      "Ġheard": 7865,
      "ryan": 7866,
      "Ġverify": 7867,
      "Ġmodular": 7868,
      "ĠReLU": 7869,
      "Ġintegrable": 7870,
      "Ġsubsequ": 7871,
      "Ġtex": 7872,
      ")\\,": 7873,
      "Ġparent": 7874,
      "ĠProv": 7875,
      "Ġmodeling": 7876,
      ")))": 7877,
      "Ġphone": 7878,
      "ĠExercises": 7879,
      "ĠExperiment": 7880,
      "ttitle": 7881,
      "Ġsigned": 7882,
      "ynolds": 7883,
      ")=-": 7884,
      "Ġdirections": 7885,
      "Ġsummar": 7886,
      "Ġemit": 7887,
      "Ġintended": 7888,
      "Ġsteady": 7889,
      "Ġassumes": 7890,
      "Ġassay": 7891,
      "Ġ@@": 7892,
      "Ġmaths": 7893,
      "Ġexpectation": 7894,
      "INE": 7895,
      "ĠOctober": 7896,
      "Ġdiffer": 7897,
      "Ġreflection": 7898,
      "Ġscales": 7899,
      "Ġsheaves": 7900,
      "Ġrespective": 7901,
      "Ġputting": 7902,
      "Ġdenoted": 7903,
      "coin": 7904,
      "Channel": 7905,
      "Quant": 7906,
      "Ġfewer": 7907,
      "drogen": 7908,
      "Ġprojective": 7909,
      "Ġsynthesis": 7910,
      "ĠDiscus": 7911,
      "SSN": 7912,
      "Ġsemic": 7913,
      "ĠSolving": 7914,
      "Ġsatisfied": 7915,
      "Ġamounts": 7916,
      "Ġpatients": 7917,
      "Ġimproved": 7918,
      "ĠCheck": 7919,
      "Ġsentences": 7920,
      "Ġprinting": 7921,
      "Ġsignificance": 7922,
      "Ġreceive": 7923,
      "Ġduality": 7924,
      "Ġhomogeneous": 7925,
      "Ġforest": 7926,
      "gantttitle": 7927,
      "Ġdecreasing": 7928,
      "Ġgenome": 7929,
      "ognition": 7930,
      "Parent": 7931,
      "Ġpurposes": 7932,
      "options": 7933,
      "pgset": 7934,
      "Ġcustomers": 7935,
      "ĠGeV": 7936,
      "Ġmoduli": 7937,
      "Ġcylind": 7938,
      "stein": 7939,
      "Ġorganic": 7940,
      "Ġanti": 7941,
      "Ġconjugate": 7942,
      "Ġaccurately": 7943,
      "Ġcandidates": 7944,
      "Ġtorque": 7945,
      "Ġpiecewise": 7946,
      "Ġretrie": 7947,
      "Ġembedding": 7948,
      "ĠDistribution": 7949,
      "Ġdefinitely": 7950,
      "Ġhyperbola": 7951,
      "ĠAutom": 7952,
      "..#.#": 7953,
      "Ġtricky": 7954,
      "Ġjoining": 7955,
      "Edit": 7956,
      "Ġcubic": 7957,
      "ĠSchedule": 7958,
      "Leftrightarrow": 7959,
      "Ġdoubt": 7960,
      "ĠNumerical": 7961,
      "Ġpractical": 7962,
      "Ġuniverse": 7963,
      "Ġparentheses": 7964,
      "ĠLearning": 7965,
      "ĠHalin": 7966,
      "Ġmixture": 7967,
      "Ġlikelihood": 7968,
      "Ġneighbourhood": 7969,
      "ĠLipschitz": 7970,
      "cpaa": 7971,
      "ĠLondon": 7972,
      "&\\": 7973,
      "($": 7974,
      "BB": 7975,
      "Bar": 7976,
      "Because": 7977,
      "Citation": 7978,
      "DT": 7979,
      "Free": 7980,
      "IF": 7981,
      "MN": 7982,
      "Max": 7983,
      "None": 7984,
      "Rep": 7985,
      "SV": 7986,
      "Sep": 7987,
      "TI": 7988,
      "\\}$$": 7989,
      "]+": 7990,
      "author": 7991,
      "ba": 7992,
      "because": 7993,
      "cg": 7994,
      "car": 7995,
      "eps": 7996,
      "eff": 7997,
      "fix": 7998,
      "greg": 7999,
      "ih": 8000,
      "joy": 8001,
      "ki": 8002,
      "option": 8003,
      "pages": 8004,
      "rich": 8005,
      "rational": 8006,
      "sr": 8007,
      "tol": 8008,
      "tree": 8009,
      "ua": 8010,
      "wait": 8011,
      "zing": 8012,
      "{{\\": 8013,
      "Â´": 8014,
      "Ġaver": 8015,
      "initial": 8016,
      "onus": 8017,
      "att": 8018,
      "Ġsaved": 8019,
      "itud": 8020,
      "Ġfirm": 8021,
      "Ġpond": 8022,
      "Ġpump": 8023,
      "Ġmil": 8024,
      "edance": 8025,
      "edback": 8026,
      "icense": 8027,
      "Ġnav": 8028,
      "Ġnons": 8029,
      "aser": 8030,
      "ashed": 8031,
      "Ġlit": 8032,
      "Ġlambda": 8033,
      "Ġlift": 8034,
      "Ġlifting": 8035,
      "Ġ(\"": 8036,
      "ĠTroll": 8037,
      "ĠAP": 8038,
      "ĠSort": 8039,
      "ĠSpect": 8040,
      "ĠSuch": 8041,
      "ifference": 8042,
      "Ġconcerning": 8043,
      "Ġpropagation": 8044,
      "ĠME": 8045,
      "odies": 8046,
      "ĠPack": 8047,
      "ĠPip": 8048,
      "Ġasks": 8049,
      "unt": 8050,
      "osh": 8051,
      "ĠFar": 8052,
      "ĠFig": 8053,
      "tail": 8054,
      "ĠDay": 8055,
      "ĠRoy": 8056,
      "ĠRAM": 8057,
      "Ġ$$(\\": 8058,
      "ĠHigh": 8059,
      "ĠEvaluate": 8060,
      "renew": 8061,
      "ĠNH": 8062,
      "php": 8063,
      "Ġshared": 8064,
      "Ġshapes": 8065,
      "Ġpoor": 8066,
      "Ġpoles": 8067,
      "ĠON": 8068,
      "}\\;": 8069,
      "ĠThree": 8070,
      "...]": 8071,
      "Ġresid": 8072,
      "Ġhash": 8073,
      "Ġ:-": 8074,
      "jected": 8075,
      "Ġposs": 8076,
      "Ġposit": 8077,
      "Ġinternet": 8078,
      "Ġevidence": 8079,
      "Ġarrow": 8080,
      "atorial": 8081,
      "Ġoverset": 8082,
      "Ġoverhead": 8083,
      "ĠzbMATH": 8084,
      "Ġ...,": 8085,
      "ĠProject": 8086,
      "Ġconser": 8087,
      "Ġtrials": 8088,
      "âĪŀ": 8089,
      "ellow": 8090,
      "Ġproves": 8091,
      "ĠÂ°": 8092,
      "standing": 8093,
      "\",\"": 8094,
      "Ġfinancial": 8095,
      "Angle": 8096,
      "Ġtrace": 8097,
      "Ġcreates": 8098,
      "Ġremote": 8099,
      "Ġlooked": 8100,
      "Ġincrement": 8101,
      "Start": 8102,
      "Ġoffset": 8103,
      "ĠShould": 8104,
      "Ġsimilarly": 8105,
      "Ġpeak": 8106,
      "subst": 8107,
      "------------------------": 8108,
      "ĠâĶ": 8109,
      "Ġtemperatures": 8110,
      "Ġtypo": 8111,
      "ĠOriginal": 8112,
      "Ġrefers": 8113,
      "Ġfactorial": 8114,
      "shape": 8115,
      "Ġsheet": 8116,
      "Ġmoments": 8117,
      "Ġsufficiently": 8118,
      "Ġseparation": 8119,
      "ĠClub": 8120,
      "Child": 8121,
      "Ġpasses": 8122,
      "Ġvisible": 8123,
      "Ġaxi": 8124,
      "ĠAppl": 8125,
      "pair": 8126,
      "Ġelectronic": 8127,
      ")+(": 8128,
      "Ġpresents": 8129,
      "ĠSolve": 8130,
      "Ġbreaking": 8131,
      "END": 8132,
      "Ġchoices": 8133,
      "Ġproportions": 8134,
      "Ġloading": 8135,
      "Ġdifferentiation": 8136,
      "csname": 8137,
      "ĠSpace": 8138,
      "ĠStudio": 8139,
      "icrosoft": 8140,
      "Ġrectangular": 8141,
      "\\}&": 8142,
      "Ġpublication": 8143,
      "Ġthreads": 8144,
      "Ġintegrated": 8145,
      "Ġimpact": 8146,
      "Ġappreciate": 8147,
      "Ġwonder": 8148,
      "College": 8149,
      "Parameters": 8150,
      "------+": 8151,
      "Ġdraft": 8152,
      "Ġcorrelations": 8153,
      "Ġcorrelated": 8154,
      "ĠDifferential": 8155,
      "Ġfragments": 8156,
      "Ġrainette": 8157,
      "grade": 8158,
      "Ġcriterion": 8159,
      "Ġcardinality": 8160,
      "ĠSylow": 8161,
      "ĠSequence": 8162,
      "Ġconsumption": 8163,
      "ĠEuclidean": 8164,
      "Ġmortar": 8165,
      "Ġcongru": 8166,
      "ĠCylinder": 8167,
      "Ġencountered": 8168,
      "ĠDigital": 8169,
      "Ġdeterministic": 8170,
      "âİ¯": 8171,
      "ativistic": 8172,
      "Ġdividend": 8173,
      "renewcommand": 8174,
      "/*": 8175,
      "/âĢ¦": 8176,
      "Below": 8177,
      "DA": 8178,
      "Der": 8179,
      "FALSE": 8180,
      "IB": 8181,
      "KE": 8182,
      "LD": 8183,
      "Mark": 8184,
      "Numer": 8185,
      "OB": 8186,
      "Published": 8187,
      "Sch": 8188,
      "\\:": 8189,
      "]{\\": 8190,
      "]],": 8191
    },
    "merges": [
      [
        "Ġ",
        "t"
      ],
      [
        "č",
        "Ċ"
      ],
      [
        "Ġ",
        "a"
      ],
      [
        "h",
        "e"
      ],
      [
        "i",
        "n"
      ],
      [
        "o",
        "n"
      ],
      [
        "r",
        "e"
      ],
      [
        "Ġt",
        "he"
      ],
      [
        "a",
        "t"
      ],
      [
        "e",
        "r"
      ],
      [
        "Ġ",
        "s"
      ],
      [
        "i",
        "s"
      ],
      [
        "Ġ",
        "o"
      ],
      [
        "Ġ",
        "c"
      ],
      [
        "e",
        "n"
      ],
      [
        "o",
        "r"
      ],
      [
        "i",
        "t"
      ],
      [
        "a",
        "l"
      ],
      [
        "l",
        "e"
      ],
      [
        "Ġ",
        "w"
      ],
      [
        "a",
        "n"
      ],
      [
        "Ġ",
        "f"
      ],
      [
        "i",
        "on"
      ],
      [
        "Ġ",
        "p"
      ],
      [
        "e",
        "s"
      ],
      [
        "Ġ",
        "b"
      ],
      [
        "Ġo",
        "f"
      ],
      [
        "Ġa",
        "n"
      ],
      [
        "a",
        "r"
      ],
      [
        "o",
        "u"
      ],
      [
        "Ġ",
        "d"
      ],
      [
        "Ġ",
        "m"
      ],
      [
        "in",
        "g"
      ],
      [
        "e",
        "d"
      ],
      [
        "Ġ",
        "in"
      ],
      [
        "i",
        "c"
      ],
      [
        "Ġt",
        "o"
      ],
      [
        "c",
        "t"
      ],
      [
        "o",
        "m"
      ],
      [
        "Ġ",
        "is"
      ],
      [
        "Ġt",
        "h"
      ],
      [
        "Ġ",
        "$"
      ],
      [
        "Ġan",
        "d"
      ],
      [
        "Ġ",
        "e"
      ],
      [
        "s",
        "t"
      ],
      [
        "Ġ",
        "n"
      ],
      [
        "e",
        "t"
      ],
      [
        "r",
        "o"
      ],
      [
        "Ġ",
        "\\"
      ],
      [
        "en",
        "t"
      ],
      [
        "v",
        "e"
      ],
      [
        "r",
        "a"
      ],
      [
        "a",
        "s"
      ],
      [
        "Ġ",
        "I"
      ],
      [
        "u",
        "t"
      ],
      [
        "i",
        "m"
      ],
      [
        "o",
        "t"
      ],
      [
        "Ġ",
        "re"
      ],
      [
        "Ġ",
        "h"
      ],
      [
        "Ġ",
        "l"
      ],
      [
        "at",
        "ion"
      ],
      [
        "Ġ",
        "("
      ],
      [
        "l",
        "l"
      ],
      [
        "i",
        "g"
      ],
      [
        "â",
        "Ģ"
      ],
      [
        "Ġ",
        "T"
      ],
      [
        "o",
        "w"
      ],
      [
        "l",
        "y"
      ],
      [
        "#",
        "#"
      ],
      [
        "Ġ",
        "g"
      ],
      [
        "Ġf",
        "or"
      ],
      [
        "c",
        "e"
      ],
      [
        "Ġ",
        "Ġ"
      ],
      [
        "Ġ",
        "u"
      ],
      [
        "Ġ",
        "y"
      ],
      [
        "q",
        "u"
      ],
      [
        "s",
        "e"
      ],
      [
        "u",
        "m"
      ],
      [
        "Ġb",
        "e"
      ],
      [
        "Ġth",
        "at"
      ],
      [
        "o",
        "l"
      ],
      [
        "Ġ",
        "A"
      ],
      [
        "Ġ",
        "S"
      ],
      [
        "Ġ",
        "on"
      ],
      [
        "Ġ",
        "="
      ],
      [
        "a",
        "m"
      ],
      [
        "i",
        "f"
      ],
      [
        "u",
        "l"
      ],
      [
        "i",
        "d"
      ],
      [
        "c",
        "h"
      ],
      [
        "v",
        "er"
      ],
      [
        "Ġy",
        "ou"
      ],
      [
        "it",
        "h"
      ],
      [
        "Ġ",
        "it"
      ],
      [
        "Â",
        "ł"
      ],
      [
        "Ġc",
        "on"
      ],
      [
        "Ġp",
        "ro"
      ],
      [
        "Ġ",
        "M"
      ],
      [
        "Ġ",
        "C"
      ],
      [
        "o",
        "d"
      ],
      [
        "a",
        "y"
      ],
      [
        "b",
        "le"
      ],
      [
        "t",
        "e"
      ],
      [
        "g",
        "e"
      ],
      [
        "$",
        "$"
      ],
      [
        ".",
        "."
      ],
      [
        "Ġw",
        "ith"
      ],
      [
        "at",
        "e"
      ],
      [
        "}",
        "{"
      ],
      [
        "ct",
        "ion"
      ],
      [
        "Ġ",
        "P"
      ],
      [
        "u",
        "r"
      ],
      [
        "Ġa",
        "re"
      ],
      [
        "Ġ",
        "v"
      ],
      [
        "Ġa",
        "s"
      ],
      [
        "Ġs",
        "t"
      ],
      [
        "Ġe",
        "x"
      ],
      [
        "i",
        "l"
      ],
      [
        "h",
        "t"
      ],
      [
        "u",
        "n"
      ],
      [
        "Ġ",
        "-"
      ],
      [
        "r",
        "i"
      ],
      [
        "Ġa",
        "t"
      ],
      [
        "p",
        "l"
      ],
      [
        "e",
        "l"
      ],
      [
        "o",
        "s"
      ],
      [
        "Ġw",
        "e"
      ],
      [
        "Ġw",
        "h"
      ],
      [
        "ĠT",
        "he"
      ],
      [
        "ig",
        "ht"
      ],
      [
        "Ġth",
        "is"
      ],
      [
        "Ġc",
        "om"
      ],
      [
        "-",
        "-"
      ],
      [
        "Ġ",
        "F"
      ],
      [
        "i",
        "r"
      ],
      [
        "Ġ",
        "r"
      ],
      [
        "es",
        "t"
      ],
      [
        "p",
        "le"
      ],
      [
        "t",
        "er"
      ],
      [
        "p",
        "e"
      ],
      [
        "Ġc",
        "an"
      ],
      [
        "m",
        "at"
      ],
      [
        "is",
        "t"
      ],
      [
        "âĢ",
        "¢"
      ],
      [
        "ra",
        "c"
      ],
      [
        "i",
        "v"
      ],
      [
        "t",
        "a"
      ],
      [
        "Ġd",
        "e"
      ],
      [
        "Ġ",
        "D"
      ],
      [
        "Ġs",
        "e"
      ],
      [
        "a",
        "d"
      ],
      [
        "it",
        "y"
      ],
      [
        "Ġo",
        "r"
      ],
      [
        "Ġb",
        "y"
      ],
      [
        "Ġ",
        "R"
      ],
      [
        "_",
        "{"
      ],
      [
        "a",
        "ve"
      ],
      [
        "a",
        "c"
      ],
      [
        "u",
        "re"
      ],
      [
        "n",
        "d"
      ],
      [
        "o",
        "re"
      ],
      [
        "he",
        "r"
      ],
      [
        "f",
        "rac"
      ],
      [
        "p",
        "er"
      ],
      [
        "Ġn",
        "ot"
      ],
      [
        "l",
        "d"
      ],
      [
        "Ġ$",
        "$"
      ],
      [
        "k",
        "e"
      ],
      [
        "in",
        "e"
      ],
      [
        "an",
        "d"
      ],
      [
        "Ġ",
        "B"
      ],
      [
        "i",
        "ve"
      ],
      [
        "in",
        "t"
      ],
      [
        "p",
        "t"
      ],
      [
        "r",
        "om"
      ],
      [
        "Ġ",
        "H"
      ],
      [
        "b",
        "er"
      ],
      [
        "Ġ",
        "E"
      ],
      [
        "ĠĠ",
        "ĠĠ"
      ],
      [
        "an",
        "t"
      ],
      [
        "re",
        "n"
      ],
      [
        "Ġs",
        "u"
      ],
      [
        "Ġ",
        "W"
      ],
      [
        "Ġ",
        "L"
      ],
      [
        "{",
        "\\"
      ],
      [
        "i",
        "al"
      ],
      [
        "Ġ",
        "N"
      ],
      [
        "u",
        "s"
      ],
      [
        "en",
        "d"
      ],
      [
        "m",
        "ent"
      ],
      [
        "Ġd",
        "o"
      ],
      [
        "ar",
        "t"
      ],
      [
        "Ġ$",
        "\\"
      ],
      [
        "re",
        "s"
      ],
      [
        "Ġa",
        "l"
      ],
      [
        "}",
        "$"
      ],
      [
        "Ġ",
        "+"
      ],
      [
        "e",
        "m"
      ],
      [
        "i",
        "ll"
      ],
      [
        "Ġh",
        "ave"
      ],
      [
        "ou",
        "ld"
      ],
      [
        "t",
        "h"
      ],
      [
        "p",
        "p"
      ],
      [
        "f",
        "e"
      ],
      [
        "f",
        "t"
      ],
      [
        "Ġu",
        "s"
      ],
      [
        "Ġn",
        "e"
      ],
      [
        "p",
        "h"
      ],
      [
        "Ġf",
        "rom"
      ],
      [
        "ic",
        "al"
      ],
      [
        "mat",
        "h"
      ],
      [
        "^",
        "{"
      ],
      [
        "Ġ",
        "G"
      ],
      [
        "i",
        "es"
      ],
      [
        "Ġs",
        "h"
      ],
      [
        "ic",
        "h"
      ],
      [
        "Ġp",
        "o"
      ],
      [
        "Ġm",
        "e"
      ],
      [
        "om",
        "e"
      ],
      [
        "Ġ",
        "x"
      ],
      [
        "he",
        "re"
      ],
      [
        "o",
        "c"
      ],
      [
        "ul",
        "t"
      ],
      [
        "ion",
        "s"
      ],
      [
        "u",
        "e"
      ],
      [
        "x",
        "t"
      ],
      [
        "o",
        "g"
      ],
      [
        "in",
        "d"
      ],
      [
        "a",
        "b"
      ],
      [
        "Ġm",
        "a"
      ],
      [
        "Ġ",
        "O"
      ],
      [
        "Ġc",
        "h"
      ],
      [
        "Ġ",
        "âĢ"
      ],
      [
        "}",
        "\\"
      ],
      [
        "i",
        "z"
      ],
      [
        "Ġe",
        "qu"
      ],
      [
        "Ġ",
        "k"
      ],
      [
        "or",
        "m"
      ],
      [
        "Ġn",
        "um"
      ],
      [
        "un",
        "ction"
      ],
      [
        "ation",
        "s"
      ],
      [
        "Ġ",
        "qu"
      ],
      [
        "r",
        "ight"
      ],
      [
        "T",
        "he"
      ],
      [
        "er",
        "s"
      ],
      [
        "a",
        "ble"
      ],
      [
        "Ġ",
        "le"
      ],
      [
        "##",
        "#"
      ],
      [
        "u",
        "st"
      ],
      [
        "Ġ",
        "if"
      ],
      [
        "Ġ",
        "J"
      ],
      [
        "a",
        "ct"
      ],
      [
        "'",
        "s"
      ],
      [
        "fe",
        "ren"
      ],
      [
        "o",
        "o"
      ],
      [
        "a",
        "g"
      ],
      [
        "Ġ",
        "\""
      ],
      [
        "Ġwh",
        "ich"
      ],
      [
        "an",
        "s"
      ],
      [
        "Ġa",
        "ll"
      ],
      [
        "Ġnum",
        "ber"
      ],
      [
        "at",
        "ed"
      ],
      [
        "i",
        "le"
      ],
      [
        "Ġt",
        "r"
      ],
      [
        "en",
        "er"
      ],
      [
        "d",
        "u"
      ],
      [
        "p",
        "ut"
      ],
      [
        "Ġa",
        "b"
      ],
      [
        "es",
        "s"
      ],
      [
        "Ġf",
        "unction"
      ],
      [
        "he",
        "n"
      ],
      [
        "Ġ",
        "'"
      ],
      [
        "an",
        "g"
      ],
      [
        "ĠT",
        "h"
      ],
      [
        "a",
        "ge"
      ],
      [
        "Ġb",
        "ut"
      ],
      [
        "p",
        "s"
      ],
      [
        "am",
        "ple"
      ],
      [
        "e",
        "ct"
      ],
      [
        "Ġon",
        "e"
      ],
      [
        "ĠI",
        "n"
      ],
      [
        "t",
        "o"
      ],
      [
        "Ġ",
        "{"
      ],
      [
        ")",
        "$"
      ],
      [
        "ou",
        "r"
      ],
      [
        "..",
        "."
      ],
      [
        ")",
        "."
      ],
      [
        "--",
        "--"
      ],
      [
        "le",
        "ft"
      ],
      [
        "it",
        "e"
      ],
      [
        "Ġw",
        "ill"
      ],
      [
        "as",
        "e"
      ],
      [
        ")",
        ","
      ],
      [
        "r",
        "ou"
      ],
      [
        "en",
        "s"
      ],
      [
        "u",
        "d"
      ],
      [
        "Ġ",
        "["
      ],
      [
        "id",
        "e"
      ],
      [
        "Ġc",
        "o"
      ],
      [
        "ar",
        "d"
      ],
      [
        "am",
        "e"
      ],
      [
        "k",
        "s"
      ],
      [
        "Ġm",
        "at"
      ],
      [
        "or",
        "t"
      ],
      [
        "as",
        "s"
      ],
      [
        "âĢ",
        "Ļ"
      ],
      [
        "Ġv",
        "al"
      ],
      [
        "al",
        "l"
      ],
      [
        "ou",
        "t"
      ],
      [
        "re",
        "d"
      ],
      [
        "m",
        "a"
      ],
      [
        "Ġs",
        "o"
      ],
      [
        "Ġu",
        "n"
      ],
      [
        "Ġre",
        "s"
      ],
      [
        "ac",
        "k"
      ],
      [
        "a",
        "st"
      ],
      [
        "a",
        "ch"
      ],
      [
        "ut",
        "ion"
      ],
      [
        "t",
        "her"
      ],
      [
        "im",
        "e"
      ],
      [
        "Ġs",
        "ol"
      ],
      [
        "Ġw",
        "or"
      ],
      [
        "w",
        "o"
      ],
      [
        "ar",
        "i"
      ],
      [
        "a",
        "ce"
      ],
      [
        "it",
        "ion"
      ],
      [
        "al",
        "ly"
      ],
      [
        "Ġthe",
        "re"
      ],
      [
        "Ġd",
        "if"
      ],
      [
        "Ġthe",
        "n"
      ],
      [
        "i",
        "e"
      ],
      [
        "}",
        "}"
      ],
      [
        "Ġ",
        "j"
      ],
      [
        "Ġc",
        "l"
      ],
      [
        "Ġ",
        "&"
      ],
      [
        "ig",
        "n"
      ],
      [
        "Ġyou",
        "r"
      ],
      [
        "Ġ",
        "im"
      ],
      [
        "an",
        "ce"
      ],
      [
        "Ġs",
        "ome"
      ],
      [
        "'",
        "t"
      ],
      [
        "Ġs",
        "p"
      ],
      [
        "f",
        "f"
      ],
      [
        "Ġo",
        "ut"
      ],
      [
        "en",
        "ce"
      ],
      [
        "Ġu",
        "se"
      ],
      [
        "Ġ",
        "he"
      ],
      [
        "on",
        "d"
      ],
      [
        "ble",
        "m"
      ],
      [
        "ar",
        "y"
      ],
      [
        "ou",
        "s"
      ],
      [
        "Ġh",
        "as"
      ],
      [
        "on",
        "g"
      ],
      [
        "od",
        "e"
      ],
      [
        "Ġt",
        "wo"
      ],
      [
        "ĠâĢ",
        "ĵ"
      ],
      [
        "er",
        "m"
      ],
      [
        "ic",
        "s"
      ],
      [
        "te",
        "xt"
      ],
      [
        "Ġan",
        "y"
      ],
      [
        "Ġp",
        "l"
      ],
      [
        "Ġin",
        "te"
      ],
      [
        "f",
        "orm"
      ],
      [
        "Ġs",
        "et"
      ],
      [
        "o",
        "st"
      ],
      [
        "s",
        "o"
      ],
      [
        "re",
        "e"
      ],
      [
        "n",
        "ow"
      ],
      [
        "Ġ",
        "."
      ],
      [
        "r",
        "t"
      ],
      [
        "Ġ",
        "V"
      ],
      [
        "Ġa",
        "d"
      ],
      [
        "Ġ",
        "U"
      ],
      [
        "Ġ",
        ":"
      ],
      [
        "Ġl",
        "i"
      ],
      [
        "r",
        "y"
      ],
      [
        "ou",
        "nd"
      ],
      [
        "o",
        "ll"
      ],
      [
        "Ġcom",
        "p"
      ],
      [
        "Ġpo",
        "int"
      ],
      [
        "Ġp",
        "art"
      ],
      [
        "le",
        "s"
      ],
      [
        "u",
        "b"
      ],
      [
        "r",
        "ic"
      ],
      [
        "Ġdif",
        "feren"
      ],
      [
        "y",
        "s"
      ],
      [
        "j",
        "ect"
      ],
      [
        "r",
        "u"
      ],
      [
        "d",
        "e"
      ],
      [
        "et",
        "h"
      ],
      [
        "f",
        "in"
      ],
      [
        "Ġp",
        "er"
      ],
      [
        "ir",
        "st"
      ],
      [
        "Ġ",
        "ver"
      ],
      [
        "h",
        "at"
      ],
      [
        "Ġs",
        "y"
      ],
      [
        "$",
        "."
      ],
      [
        "or",
        "s"
      ],
      [
        "Ġfor",
        "m"
      ],
      [
        "Ġw",
        "ould"
      ],
      [
        "c",
        "l"
      ],
      [
        "a",
        "v"
      ],
      [
        "Ġo",
        "b"
      ],
      [
        "_",
        "_"
      ],
      [
        "Ġs",
        "im"
      ],
      [
        "res",
        "s"
      ],
      [
        "at",
        "a"
      ],
      [
        "w",
        "e"
      ],
      [
        "Ġ",
        "K"
      ],
      [
        "r",
        "m"
      ],
      [
        "Ġ",
        "i"
      ],
      [
        "Ġs",
        "pe"
      ],
      [
        "Ġg",
        "et"
      ],
      [
        "Ġpro",
        "blem"
      ],
      [
        "Ġ",
        "Y"
      ],
      [
        "oll",
        "ow"
      ],
      [
        "Ġm",
        "od"
      ],
      [
        "Ġw",
        "as"
      ],
      [
        "*",
        "*"
      ],
      [
        "t",
        "he"
      ],
      [
        "Ġp",
        "os"
      ],
      [
        "Ġh",
        "ow"
      ],
      [
        "a",
        "re"
      ],
      [
        "Ġm",
        "ore"
      ],
      [
        "on",
        "e"
      ],
      [
        "ta",
        "in"
      ],
      [
        "ro",
        "w"
      ],
      [
        "Ġwh",
        "at"
      ],
      [
        "ent",
        "s"
      ],
      [
        "c",
        "c"
      ],
      [
        "k",
        "ing"
      ],
      [
        "Ġb",
        "et"
      ],
      [
        "ĠR",
        "e"
      ],
      [
        "Ġus",
        "ing"
      ],
      [
        "i",
        "p"
      ],
      [
        "ou",
        "n"
      ],
      [
        "ul",
        "ar"
      ],
      [
        "ri",
        "b"
      ],
      [
        "or",
        "d"
      ],
      [
        "Ġs",
        "c"
      ],
      [
        "a",
        "in"
      ],
      [
        "Ġg",
        "iv"
      ],
      [
        "Ġf",
        "ollow"
      ],
      [
        "Ġw",
        "hen"
      ],
      [
        "Ġth",
        "an"
      ],
      [
        "est",
        "ion"
      ],
      [
        "Ġe",
        "le"
      ],
      [
        "g",
        "h"
      ],
      [
        "Ġk",
        "now"
      ],
      [
        "$",
        ","
      ],
      [
        "Ġu",
        "p"
      ],
      [
        "Ġc",
        "al"
      ],
      [
        "o",
        "se"
      ],
      [
        "I",
        "n"
      ],
      [
        "at",
        "es"
      ],
      [
        "math",
        "b"
      ],
      [
        "(",
        "\\"
      ],
      [
        "Ġo",
        "ther"
      ],
      [
        "ra",
        "m"
      ],
      [
        "Ġt",
        "ime"
      ],
      [
        "=",
        "\\"
      ],
      [
        "c",
        "om"
      ],
      [
        "Ġli",
        "ke"
      ],
      [
        "Ġg",
        "ener"
      ],
      [
        "Ġv",
        "ari"
      ],
      [
        "a",
        "p"
      ],
      [
        "ĠI",
        "f"
      ],
      [
        "Ġinte",
        "g"
      ],
      [
        "ve",
        "l"
      ],
      [
        "Ġ$$",
        "\\"
      ],
      [
        "Ġa",
        "m"
      ],
      [
        "ĠĠĠĠ",
        "ĠĠĠĠ"
      ],
      [
        "Ġsu",
        "b"
      ],
      [
        "or",
        "y"
      ],
      [
        "s",
        "um"
      ],
      [
        "ĠTh",
        "is"
      ],
      [
        "s",
        "w"
      ],
      [
        "T",
        "h"
      ],
      [
        "Ġon",
        "ly"
      ],
      [
        "pl",
        "ic"
      ],
      [
        "d",
        "ot"
      ],
      [
        "Ġc",
        "or"
      ],
      [
        "i",
        "re"
      ],
      [
        "at",
        "ive"
      ],
      [
        "Ġm",
        "y"
      ],
      [
        "Ġ",
        "en"
      ],
      [
        "Ġ",
        "|"
      ],
      [
        "c",
        "es"
      ],
      [
        "Ġf",
        "irst"
      ],
      [
        "Ġne",
        "ed"
      ],
      [
        "Ġl",
        "ine"
      ],
      [
        "Ġa",
        "pp"
      ],
      [
        "u",
        "se"
      ],
      [
        "Ġval",
        "ue"
      ],
      [
        "Ġe",
        "ach"
      ],
      [
        "Ġw",
        "here"
      ],
      [
        "Ġs",
        "ame"
      ],
      [
        "Ġab",
        "out"
      ],
      [
        "Ġd",
        "ist"
      ],
      [
        "Ġdifferen",
        "t"
      ],
      [
        "Ġin",
        "ter"
      ],
      [
        "e",
        "g"
      ],
      [
        "Ġd",
        "is"
      ],
      [
        "Ġdo",
        "es"
      ],
      [
        "Ġg",
        "o"
      ],
      [
        "Ġf",
        "ind"
      ],
      [
        "o",
        "p"
      ],
      [
        "on",
        "t"
      ],
      [
        "Ġt",
        "e"
      ],
      [
        "a",
        "k"
      ],
      [
        "Ġn",
        "o"
      ],
      [
        "im",
        "es"
      ],
      [
        "Ġex",
        "ample"
      ],
      [
        "Ġcon",
        "t"
      ],
      [
        "##",
        "##"
      ],
      [
        "ay",
        "s"
      ],
      [
        "o",
        "v"
      ],
      [
        "at",
        "h"
      ],
      [
        "s",
        "i"
      ],
      [
        "Ġal",
        "so"
      ],
      [
        "o",
        "ve"
      ],
      [
        "}",
        "$$"
      ],
      [
        "Ġm",
        "an"
      ],
      [
        "c",
        "ul"
      ],
      [
        "Ġtr",
        "ans"
      ],
      [
        "ĠI",
        "t"
      ],
      [
        "l",
        "ow"
      ],
      [
        "q",
        "rt"
      ],
      [
        "i",
        "ent"
      ],
      [
        "ic",
        "e"
      ],
      [
        "we",
        "en"
      ],
      [
        "Ġe",
        "v"
      ],
      [
        "Ġa",
        "r"
      ],
      [
        "st",
        "em"
      ],
      [
        "at",
        "or"
      ],
      [
        "il",
        "ity"
      ],
      [
        "Ġbet",
        "ween"
      ],
      [
        "Ġp",
        "re"
      ],
      [
        "at",
        "ing"
      ],
      [
        "Ġl",
        "oo"
      ],
      [
        "Ġj",
        "ust"
      ],
      [
        "Ġ",
        ">"
      ],
      [
        "in",
        "k"
      ],
      [
        "Ġ",
        "Q"
      ],
      [
        "e",
        "c"
      ],
      [
        "Ġsh",
        "ould"
      ],
      [
        "nd",
        "er"
      ],
      [
        "Ġsh",
        "ow"
      ],
      [
        "$",
        "\\"
      ],
      [
        "Ġcon",
        "st"
      ],
      [
        "Ġres",
        "ult"
      ],
      [
        "n",
        "e"
      ],
      [
        "Ġex",
        "p"
      ],
      [
        "d",
        "s"
      ],
      [
        "Ġd",
        "ata"
      ],
      [
        "ie",
        "w"
      ],
      [
        "Ġequ",
        "ation"
      ],
      [
        "ĠW",
        "e"
      ],
      [
        "p",
        "end"
      ],
      [
        "c",
        "re"
[...]
