{
  "version": "1.0",
  "truncation": null,
  "padding": null,
  "added_tokens": [
    {
      "id": 0,
      "content": "<|pad|>",
      "single_word": false,
      "lstrip": false,
      "rstrip": false,
      "normalized": false,
      "special": true
    },
    {
      "id": 1,
      "content": "<|unk|>",
      "single_word": false,
      "lstrip": false,
      "rstrip": false,
      "normalized": false,
      "special": true
    },
    {
      "id": 2,
      "content": "<|bos|>",
      "single_word": false,
      "lstrip": false,
      "rstrip": false,
      "normalized": false,
      "special": true
    },
    {
      "id": 3,
      "content": "<|eos|>",
      "single_word": false,
      "lstrip": false,
      "rstrip": false,
      "normalized": false,
      "special": true
    },
    {
      "id": 4,
      "content": "<think>",
      "single_word": false,
      "lstrip": false,
      "rstrip": false,
      "normalized": false,
      "special": true
    },
    {
      "id": 5,
      "content": "</think>",
      "single_word": false,
      "lstrip": false,
      "rstrip": false,
      "normalized": false,
      "special": true
    },
    {
      "id": 6,
      "content": "<|user|>",
      "single_word": false,
      "lstrip": false,
      "rstrip": false,
      "normalized": false,
      "special": true
    },
    {
      "id": 7,
      "content": "<|assistant|>",
      "single_word": false,
      "lstrip": false,
      "rstrip": false,
      "normalized": false,
      "special": true
    }
  ],
  "normalizer": null,
  "pre_tokenizer": {
    "type": "Sequence",
    "pretokenizers": [
      {
        "type": "ByteLevel",
        "add_prefix_space": false,
        "trim_offsets": true,
        "use_regex": true
      },
      {
        "type": "Digits",
        "individual_digits": true
      }
    ]
  },
  "post_processor": null,
  "decoder": {
    "type": "ByteLevel",
    "add_prefix_space": true,
    "trim_offsets": true,
    "use_regex": true
  },
  "model": {
    "type": "BPE",
    "dropout": null,
    "unk_token": "<|unk|>",
    "continuing_subword_prefix": null,
    "end_of_word_suffix": null,
    "fuse_unk": false,
    "byte_fallback": false,
    "ignore_merges": false,
    "vocab": {
      "<|pad|>": 0,
      "<|unk|>": 1,
      "<|bos|>": 2,
      "<|eos|>": 3,
      "<think>": 4,
      "</think>": 5,
      "<|user|>": 6,
      "<|assistant|>": 7,
      "!": 8,
      "\"": 9,
      "#": 10,
      "$": 11,
      "%": 12,
      "&": 13,
      "'": 14,
      "(": 15,
      ")": 16,
      "*": 17,
      "+": 18,
      ",": 19,
      "-": 20,
      ".": 21,
      "/": 22,
      "0": 23,
      "1": 24,
      "2": 25,
      "3": 26,
      "4": 27,
      "5": 28,
      "6": 29,
      "7": 30,
      "8": 31,
      "9": 32,
      ":": 33,
      ";": 34,
      "<": 35,
      "=": 36,
      ">": 37,
      "?": 38,
      "@": 39,
      "A": 40,
      "B": 41,
      "C": 42,
      "D": 43,
      "E": 44,
      "F": 45,
      "G": 46,
      "H": 47,
      "I": 48,
      "J": 49,
      "K": 50,
      "L": 51,
      "M": 52,
      "N": 53,
      "O": 54,
      "P": 55,
      "Q": 56,
      "R": 57,
      "S": 58,
      "T": 59,
      "U": 60,
      "V": 61,
      "W": 62,
      "X": 63,
      "Y": 64,
      "Z": 65,
      "[": 66,
      "\\": 67,
      "]": 68,
      "^": 69,
      "_": 70,
      "`": 71,
      "a": 72,
      "b": 73,
      "c": 74,
      "d": 75,
      "e": 76,
      "f": 77,
      "g": 78,
      "h": 79,
      "i": 80,
      "j": 81,
      "k": 82,
      "l": 83,
      "m": 84,
      "n": 85,
      "o": 86,
      "p": 87,
      "q": 88,
      "r": 89,
      "s": 90,
      "t": 91,
      "u": 92,
      "v": 93,
      "w": 94,
      "x": 95,
      "y": 96,
      "z": 97,
      "{": 98,
      "|": 99,
      "}": 100,
      "~": 101,
      "¡": 102,
      "¢": 103,
      "£": 104,
      "¤": 105,
      "¥": 106,
      "¦": 107,
      "§": 108,
      "¨": 109,
      "©": 110,
      "ª": 111,
      "«": 112,
      "¬": 113,
      "®": 114,
      "¯": 115,
      "°": 116,
      "±": 117,
      "²": 118,
      "³": 119,
      "´": 120,
      "µ": 121,
      "¶": 122,
      "·": 123,
      "¸": 124,
      "¹": 125,
      "º": 126,
      "»": 127,
      "¼": 128,
      "½": 129,
      "¾": 130,
      "¿": 131,
      "À": 132,
      "Á": 133,
      "Â": 134,
      "Ã": 135,
      "Ä": 136,
      "Å": 137,
      "Æ": 138,
      "Ç": 139,
      "È": 140,
      "É": 141,
      "Ê": 142,
      "Ë": 143,
      "Ì": 144,
      "Í": 145,
      "Î": 146,
      "Ï": 147,
      "Ð": 148,
      "Ñ": 149,
      "Ò": 150,
      "Ó": 151,
      "Ô": 152,
      "Õ": 153,
      "Ö": 154,
      "×": 155,
      "Ø": 156,
      "Ù": 157,
      "Ú": 158,
      "Û": 159,
      "Ü": 160,
      "Ý": 161,
      "Þ": 162,
      "ß": 163,
      "à": 164,
      "á": 165,
      "â": 166,
      "ã": 167,
      "ä": 168,
      "å": 169,
      "æ": 170,
      "ç": 171,
      "è": 172,
      "é": 173,
      "ê": 174,
      "ë": 175,
      "ì": 176,
      "í": 177,
      "î": 178,
      "ï": 179,
      "ð": 180,
      "ñ": 181,
      "ò": 182,
      "ó": 183,
      "ô": 184,
      "õ": 185,
      "ö": 186,
      "÷": 187,
      "ø": 188,
      "ù": 189,
      "ú": 190,
      "û": 191,
      "ü": 192,
      "ý": 193,
      "þ": 194,
      "ÿ": 195,
      "Ā": 196,
      "ā": 197,
      "Ă": 198,
      "ă": 199,
      "Ą": 200,
      "ą": 201,
      "Ć": 202,
      "ć": 203,
      "Ĉ": 204,
      "ĉ": 205,
      "Ċ": 206,
      "ċ": 207,
      "Č": 208,
      "č": 209,
      "Ď": 210,
      "ď": 211,
      "Đ": 212,
      "đ": 213,
      "Ē": 214,
      "ē": 215,
      "Ĕ": 216,
      "ĕ": 217,
      "Ė": 218,
      "ė": 219,
      "Ę": 220,
      "ę": 221,
      "Ě": 222,
      "ě": 223,
      "Ĝ": 224,
      "ĝ": 225,
      "Ğ": 226,
      "ğ": 227,
      "Ġ": 228,
      "ġ": 229,
      "Ģ": 230,
      "ģ": 231,
      "Ĥ": 232,
      "ĥ": 233,
      "Ħ": 234,
      "ħ": 235,
      "Ĩ": 236,
      "ĩ": 237,
      "Ī": 238,
      "ī": 239,
      "Ĭ": 240,
      "ĭ": 241,
      "Į": 242,
      "į": 243,
      "İ": 244,
      "ı": 245,
      "Ĳ": 246,
      "ĳ": 247,
      "Ĵ": 248,
      "ĵ": 249,
      "Ķ": 250,
      "ķ": 251,
      "ĸ": 252,
      "Ĺ": 253,
      "ĺ": 254,
      "Ļ": 255,
      "ļ": 256,
      "Ľ": 257,
      "ľ": 258,
      "Ŀ": 259,
      "ŀ": 260,
      "Ł": 261,
      "ł": 262,
      "Ń": 263,
      "Ġt": 264,
      "Ġa": 265,
      "on": 266,
      "he": 267,
      "in": 268,
      "ti": 269,
      "er": 270,
      "en": 271,
      "čĊ": 272,
      "es": 273,
      "Ġc": 274,
      "Ġs": 275,
      "Ġo": 276,
      "Ġthe": 277,
      "re": 278,
      "al": 279,
      "Ġp": 280,
      "ro": 281,
      "tion": 282,
      "at": 283,
      "an": 284,
      "Ġan": 285,
      "Ġf": 286,
      "Ġm": 287,
      "le": 288,
      "Ġof": 289,
      "is": 290,
      "Ġd": 291,
      "Ġin": 292,
      "Ġe": 293,
      "it": 294,
      "Ġand": 295,
      "Ġb": 296,
      "ic": 297,
      "or": 298,
      "ar": 299,
      "ct": 300,
      "Ġ=": 301,
      "ing": 302,
      "Ġw": 303,
      "ation": 304,
      "el": 305,
      "qu": 306,
      "Ġto": 307,
      "ed": 308,
      "ent": 309,
      "Ġn": 310,
      "Ġis": 311,
      "om": 312,
      "Ġre": 313,
      "as": 314,
      "the": 315,
      "Ġth": 316,
      "ol": 317,
      "Ġg": 318,
      "um": 319,
      "Ġl": 320,
      "ri": 321,
      "un": 322,
      "os": 323,
      "ce": 324,
      "st": 325,
      "ul": 326,
      "Ġpro": 327,
      "ve": 328,
      "Ġh": 329,
      "Ġcon": 330,
      "ction": 331,
      "tic": 332,
      "us": 333,
      "Ġen": 334,
      "et": 335,
      "id": 336,
      "im": 337,
      "erg": 338,
      "Ġst": 339,
      "Ġr": 340,
      "Ġfor": 341,
      "Ġthat": 342,
      "Ġequ": 343,
      "gh": 344,
      "Ġal": 345,
      "ergy": 346,
      "em": 347,
      "iv": 348,
      "ur": 349,
      "Ġat": 350,
      "ers": 351,
      "ess": 352,
      "ir": 353,
      "Ġsp": 354,
      "ch": 355,
      "Ġenergy": 356,
      "ot": 357,
      "Ġor": 358,
      "ati": 359,
      "als": 360,
      "lect": 361,
      "od": 362,
      "ut": 363,
      "Ġint": 364,
      "ity": 365,
      "il": 366,
      "ow": 367,
      "ons": 368,
      "rom": 369,
      "ates": 370,
      "Ġv": 371,
      "Ġch": 372,
      "Ġby": 373,
      "am": 374,
      "Ġare": 375,
      "etic": 376,
      "ab": 377,
      "du": 378,
      "Ġac": 379,
      "ang": 380,
      "ith": 381,
      "its": 382,
      "eg": 383,
      "Ġelect": 384,
      "ical": 385,
      "ell": 386,
      "ec": 387,
      "pl": 388,
      "ure": 389,
      "ant": 390,
      "Ġmo": 391,
      "Ġgen": 392,
      "per": 393,
      "Ġwith": 394,
      "ra": 395,
      "ta": 396,
      "Ġfrom": 397,
      "ran": 398,
      "Ġk": 399,
      "Ġon": 400,
      "Ġcom": 401,
      "ate": 402,
      "und": 403,
      "ff": 404,
      "ig": 405,
      "ion": 406,
      "Ġex": 407,
      "Ġtim": 408,
      "yst": 409,
      "enti": 410,
      "rou": 411,
      "ag": 412,
      "ly": 413,
      "ond": 414,
      "Ġcell": 415,
      "Ġall": 416,
      "Ġelectr": 417,
      "cle": 418,
      "hem": 419,
      "Ġrea": 420,
      "rib": 421,
      "Ġequals": 422,
      "ect": 423,
      "Ġas": 424,
      "ist": 425,
      "Ġdi": 426,
      "ative": 427,
      "ment": 428,
      "ore": 429,
      "Ġ(": 430,
      "Ġpr": 431,
      "Ġme": 432,
      "Ġli": 433,
      "Ġchang": 434,
      "rans": 435,
      "ystem": 436,
      "pro": 437,
      "ple": 438,
      "eri": 439,
      "Ġnum": 440,
      "Ġla": 441,
      "ular": 442,
      "ci": 443,
      "ral": 444,
      "ter": 445,
      "ence": 446,
      "Ġstates": 447,
      "rough": 448,
      "Ġnumb": 449,
      "ad": 450,
      "gen": 451,
      "ver": 452,
      "ĠC": 453,
      "ĠF": 454,
      "Ġun": 455,
      "ine": 456,
      "Ġsystem": 457,
      "Ġmat": 458,
      "Ġwh": 459,
      "ass": 460,
      "Ġthrough": 461,
      "Ġprodu": 462,
      "ctions": 463,
      "Ġlaw": 464,
      "ace": 465,
      "ition": 466,
      "na": 467,
      "Ġcan": 468,
      "Ġchem": 469,
      "Ġfre": 470,
      "Ġdes": 471,
      "ther": 472,
      "Ġinteg": 473,
      "Ġmole": 474,
      "ib": 475,
      "iz": 476,
      "yn": 477,
      "Ġits": 478,
      "Ġtrans": 479,
      "Ġfun": 480,
      "Ġbe": 481,
      "Ġwa": 482,
      "Ġwhe": 483,
      "Ġres": 484,
      "ght": 485,
      "Ġtimes": 486,
      "bs": 487,
      "pr": 488,
      "th": 489,
      "ucle": 490,
      "ves": 491,
      "Ġhe": 492,
      "Ġph": 493,
      "Ġde": 494,
      "Ġbet": 495,
      "stant": 496,
      "ay": 497,
      "ds": 498,
      "ous": 499,
      "ph": 500,
      "Ġtw": 501,
      "Ġtheore": 502,
      "Ġconstant": 503,
      "Ġmolec": 504,
      "Ġtheorem": 505,
      "ain": 506,
      "een": 507,
      "eed": 508,
      "ies": 509,
      "lu": 510,
      "ms": 511,
      "ween": 512,
      "Ġ+": 513,
      "erv": 514,
      "eriv": 515,
      "eng": 516,
      "Ġse": 517,
      "Ġinc": 518,
      "ations": 519,
      "quen": 520,
      "ase": 521,
      "Ġstr": 522,
      "Ġatom": 523,
      "able": 524,
      "Ġacid": 525,
      "ential": 526,
      "Ġchemical": 527,
      "Ġdesc": 528,
      "Ġfunction": 529,
      "Ġbetween": 530,
      "are": 531,
      "act": 532,
      "ge": 533,
      "og": 534,
      "ution": 535,
      "vol": 536,
      "Ġ-": 537,
      "ĠN": 538,
      "Ġi": 539,
      "Ġus": 540,
      "Ġap": 541,
      "Ġco": 542,
      "Ġcar": 543,
      "all": 544,
      "Ġpar": 545,
      "Ġfi": 546,
      "ich": 547,
      "orm": 548,
      "Ġcons": 549,
      "ide": 550,
      "Ġforce": 551,
      "Ġspace": 552,
      "Ġinto": 553,
      "agn": 554,
      "Ġintegral": 555,
      "Ġdescrib": 556,
      "'s": 557,
      "ac": 558,
      "ach": 559,
      "ding": 560,
      "ein": 561,
      "gan": 562,
      "oc": 563,
      "ps": 564,
      "vel": 565,
      "Ġ\\": 566,
      "Ġx": 567,
      "ties": 568,
      "Ġsu": 569,
      "Ġpl": 570,
      "Ġpo": 571,
      "Ġmet": 572,
      "Ġmass": 573,
      "ory": 574,
      "Ġnucle": 575,
      "ill": 576,
      "Ġgenetic": 577,
      "Ġtwo": 578,
      "Ġfiel": 579,
      "cess": 580,
      "me": 581,
      "pos": 582,
      "sis": 583,
      "vity": 584,
      "Ġqu": 585,
      "int": 586,
      "Ġthey": 587,
      "Ġtheir": 588,
      "ature": 589,
      "ane": 590,
      "ics": 591,
      "ard": 592,
      "quare": 593,
      "ases": 594,
      "rix": 595,
      "Ġprot": 596,
      "Ġprocess": 597,
      "Ġhy": 598,
      "Ġhas": 599,
      "Ġorgan": 600,
      "Ġone": 601,
      "ffer": 602,
      "Ġlight": 603,
      "Ġchange": 604,
      "Ġwhich": 605,
      "Ġfrequen": 606,
      "agnetic": 607,
      "cy": 608,
      "ces": 609,
      "dro": 610,
      "if": 611,
      "ient": 612,
      "ound": 613,
      "rt": 614,
      "ry": 615,
      "Ġ*": 616,
      "tial": 617,
      "ens": 618,
      "Ġsol": 619,
      "Ġsquare": 620,
      "ated": 621,
      "Ġeach": 622,
      "ication": 623,
      "ary": 624,
      "elta": 625,
      "Ġne": 626,
      "Ġproper": 627,
      "essure": 628,
      "Ġspeed": 629,
      "Ġreactions": 630,
      "ects": 631,
      "Ġnumbers": 632,
      "Ġmatrix": 633,
      "Ġresp": 634,
      "..": 635,
      "bj": 636,
      "elect": 637,
      "les": 638,
      "pi": 639,
      "pen": 640,
      "ration": 641,
      "ts": 642,
      "Ġz": 643,
      "Ġtem": 644,
      "Ġad": 645,
      "ong": 646,
      "erm": 647,
      "ero": 648,
      "Ġcl": 649,
      "Ġcal": 650,
      "Ġsh": 651,
      "Ġsm": 652,
      "Ġsec": 653,
      "Ġobj": 654,
      "Ġtheory": 655,
      "Ġperi": 656,
      "ros": 657,
      "Ġdiv": 658,
      "Ġdec": 659,
      "Ġderiv": 660,
      "Ġele": 661,
      "oment": 662,
      "Ġrel": 663,
      "ulti": 664,
      "Ġha": 665,
      "Ġhow": 666,
      "Ġform": 667,
      "Ġacc": 668,
      "tain": 669,
      "Ġtime": 670,
      "Ġcells": 671,
      "Ġchanges": 672,
      "Ġnumber": 673,
      "ength": 674,
      "Ġappro": 675,
      "Ġhydro": 676,
      "Ġsecond": 677,
      "Ġperiod": 678,
      "form": 679,
      "ial": 680,
      "la": 681,
      "ma": 682,
      "mv": 683,
      "py": 684,
      "pul": 685,
      "ric": 686,
      "ue": 687,
      "ĠP": 688,
      "ĠT": 689,
      "Ġ[": 690,
      "Ġim": 691,
      "Ġund": 692,
      "Ġam": 693,
      "inci": 694,
      "Ġsum": 695,
      "Ġpre": 696,
      "Ġpos": 697,
      "Ġpot": 698,
      "Ġmoment": 699,
      "Ġdist": 700,
      "Ġdna": 701,
      "Ġbond": 702,
      "ctor": 703,
      "eloc": 704,
      "Ġnot": 705,
      "Ġreg": 706,
      "rium": 707,
      "Ġprop": 708,
      "Ġequation": 709,
      "iron": 710,
      "Ġorb": 711,
      "ilib": 712,
      "Ġvol": 713,
      "perature": 714,
      "Ġkin": 715,
      "ffic": 716,
      "ign": 717,
      "Ġelectron": 718,
      "Ġreaction": 719,
      "Ġdiffer": 720,
      "Ġpressure": 721,
      "Ġprinci": 722,
      "ynthe": 723,
      "Ġwave": 724,
      "Ġwhen": 725,
      "Ġpartic": 726,
      "Ġfrequency": 727,
      "Ġproperties": 728,
      "Ġtemperature": 729,
      "Ġsmall": 730,
      "ross": 731,
      "ilibrium": 732,
      "NA": 733,
      "ap": 734,
      "air": 735,
      "bon": 736,
      "dt": 737,
      "low": 738,
      "ou": 739,
      "ox": 740,
      "par": 741,
      "put": 742,
      "ty": 743,
      "tane": 744,
      "vers": 745,
      "xim": 746,
      "ĠE": 747,
      "ĠJ": 748,
      "Ġit": 749,
      "Ġtri": 750,
      "Ġact": 751,
      "Ġcol": 752,
      "Ġsam": 753,
      "Ġsign": 754,
      "reases": 755,
      "ath": 756,
      "ater": 757,
      "Ġmulti": 758,
      "Ġdis": 759,
      "Ġdelta": 760,
      "Ġbut": 761,
      "Ġbase": 762,
      "ari": 763,
      "ely": 764,
      "ents": 765,
      "Ġgiv": 766,
      "Ġgra": 767,
      "ose": 768,
      "Ġrate": 769,
      "Ġequilibrium": 770,
      "atis": 771,
      "Ġveloc": 772,
      "Ġvari": 773,
      "abla": 774,
      "antum": 775,
      "Ġelectrons": 776,
      "Ġmean": 777,
      "Ġmeas": 778,
      "Ġlik": 779,
      "press": 780,
      "Ġatomic": 781,
      "Ġdescribes": 782,
      "Ġplus": 783,
      "Ġfield": 784,
      "Ġorganis": 785,
      "Ġsquared": 786,
      "Ġzero": 787,
      "Ġhave": 788,
      "Ġunder": 789,
      "Ġpotential": 790,
      "Ġmomentum": 791,
      "Ġorbit": 792,
      "fficient": 793,
      "Ġprinciple": 794,
      "Ġvelocity": 795,
      "_{": 796,
      "ak": 797,
      "bin": 798,
      "cc": 799,
      "co": 800,
      "cal": 801,
      "cent": 802,
      "out": 803,
      "pon": 804,
      "ule": 805,
      "viron": 806,
      "ys": 807,
      "ycle": 808,
      "ĠA": 809,
      "ĠK": 810,
      "Ġle": 811,
      "Ġent": 812,
      "Ġid": 813,
      "Ġar": 814,
      "Ġcur": 815,
      "Ġcycle": 816,
      "Ġox": 817,
      "Ġocc": 818,
      "Ġper": 819,
      "Ġpair": 820,
      "ropy": 821,
      "anics": 822,
      "Ġang": 823,
      "Ġfund": 824,
      "Ġind": 825,
      "Ġinvol": 826,
      "ite": 827,
      "ork": 828,
      "ental": 829,
      "Ġthis": 830,
      "osis": 831,
      "vector": 832,
      "Ġcontain": 833,
      "Ġenviron": 834,
      "ures": 835,
      "Ġspec": 836,
      "chanics": 837,
      "ility": 838,
      "amental": 839,
      "duction": 840,
      "egative": 841,
      "plication": 842,
      "Ġgene": 843,
      "Ġkg": 844,
      "Ġcomple": 845,
      "igen": 846,
      "Ġdire": 847,
      "Ġmechanics": 848,
      "Ġproduct": 849,
      "Ġfree": 850,
      "Ġphot": 851,
      "Ġphys": 852,
      "Ġmolecular": 853,
      "Ġinclu": 854,
      "Ġcarbon": 855,
      "Ġpoint": 856,
      "Ġnucleus": 857,
      "Ġquantum": 858,
      "Ġprotein": 859,
      "Ġadd": 860,
      "Ġclos": 861,
      "Ġderivative": 862,
      "Ġelement": 863,
      "Ġvolum": 864,
      "Ġkinetic": 865,
      "ynthesis": 866,
      "taneous": 867,
      "Ġorganisms": 868,
      "Ġoccur": 869,
      "Ġfundamental": 870,
      "Ġenvironment": 871,
      "dx": 872,
      "efficient": 873,
      "fin": 874,
      "ium": 875,
      "lo": 876,
      "mit": 877,
      "pol": 878,
      "pound": 879,
      "qrt": 880,
      "tal": 881,
      "uct": 882,
      "vi": 883,
      "val": 884,
      "ving": 885,
      "wt": 886,
      "}^": 887,
      "ĠR": 888,
      "ĠS": 889,
      "Ġtra": 890,
      "est": 891,
      "Ġset": 892,
      "Ġscal": 893,
      "Ġover": 894,
      "Ġobs": 895,
      "Ġpol": 896,
      "tional": 897,
      "atur": 898,
      "and": 899,
      "ann": 900,
      "Ġany": 901,
      "Ġflow": 902,
      "Ġmod": 903,
      "Ġmagnetic": 904,
      "lection": 905,
      "Ġdet": 906,
      "Ġbi": 907,
      "ortional": 908,
      "arg": 909,
      "Ġwork": 910,
      "eler": 911,
      "Ġtoge": 912,
      "Ġtotal": 913,
      "Ġno": 914,
      "omial": 915,
      "ast": 916,
      "Ġgrou": 917,
      "Ġlim": 918,
      "Ġline": 919,
      "Ġlength": 920,
      "ula": 921,
      "Ġconcent": 922,
      "Ġspon": 923,
      "ativity": 924,
      "own": 925,
      "ower": 926,
      "Ġacross": 927,
      "Ġgener": 928,
      "Ġcomm": 929,
      "Ġcompound": 930,
      "Ġelectric": 931,
      "ized": 932,
      "Ġwhere": 933,
      "ays": 934,
      "erved": 935,
      "Ġincreases": 936,
      "Ġstrong": 937,
      "Ġstruct": 938,
      "Ġ->": 939,
      "Ġusing": 940,
      "Ġcoefficient": 941,
      "Ġsuch": 942,
      "Ġpopul": 943,
      "Ġprocesses": 944,
      "ific": 945,
      "Ġsolution": 946,
      "pend": 947,
      "ermin": 948,
      "Ġobjects": 949,
      "Ġrelates": 950,
      "Ġformula": 951,
      "Ġacceler": 952,
      "Ġapproxim": 953,
      "Ġhydrogen": 954,
      "Ġperiodic": 955,
      "Ġposition": 956,
      "Ġdistrib": 957,
      "Ġproportional": 958,
      "partial": 959,
      "verse": 960,
      "Ġsignals": 961,
      "Ġpairs": 962,
      "Ġdetermin": 963,
      "Ġtogether": 964,
      ")*": 965,
      "Bol": 966,
      "]^": 967,
      "^(": 968,
      "au": 969,
      "atic": 970,
      "aus": 971,
      "bd": 972,
      "ced": 973,
      "cul": 974,
      "fer": 975,
      "ho": 976,
      "ions": 977,
      "li": 978,
      "lation": 979,
      "less": 980,
      "mod": 981,
      "mann": 982,
      "nal": 983,
      "not": 984,
      "nabla": 985,
      "otic": 986,
      "our": 987,
      "phe": 988,
      "sion": 989,
      "tz": 990,
      "tro": 991,
      "trans": 992,
      "ward": 993,
      "ym": 994,
      "Ġ.": 995,
      "ĠH": 996,
      "Ġu": 997,
      "Ġro": 998,
      "Ġvector": 999,
      "her": 1000,
      "Ġsur": 1001,
      "Ġsatis": 1002,
      "Ġout": 1003,
      "Ġoper": 1004,
      "Ġother": 1005,
      "Ġfir": 1006,
      "Ġma": 1007,
      "Ġmu": 1008,
      "Ġmem": 1009,
      "Ġmess": 1010,
      "Ġdri": 1011,
      "Ġeff": 1012,
      "Ġbin": 1013,
      "ors": 1014,
      "que": 1015,
      "Ġnit": 1016,
      "Ġnegative": 1017,
      "ome": 1018,
      "omet": 1019,
      "Ġrele": 1020,
      "Ġrepr": 1021,
      "Ġglu": 1022,
      "Ġliv": 1023,
      "osynthesis": 1024,
      "osphe": 1025,
      "str": 1026,
      "ules": 1027,
      "Ġhi": 1028,
      "Ġrad": 1029,
      "ivers": 1030,
      "Ġatm": 1031,
      "oth": 1032,
      "ute": 1033,
      "Ġinter": 1034,
      "romagnetic": 1035,
      "ambd": 1036,
      "ability": 1037,
      "pli": 1038,
      "Ġgenes": 1039,
      "Ġwithout": 1040,
      "Ġexpress": 1041,
      "entiation": 1042,
      "entity": 1043,
      "Ġallow": 1044,
      "ists": 1045,
      "Ġpres": 1046,
      "erial": 1047,
      "Ġunits": 1048,
      "Ġproduce": 1049,
      "ynam": 1050,
      "Ġtransform": 1051,
      "pha": 1052,
      "Ġmolecules": 1053,
      "Ġsequ": 1054,
      "Ġions": 1055,
      "Ġdescribe": 1056,
      "psi": 1057,
      "Ġfields": 1058,
      "Ġrespons": 1059,
      "...": 1060,
      "Ġcalcul": 1061,
      "Ġbonds": 1062,
      "Ġparticles": 1063,
      "Ġsame": 1064,
      "Ġgives": 1065,
      "Ġmeasures": 1066,
      "Ġlike": 1067,
      "Ġorbitals": 1068,
      "Ġidentity": 1069,
      "Ġdirection": 1070,
      "Ġphysical": 1071,
      "Ġvolume": 1072,
      "Ġoccurs": 1073,
      "}^{": 1074,
      "atural": 1075,
      "Ġconcentration": 1076,
      "Ġspontaneous": 1077,
      "Ġacceleration": 1078,
      "Boltz": 1079,
      "Ġsatisf": 1080,
      "Ġfirst": 1081,
      "Ġmesseng": 1082,
      "Ġrepres": 1083,
      "Ġliving": 1084,
      "ambda": 1085,
      "Boltzmann": 1086,
      "))": 1087,
      "),": 1088,
      "/(": 1089,
      "CO": 1090,
      "Deriv": 1091,
      "RNA": 1092,
      "TP": 1093,
      "bi": 1094,
      "ble": 1095,
      "berg": 1096,
      "bran": 1097,
      "bability": 1098,
      "cell": 1099,
      "cose": 1100,
      "dies": 1101,
      "equ": 1102,
      "ewt": 1103,
      "ius": 1104,
      "kT": 1105,
      "lan": 1106,
      "mol": 1107,
      "main": 1108,
      "oid": 1109,
      "oci": 1110,
      "sol": 1111,
      "sqrt": 1112,
      "soci": 1113,
      "ted": 1114,
      "udies": 1115,
      "yl": 1116,
      "yp": 1117,
      "ygen": 1118,
      "}{": 1119,
      "ĠG": 1120,
      "ĠM": 1121,
      "ĠV": 1122,
      "ĠW": 1123,
      "Ġy": 1124,
      "Ġten": 1125,
      "one": 1126,
      "energy": 1127,
      "Ġsound": 1128,
      "Ġos": 1129,
      "ree": 1130,
      "aly": 1131,
      "Ġpath": 1132,
      "Ġpower": 1133,
      "rost": 1134,
      "rogen": 1135,
      "ating": 1136,
      "ately": 1137,
      "ance": 1138,
      "Ġmin": 1139,
      "ision": 1140,
      "Ġdo": 1141,
      "Ġdens": 1142,
      "Ġinput": 1143,
      "Ġev": 1144,
      "Ġeigen": 1145,
      "Ġbas": 1146,
      "Ġbec": 1147,
      "Ġbact": 1148,
      "Ġboth": 1149,
      "ord": 1150,
      "arge": 1151,
      "Ġwill": 1152,
      "Ġwater": 1153,
      "elf": 1154,
      "eli": 1155,
      "Ġnon": 1156,
      "omes": 1157,
      "ompos": 1158,
      "Ġreal": 1159,
      "Ġrepro": 1160,
      "Ġremain": 1161,
      "Ġthan": 1162,
      "olog": 1163,
      "Ġge": 1164,
      "Ġgas": 1165,
      "oss": 1166,
      "vec": 1167,
      "Ġconver": 1168,
      "tical": 1169,
      "eta": 1170,
      "imens": 1171,
      "ergence": 1172,
      "Ġstudies": 1173,
      "Ġrati": 1174,
      "Ġrna": 1175,
      "Ġequal": 1176,
      "Ġalk": 1177,
      "Ġalter": 1178,
      "Ġalpha": 1179,
      "Ġchain": 1180,
      "Ġcharg": 1181,
      "Ġarea": 1182,
      "Ġelectromagnetic": 1183,
      "ploid": 1184,
      "ants": 1185,
      "Ġmotion": 1186,
      "Ġexter": 1187,
      "Ġexact": 1188,
      "Ġcellular": 1189,
      "hemical": 1190,
      "very": 1191,
      "Ġunit": 1192,
      "Ġmatter": 1193,
      "Ġcannot": 1194,
      "ible": 1195,
      "Ġwaves": 1196,
      "Ġwavel": 1197,
      "Ġrest": 1198,
      "Ġmolecule": 1199,
      "Ġselection": 1200,
      "Ġatoms": 1201,
      "Ġacids": 1202,
      "volution": 1203,
      "ĠNA": 1204,
      "Ġcoun": 1205,
      "Ġcarri": 1206,
      "vels": 1207,
      "Ġmeters": 1208,
      "Ġprotons": 1209,
      "electr": 1210,
      "Ġobject": 1211,
      "Ġdivid": 1212,
      "Ġdecompos": 1213,
      "Ġregul": 1214,
      "Ġdifferentiation": 1215,
      "Ġparticle": 1216,
      "Ġtriang": 1217,
      "Ġacts": 1218,
      "Ġvariation": 1219,
      "Ġmeans": 1220,
      "Ġmeaning": 1221,
      "Ġentropy": 1222,
      "Ġangular": 1223,
      "Ġcontains": 1224,
      "Ġcomplex": 1225,
      "Ġincluding": 1226,
      "Ġclosed": 1227,
      "Ġflows": 1228,
      "Ġgroup": 1229,
      "Ġlinear": 1230,
      "Ġcompounds": 1231,
      "Ġpopulation": 1232,
      "Ġdistribution": 1233,
      "modynam": 1234,
      "Ġmembran": 1235,
      "Ġnitrogen": 1236,
      "Ġglucose": 1237,
      "osphere": 1238,
      "Ġhigh": 1239,
      "plied": 1240,
      "Ġexpression": 1241,
      "Ġsequence": 1242,
      "Ġcalculus": 1243,
      "Ġrepresents": 1244,
      "Deriving": 1245,
      "Ġdensity": 1246,
      "Ġexternal": 1247,
      "Ġwavelength": 1248,
      "'(": 1249,
      ")/": 1250,
      ")^": 1251,
      "/\\": 1252,
      "=-": 1253,
      ">=": 1254,
      "Ar": 1255,
      "DNA": 1256,
      "OH": 1257,
      "RT": 1258,
      "av": 1259,
      "bb": 1260,
      "bar": 1261,
      "bra": 1262,
      "bond": 1263,
      "ck": 1264,
      "com": 1265,
      "cri": 1266,
      "cos": 1267,
      "cill": 1268,
      "chemical": 1269,
      "dic": 1270,
      "dition": 1271,
      "dna": 1272,
      "dient": 1273,
      "delta": 1274,
      "ex": 1275,
      "ear": 1276,
      "eak": 1277,
      "epend": 1278,
      "for": 1279,
      "fra": 1280,
      "fig": 1281,
      "gon": 1282,
      "gra": 1283,
      "hy": 1284,
      "iti": 1285,
      "ile": 1286,
      "lor": 1287,
      "math": 1288,
      "mosis": 1289,
      "nown": 1290,
      "ole": 1291,
      "och": 1292,
      "other": 1293,
      "pt": 1294,
      "ption": 1295,
      "ram": 1296,
      "rang": 1297,
      "rmodynam": 1298,
      "side": 1299,
      "uctions": 1300,
      "vit": 1301,
      "vation": 1302,
      "ways": 1303,
      "xi": 1304,
      "Ġ/": 1305,
      "ĠL": 1306,
      "Ġri": 1307,
      "Ġess": 1308,
      "Ġion": 1309,
      "Ġrib": 1310,
      "Ġide": 1311,
      "Ġtor": 1312,
      "Ġtable": 1313,
      "Ġtyp": 1314,
      "Ġab": 1315,
      "Ġaction": 1316,
      "hes": 1317,
      "inf": 1318,
      "ino": 1319,
      "time": 1320,
      "enz": 1321,
      "Ġcat": 1322,
      "Ġcent": 1323,
      "Ġcir": 1324,
      "Ġcross": 1325,
      "Ġsid": 1326,
      "Ġsem": 1327,
      "Ġseri": 1328,
      "Ġtheta": 1329,
      "Ġthermodynam": 1330,
      "alyst": 1331,
      "ally": 1332,
      "alue": 1333,
      "round": 1334,
      "any": 1335,
      "anti": 1336,
      "Ġanaly": 1337,
      "Ġfin": 1338,
      "Ġflu": 1339,
      "Ġfour": 1340,
      "Ġmon": 1341,
      "Ġmic": 1342,
      "Ġmed": 1343,
      "Ġmol": 1344,
      "Ġmad": 1345,
      "Ġmany": 1346,
      "lele": 1347,
      "Ġdx": 1348,
      "Ġdue": 1349,
      "Ġdou": 1350,
      "Ġdown": 1351,
      "Ġinform": 1352,
      "Ġinverse": 1353,
      "Ġinstr": 1354,
      "Ġevery": 1355,
      "Ġbill": 1356,
      "Ġweak": 1357,
      "Ġtoward": 1358,
      "enty": 1359,
      "Ġnabla": 1360,
      "Ġnatural": 1361,
      "oms": 1362,
      "Ġrequ": 1363,
      "Ġrece": 1364,
      "Ġrepul": 1365,
      "Ġreplication": 1366,
      "Ġreverse": 1367,
      "Ġthree": 1368,
      "uman": 1369,
      "Ġlambda": 1370,
      "Ġloss": 1371,
      "ost": 1372,
      "osine": 1373,
      "osomes": 1374,
      "osmosis": 1375,
      "ull": 1376,
      "Ġprobability": 1377,
      "Ġhig": 1378,
      "Ġhuman": 1379,
      "Ġconn": 1380,
      "Ġcontro": 1381,
      "Ġconfig": 1382,
      "Ġend": 1383,
      "idation": 1384,
      "Ġstar": 1385,
      "Ġstatis": 1386,
      "Ġrule": 1387,
      "Ġforms": 1388,
      "Ġforces": 1389,
      "Ġequations": 1390,
      "ghter": 1391,
      "Ġalge": 1392,
      "Ġalong": 1393,
      "Ġallele": 1394,
      "ements": 1395,
      "uration": 1396,
      "iration": 1397,
      "ode": 1398,
      "ody": 1399,
      "ilon": 1400,
      "onserv": 1401,
      "Ġvast": 1402,
      "Ġvalue": 1403,
      "ega": 1404,
      "plic": 1405,
      "place": 1406,
      "plies": 1407,
      "Ġmore": 1408,
      "Ġmoving": 1409,
      "perme": 1410,
      "ĠkJ": 1411,
      "Ġknown": 1412,
      "Ġonly": 1413,
      "Ġcompos": 1414,
      "Ġcombin": 1415,
      "Ġexpon": 1416,
      "age": 1417,
      "ondri": 1418,
      "Ġelectrical": 1419,
      "Ġassoci": 1420,
      "istry": 1421,
      "ored": 1422,
      "cies": 1423,
      "Ġmaterial": 1424,
      "Ġwhile": 1425,
      "Ġproduces": 1426,
      "Ġchemistry": 1427,
      "Ġintegr": 1428,
      "ibbs": 1429,
      "ize": 1430,
      "izing": 1431,
      "ization": 1432,
      "ynomial": 1433,
      "Ġitself": 1434,
      "Ġtransfer": 1435,
      "Ġfunctions": 1436,
      "Ġwhether": 1437,
      "Ġheat": 1438,
      "Ġdepen": 1439,
      "Ġdefin": 1440,
      "Ġtwenty": 1441,
      "ogad": 1442,
      "ĠNewt": 1443,
      "Ġuses": 1444,
      "Ġused": 1445,
      "Ġapplied": 1446,
      "Ġconserved": 1447,
      "Ġconsists": 1448,
      "aches": 1449,
      "psilon": 1450,
      "Ġnuclei": 1451,
      "Ġfrequencies": 1452,
      "Ġsolute": 1453,
      "Ġrespiration": 1454,
      "electric": 1455,
      "Ġdecay": 1456,
      "Ġapproaches": 1457,
      "ĠPa": 1458,
      "Ġamino": 1459,
      "Ġprec": 1460,
      "Ġpredic": 1461,
      "Ġbonding": 1462,
      "Ġpropag": 1463,
      "Ġdifferent": 1464,
      "ape": 1465,
      "Ġsample": 1466,
      "Ġmultiplication": 1467,
      "Ġdisplace": 1468,
      "Ġgiven": 1469,
      "Ġgravity": 1470,
      "Ġvariable": 1471,
      "Ġmeasure": 1472,
      "Ġlevels": 1473,
      "Ġcurve": 1474,
      "Ġoxygen": 1475,
      "Ġinvolve": 1476,
      "Ġspecial": 1477,
      "Ġspecific": 1478,
      "Ġphotosynthesis": 1479,
      "Ġinclud": 1480,
      "Ġadded": 1481,
      "Ġaddition": 1482,
      "Ġclosure": 1483,
      "loro": 1484,
      "Ġscalar": 1485,
      "Ġobserv": 1486,
      "Ġpolynomial": 1487,
      "andard": 1488,
      "Ġbiolog": 1489,
      "Ġlimit": 1490,
      "Ġstructure": 1491,
      "Ġcoefficients": 1492,
      "Ġsolutions": 1493,
      "Ġapproximately": 1494,
      "Ġdetermines": 1495,
      "Ġup": 1496,
      "Ġroot": 1497,
      "Ġoutput": 1498,
      "Ġeffect": 1499,
      "Ġbinomial": 1500,
      "ometry": 1501,
      "Ġreleas": 1502,
      "Ġradius": 1503,
      "Ġpresence": 1504,
      "Ġsatisfies": 1505,
      "Ġmessenger": 1506,
      "lanck": 1507,
      "Ġoscill": 1508,
      "Ġminus": 1509,
      "imension": 1510,
      "Ġcharges": 1511,
      "Ġcarries": 1512,
      "electron": 1513,
      "Ġdivided": 1514,
      "Ġtriangle": 1515,
      "Ġmembrane": 1516,
      "cription": 1517,
      "ependent": 1518,
      "frac": 1519,
      "mathbb": 1520,
      "ochondri": 1521,
      "vitation": 1522,
      "Ġideal": 1523,
      "Ġtorque": 1524,
      "Ġcentral": 1525,
      "Ġsides": 1526,
      "Ġseries": 1527,
      "Ġthermodynamics": 1528,
      "Ġanalysis": 1529,
      "Ġmade": 1530,
      "Ġdouble": 1531,
      "Ġinformation": 1532,
      "Ġinstructions": 1533,
      "Ġrepulsion": 1534,
      "Ġhigher": 1535,
      "Ġcontrol": 1536,
      "Ġconfiguration": 1537,
      "Ġalgebra": 1538,
      "Ġdepends": 1539,
      "ĠNewton": 1540,
      "Ġdisplacement": 1541,
      ")!": 1542,
      ").": 1543,
      "Av": 1544,
      "CH": 1545,
      "Cl": 1546,
      "DH": 1547,
      "II": 1548,
      "Na": 1549,
      "Planck": 1550,
      "Sch": 1551,
      "ax": 1552,
      "actions": 1553,
      "cl": 1554,
      "cr": 1555,
      "con": 1556,
      "cer": 1557,
      "cit": 1558,
      "cing": 1559,
      "col": 1560,
      "cod": 1561,
      "cular": 1562,
      "dv": 1563,
      "dy": 1564,
      "ders": 1565,
      "eV": 1566,
      "ef": 1567,
      "ep": 1568,
      "eti": 1569,
      "eigen": 1570,
      "fe": 1571,
      "ft": 1572,
      "fore": 1573,
      "face": 1574,
      "fication": 1575,
      "gate": 1576,
      "ha": 1577,
      "hal": 1578,
      "hat": 1579,
      "hol": 1580,
      "ia": 1581,
      "ix": 1582,
      "ive": 1583,
      "ight": 1584,
      "iffer": 1585,
      "itial": 1586,
      "iosis": 1587,
      "iperme": 1588,
      "ju": 1589,
      "ke": 1590,
      "kx": 1591,
      "kary": 1592,
      "ld": 1593,
      "ln": 1594,
      "lis": 1595,
      "lig": 1596,
      "log": 1597,
      "lambda": 1598,
      "mc": 1599,
      "mu": 1600,
      "mon": 1601,
      "mat": 1602,
      "mic": 1603,
      "ming": 1604,
      "mun": 1605,
      "met": 1606,
      "mits": 1607,
      "mass": 1608,
      "mega": 1609,
      "ning": 1610,
      "ness": 1611,
      "nucle": 1612,
      "natural": 1613,
      "oun": 1614,
      "oil": 1615,
      "pp": 1616,
      "pot": 1617,
      "peed": 1618,
      "pies": 1619,
      "pite": 1620,
      "ring": 1621,
      "rate": 1622,
      "rho": 1623,
      "se": 1624,
      "sm": 1625,
      "sum": 1626,
      "speed": 1627,
      "to": 1628,
      "tu": 1629,
      "tin": 1630,
      "ting": 1631,
      "tab": 1632,
      "tein": 1633,
      "ues": 1634,
      "ual": 1635,
      "uel": 1636,
      "uum": 1637,
      "uous": 1638,
      "ukary": 1639,
      "vin": 1640,
      "ved": 1641,
      "verg": 1642,
      "vature": 1643,
      "wn": 1644,
      "war": 1645,
      "well": 1646,
      "wth": 1647,
      "water": 1648,
      "ying": 1649,
      "yed": 1650,
      "yth": 1651,
      "yme": 1652,
      "Ġ<": 1653,
      "ĠB": 1654,
      "ĠO": 1655,
      "Ġj": 1656,
      "Ġq": 1657,
      "Ġer": 1658,
      "Ġiron": 1659,
      "ĠBoltzmann": 1660,
      "Ġ>=": 1661,
      "Ġter": 1662,
      "Ġtest": 1663,
      "Ġtarg": 1664,
      "Ġag": 1665,
      "Ġace": 1666,
      "Ġair": 1667,
      "Ġaff": 1668,
      "Ġabs": 1669,
      "Ġaxi": 1670,
      "onucle": 1671,
      "hed": 1672,
      "hel": 1673,
      "hen": 1674,
      "inates": 1675,
      "inary": 1676,
      "inning": 1677,
      "til": 1678,
      "tition": 1679,
      "tivity": 1680,
      "titu": 1681,
      "ere": 1682,
      "ern": 1683,
      "ertain": 1684,
      "end": 1685,
      "enberg": 1686,
      "entical": 1687,
      "Ġcre": 1688,
      "Ġcas": 1689,
      "Ġcase": 1690,
      "Ġcap": 1691,
      "Ġcaus": 1692,
      "Ġcosine": 1693,
      "Ġcertain": 1694,
      "Ġso": 1695,
      "Ġser": 1696,
      "Ġsim": 1697,
      "Ġsod": 1698,
      "Ġsynthe": 1699,
      "Ġsynthesis": 1700,
      "Ġsqrt": 1701,
      "Ġsour": 1702,
      "Ġown": 1703,
      "Ġthem": 1704,
      "Ġthen": 1705,
      "Ġthere": 1706,
      "Ġthese": 1707,
      "ret": 1708,
      "rebs": 1709,
      "rease": 1710,
      "reater": 1711,
      "reak": 1712,
      "alf": 1713,
      "ality": 1714,
      "alence": 1715,
      "Ġpri": 1716,
      "Ġpass": 1717,
      "Ġperm": 1718,
      "ror": 1719,
      "roding": 1720,
      "rochemical": 1721,
      "rowth": 1722,
      "ator": 1723,
      "ank": 1724,
      "anet": 1725,
      "ands": 1726,
      "anding": 1727,
      "Ġanti": 1728,
      "Ġfact": 1729,
      "Ġfill": 1730,
      "Ġfuel": 1731,
      "Ġmm": 1732,
      "Ġmit": 1733,
      "Ġmgh": 1734,
      "ĠmRNA": 1735,
      "led": 1736,
      "Ġoff": 1737,
      "ise": 1738,
      "ission": 1739,
      "isible": 1740,
      "isenberg": 1741,
      "ĠdA": 1742,
      "Ġdig": 1743,
      "Ġdau": 1744,
      "Ġdone": 1745,
      "Ġinn": 1746,
      "Ġiner": 1747,
      "Ġindu": 1748,
      "Ġinduction": 1749,
      "Ġinfin": 1750,
      "Ġinequ": 1751,
      "Ġinside": 1752,
      "Ġevolution": 1753,
      "Ġecos": 1754,
      "Ġepsilon": 1755,
      "Ġeukary": 1756,
      "Ġblo": 1757,
      "Ġbody": 1758,
      "Ġboil": 1759,
      "Ġbreak": 1760,
      "ording": 1761,
      "arad": 1762,
      "arth": 1763,
      "arization": 1764,
      "ctang": 1765,
      "ctants": 1766,
      "Ġwat": 1767,
      "Ġwere": 1768,
      "Ġtopol": 1769,
      "entropy": 1770,
      "Ġnet": 1771,
      "Ġnrt": 1772,
      "Ġisol": 1773,
      "ombs": 1774,
      "Ġreduction": 1775,
      "Ġrectang": 1776,
      "asts": 1777,
      "old": 1778,
      "Ġgam": 1779,
      "Ġgain": 1780,
      "Ġgases": 1781,
      "Ġgibbs": 1782,
      "Ġgreater": 1783,
      "Ġgrowth": 1784,
      "Ġlow": 1785,
      "Ġloc": 1786,
      "Ġlarge": 1787,
      "rier": 1788,
      "rification": 1789,
      "osph": 1790,
      "stra": 1791,
      "ulf": 1792,
      "uler": 1793,
      "Ġprov": 1794,
      "Ġproves": 1795,
      "Ġpropos": 1796,
      "vement": 1797,
      "Ġhbar": 1798,
      "Ġhalf": 1799,
      "Ġcondition": 1800,
      "Ġconju": 1801,
      "Ġcontin": 1802,
      "Ġconverg": 1803,
      "Ġeng": 1804,
      "Ġenorm": 1805,
      "ider": 1806,
      "imal": 1807,
      "Ġstran": 1808,
      "Ġstored": 1809,
      "Ġstandard": 1810,
      "Ġrand": 1811,
      "Ġrank": 1812,
      "Ġforward": 1813,
      "Ġequiv": 1814,
      "Ġalco": 1815,
      "Ġalways": 1816,
      "urons": 1817,
      "Ġatp": 1818,
      "ires": 1819,
      "Ġspl": 1820,
      "Ġspinning": 1821,
      "ching": 1822,
      "otosynthesis": 1823,
      "atives": 1824,
      "odivers": 1825,
      "utative": 1826,
      "Ġinterv": 1827,
      "ild": 1828,
      "Ġvac": 1829,
      "Ġcharge": 1830,
      "Ġchloro": 1831,
      "abol": 1832,
      "absol": 1833,
      "duct": 1834,
      "duce": 1835,
      "Ġacti": 1836,
      "ithm": 1837,
      "egativity": 1838,
      "plain": 1839,
      "plasts": 1840,
      "Ġmovement": 1841,
      "Ġgenome": 1842,
      "ratic": 1843,
      "tau": 1844,
      "taint": 1845,
      "ĠkB": 1846,
      "Ġcomb": 1847,
      "Ġexp": 1848,
      "Ġext": 1849,
      "Ġexplain": 1850,
      "agore": 1851,
      "aginary": 1852,
      "hematic": 1853,
      "Ġreactants": 1854,
      "Ġdiox": 1855,
      "Ġdiploid": 1856,
      "mentary": 1857,
      "Ġ(-": 1858,
      "Ġlife": 1859,
      "ystems": 1860,
      "protein": 1861,
      "product": 1862,
      "eria": 1863,
      "teract": 1864,
      "adratic": 1865,
      "gener": 1866,
      "verage": 1867,
      "ĠCO": 1868,
      "ĠFe": 1869,
      "ĠFor": 1870,
      "Ġunless": 1871,
      "Ġunivers": 1872,
      "Ġuncer": 1873,
      "Ġsystems": 1874,
      "Ġwhat": 1875,
      "Ġproduced": 1876,
      "Ġlaws": 1877,
      "Ġdestro": 1878,
      "Ġdespite": 1879,
      "Ġintegration": 1880,
      "izes": 1881,
      "Ġtranslation": 1882,
      "Ġbeing": 1883,
      "Ġbeha": 1884,
      "pressure": 1885,
      "Ġhert": 1886,
      "Ġheav": 1887,
      "Ġheight": 1888,
      "Ġheld": 1889,
      "Ġdevi": 1890,
      "Ġdepend": 1891,
      "ayes": 1892,
      "photosynthesis": 1893,
      "Ġsequen": 1894,
      "Ġsepar": 1895,
      "Ġincrease": 1896,
      "Ġstress": 1897,
      "Ġif": 1898,
      "Ġcoord": 1899,
      "Ġcopies": 1900,
      "Ġcarry": 1901,
      "Ġpartial": 1902,
      "Ġpartition": 1903,
      "Ġconsum": 1904,
      "Ġconsist": 1905,
      "Ġconstitu": 1906,
      "Ġconsider": 1907,
      "Ġspacetime": 1908,
      "agneti": 1909,
      "einberg": 1910,
      "Ġplanet": 1911,
      "Ġmeth": 1912,
      "Ġmetal": 1913,
      "Ġmetabol": 1914,
      "Ġnuclear": 1915,
      "meiosis": 1916,
      "Ġquanti": 1917,
      "Ġquadratic": 1918,
      "integ": 1919,
      "ardy": 1920,
      "ardless": 1921,
      "Ġnew": 1922,
      "Ġneut": 1923,
      "Ġneurons": 1924,
      "Ġproperty": 1925,
      "Ġrespect": 1926,
      "Ġclass": 1927,
      "Ġshow": 1928,
      "Ġshare": 1929,
      "Ġshif": 1930,
      "Ġshape": 1931,
      "Ġdivision": 1932,
      "Ġdivergence": 1933,
      "Ġdecreases": 1934,
      "Ġderivatives": 1935,
      "Ġelevation": 1936,
      "Ġrelativity": 1937,
      "Ġhaploid": 1938,
      "Ġaccur": 1939,
      "Ġaccording": 1940,
      "Ġhydrox": 1941,
      "max": 1942,
      "ĠThe": 1943,
      "Ġimpos": 1944,
      "Ġimplies": 1945,
      "Ġimmun": 1946,
      "Ġimaginary": 1947,
      "Ġammon": 1948,
      "Ġamoun": 1949,
      "Ġpositi": 1950,
      "Ġdistance": 1951,
      "Ġregion": 1952,
      "Ġregardless": 1953,
      "Ġdifference": 1954,
      "ough": 1955,
      "ourier": 1956,
      "oxidation": 1957,
      "Ġtrigon": 1958,
      "Ġcollection": 1959,
      "Ġcollis": 1960,
      "Ġmultiplic": 1961,
      "Ġdissol": 1962,
      "Ġgradient": 1963,
      "Ġgravitation": 1964,
      "Ġlikeli": 1965,
      "Ġorbital": 1966,
      "fficiently": 1967,
      "ĠATP": 1968,
      "Ġleast": 1969,
      "Ġenthal": 1970,
      "Ġidentical": 1971,
      "Ġarrang": 1972,
      "Ġcurr": 1973,
      "Ġcurvature": 1974,
      "Ġoxid": 1975,
      "Ġangles": 1976,
      "Ġindic": 1977,
      "Ġindiv": 1978,
      "Ġindependent": 1979,
      "Ġinvolves": 1980,
      "Ġinvolving": 1981,
      "Ġcomplet": 1982,
      "Ġproducts": 1983,
      "Ġphotons": 1984,
      "Ġphysics": 1985,
      "Ġproteins": 1986,
      "Ġelements": 1987,
      "Ġvolumes": 1988,
      "Ġenvironmental": 1989,
      "mitosis": 1990,
      "polarization": 1991,
      "value": 1992,
      "values": 1993,
      "ĠRC": 1994,
      "ĠSch": 1995,
      "Ġtraits": 1996,
      "Ġtravel": 1997,
      "Ġscales": 1998,
      "Ġobserved": 1999,
      "Ġpolar": 2000,
      "Ġmodif": 2001,
      "Ġmodific": 2002,
      "Ġgroups": 2003,
      "Ġlimits": 2004,
      "Ġgenerates": 2005,
      "Ġcommon": 2006,
      "Ġcommun": 2007,
      "Ġcommutative": 2008,
      "Ġstructures": 2009,
      "Ġpopulations": 2010,
      "Ġapproximated": 2011,
      "Ġdeterminant": 2012,
      "ause": 2013,
      "ceding": 2014,
      "ference": 2015,
      "hood": 2016,
      "light": 2017,
      "transcription": 2018,
      "Ġupon": 2019,
      "Ġsurround": 2020,
      "Ġsurface": 2021,
      "Ġoperon": 2022,
      "Ġoperation": 2023,
      "Ġmaxim": 2024,
      "Ġmust": 2025,
      "Ġdrive": 2026,
      "Ġdrift": 2027,
      "Ġeffects": 2028,
      "ometric": 2029,
      "Ġrelease": 2030,
      "Ġatmosphere": 2031,
      "Ġinteractions": 2032,
      "Ġallowing": 2033,
      "Ġtransformation": 2034,
      "Ġresponse": 2035,
      "Ġresponses": 2036,
      "Ġsatisfying": 2037,
      "Ġmessengers": 2038,
      "biotic": 2039,
      "cellular": 2040,
      "ĠMeV": 2041,
      "rostates": 2042,
      "Ġdop": 2043,
      "Ġeven": 2044,
      "Ġeigenvector": 2045,
      "Ġbasis": 2046,
      "Ġbasic": 2047,
      "Ġbecause": 2048,
      "Ġbacterial": 2049,
      "Ġbacteria": 2050,
      "order": 2051,
      "Ġreproduction": 2052,
      "Ġreproduce": 2053,
      "Ġgeometry": 2054,
      "Ġconverts": 2055,
      "Ġconverted": 2056,
      "Ġratio": 2057,
      "Ġratios": 2058,
      "Ġaltered": 2059,
      "Ġexactly": 2060,
      "Ġcounteract": 2061,
      "Ġdecomposes": 2062,
      "Ġregulate": 2063,
      "bonding": 2064,
      "olecular": 2065,
      "othermic": 2066,
      "Ġright": 2067,
      "Ġessential": 2068,
      "Ġionic": 2069,
      "Ġtype": 2070,
      "enzyme": 2071,
      "Ġcatalyst": 2072,
      "Ġcirc": 2073,
      "Ġsemiperme": 2074,
      "Ġmicrostates": 2075,
      "Ġmedium": 2076,
      "Ġbillion": 2077,
      "Ġrequires": 2078,
      "ullity": 2079,
      "Ġconnects": 2080,
      "Ġstatistical": 2081,
      "onservation": 2082,
      "Ġcomposition": 2083,
      "Ġcombines": 2084,
      "Ġexponential": 2085,
      "Ġassociativity": 2086,
      "Ġintegrals": 2087,
      "ogadro": 2088,
      "Ġprecision": 2089,
      "Ġpropagation": 2090,
      "Ġspecialized": 2091,
      "Ġobservers": 2092,
      "Ġbiological": 2093,
      "Ġupd": 2094,
      "Ġreleasing": 2095,
      "Ġoscillating": 2096,
      "imensional": 2097,
      "electronegativity": 2098,
      "ochondria": 2099,
      "Avogadro": 2100,
      "collig": 2101,
      "nuclear": 2102,
      "tably": 2103,
      "warz": 2104,
      "ythagore": 2105,
      "Ġerror": 2106,
      "Ġterms": 2107,
      "Ġtarget": 2108,
      "Ġabsor": 2109,
      "Ġaxioms": 2110,
      "onucleic": 2111,
      "Ġcreated": 2112,
      "Ġcaused": 2113,
      "Ġsodium": 2114,
      "Ġsource": 2115,
      "rodinger": 2116,
      "Ġdigits": 2117,
      "Ġdaughter": 2118,
      "Ġinfinite": 2119,
      "Ġinequality": 2120,
      "Ġeukaryotic": 2121,
      "Ġblood": 2122,
      "Ġboiling": 2123,
      "Ġbreaks": 2124,
      "Ġtopolog": 2125,
      "Ġisolated": 2126,
      "Ġconditions": 2127,
      "Ġconjugate": 2128,
      "Ġcontinuous": 2129,
      "Ġconverges": 2130,
      "Ġenormous": 2131,
      "Ġrandom": 2132,
      "Ġequivalence": 2133,
      "Ġalcohol": 2134,
      "odiversity": 2135,
      "Ġinterval": 2136,
      "Ġvacuum": 2137,
      "absolute": 2138,
      "tainty": 2139,
      "Ġexplains": 2140,
      "Ġdioxide": 2141,
      "Ġuncertainty": 2142,
      "Ġdestroyed": 2143,
      "Ġhertz": 2144,
      "Ġheavy": 2145,
      "Ġsequences": 2146,
      "Ġcoordinates": 2147,
      "Ġcarrying": 2148,
      "Ġconstituent": 2149,
      "agnetism": 2150,
      "Ġquantities": 2151,
      "Ġimmune": 2152,
      "Ġammonia": 2153,
      "Ġcollisions": 2154,
      "Ġdissolved": 2155,
      "Ġlikelihood": 2156,
      "Ġenthalpy": 2157,
      "Ġarrangements": 2158,
      "Ġmodifications": 2159,
      "Ġsemipermeable": 2160,
      "colligative": 2161,
      "ythagorean": 2162,
      "!(": 2163,
      "!=": 2164,
      "!}{": 2165,
      "(-": 2166,
      "(\\": 2167,
      ")(": 2168,
      ")>": 2169,
      ")^(": 2170,
      "*(": 2171,
      "*<": 2172,
      "*[": 2173,
      "+:": 2174,
      "+]": 2175,
      ",[": 2176,
      "->": 2177,
      "/-": 2178,
      "/[": 2179,
      ">|": 2180,
      ">*<": 2181,
      "ATP": 2182,
      "ADH": 2183,
      "Bo": 2184,
      "Bayes": 2185,
      "Ca": 2186,
      "Conservation": 2187,
      "Dimensional": 2188,
      "En": 2189,
      "Euler": 2190,
      "FF": 2191,
      "Fd": 2192,
      "Fe": 2193,
      "Fourier": 2194,
      "GM": 2195,
      "Gm": 2196,
      "Gibbs": 2197,
      "He": 2198,
      "Hg": 2199,
      "Hess": 2200,
      "HCl": 2201,
      "Hardy": 2202,
      "IG": 2203,
      "IL": 2204,
      "KE": 2205,
      "KM": 2206,
      "Ka": 2207,
      "Km": 2208,
      "Le": 2209,
      "Lag": 2210,
      "Mm": 2211,
      "Ment": 2212,
      "Max": 2213,
      "NH": 2214,
      "Nern": 2215,
      "OIL": 2216,
      "PE": 2217,
      "PV": 2218,
      "SI": 2219,
      "SO": 2220,
      "Sto": 2221,
      "Tb": 2222,
      "The": 2223,
      "Tay": 2224,
      "Weinberg": 2225,
      "])": 2226,
      "]]": 2227,
      "]/(": 2228,
      "],[": 2229,
      "]/[": 2230,
      "^-": 2231,
      "aO": 2232,
      "aw": 2233,
      "ael": 2234,
      "action": 2235,
      "apl": 2236,
      "aper": 2237,
      "aci": 2238,
      "bc": 2239,
      "bl": 2240,
      "bu": 2241,
      "bx": 2242,
      "bic": 2243,
      "bri": 2244,
      "bst": 2245,
      "box": 2246,
      "bility": 2247,
      "bau": 2248,
      "beta": 2249,
      "body": 2250,
      "bayes": 2251,
      "cat": 2252,
      "car": 2253,
      "cers": 2254,
      "cant": 2255,
      "cad": 2256,
      "cape": 2257,
      "ched": 2258,
      "conservation": 2259,
      "dB": 2260,
      "dU": 2261,
      "dp": 2262,
      "dr": 2263,
      "dw": 2264,
      "dz": 2265,
      "der": 2266,
      "des": 2267,
      "dal": 2268,
      "dit": 2269,
      "del": 2270,
      "div": 2271,
      "deriv": 2272,
      "dens": 2273,
      "dox": 2274,
      "dization": 2275,
      "dependent": 2276,
      "differ": 2277,
      "dimensional": 2278,
      "eo": 2279,
      "eq": 2280,
      "eu": 2281,
      "ew": 2282,
      "ean": 2283,
      "ele": 2284,
      "eas": 2285,
      "ech": 2286,
      "ead": 2287,
      "every": 2288,
      "evolution": 2289,
      "epsilon": 2290,
      "eep": 2291,
      "euler": 2292,
      "fd": 2293,
      "fl": 2294,
      "fen": 2295,
      "fre": 2296,
      "fers": 2297,
      "fter": 2298,
      "fix": 2299,
      "fbau": 2300,
      "gin": 2301,
      "gum": 2302,
      "gam": 2303,
      "gli": 2304,
      "hf": 2305,
      "hm": 2306,
      "hr": 2307,
      "his": 2308,
      "hib": 2309,
      "hable": 2310,
      "horm": 2311,
      "home": 2312,
      "hbar": 2313,
      "hcl": 2314,
      "ie": 2315,
      "ien": 2316,
      "ire": 2317,
      "iot": 2318,
      "ience": 2319,
      "ities": 2320,
      "iwt": 2321,
      "ique": 2322,
      "iosmosis": 2323,
      "iometry": 2324,
      "ipp": 2325,
      "jor": 2326,
      "jac": 2327,
      "kB": 2328,
      "kg": 2329,
      "kin": 2330,
      "kes": 2331,
      "king": 2332,
      "kens": 2333,
      "kap": 2334,
      "lim": 2335,
      "lch": 2336,
      "lates": 2337,
      "line": 2338,
      "lies": 2339,
      "mV": 2340,
      "mes": 2341,
      "mation": 2342,
      "mgh": 2343,
      "mut": 2344,
      "magnetic": 2345,
      "mary": 2346,
      "moment": 2347,
      "multi": 2348,
      "motic": 2349,
      "mately": 2350,
      "mission": 2351,
      "molecular": 2352,
      "nF": 2353,
      "nO": 2354,
      "nh": 2355,
      "ns": 2356,
      "nu": 2357,
      "nergy": 2358,
      "nrt": 2359,
      "nry": 2360,
      "negative": 2361,
      "newt": 2362,
      "nolog": 2363,
      "nRT": 2364,
      "nullity": 2365,
      "neu": 2366,
      "oo": 2367,
      "op": 2368,
      "oti": 2369,
      "othe": 2370,
      "oul": 2371,
      "ood": 2372,
      "ogen": 2373,
      "oich": 2374,
      "opol": 2375,
      "ooth": 2376,
      "obi": 2377,
      "oelectric": 2378,
      "pH": 2379,
      "pa": 2380,
      "pe": 2381,
      "pm": 2382,
      "pq": 2383,
      "pv": 2384,
      "pal": 2385,
      "por": 2386,
      "pri": 2387,
      "ptic": 2388,
      "pair": 2389,
      "power": 2390,
      "pret": 2391,
      "pothe": 2392,
      "ru": 2393,
      "rit": 2394,
      "rum": 2395,
      "rons": 2396,
      "rine": 2397,
      "rna": 2398,
      "rms": 2399,
      "rations": 2400,
      "rhen": 2401,
      "son": 2402,
      "sin": 2403,
      "sem": 2404,
      "sur": 2405,
      "sch": 2406,
      "sig": 2407,
      "sine": 2408,
      "spr": 2409,
      "square": 2410,
      "sue": 2411,
      "sign": 2412,
      "sible": 2413,
      "sizes": 2414,
      "tri": 2415,
      "tul": 2416,
      "tet": 2417,
      "ters": 2418,
      "tons": 2419,
      "ture": 2420,
      "tral": 2421,
      "tropy": 2422,
      "test": 2423,
      "tef": 2424,
      "uis": 2425,
      "ust": 2426,
      "uits": 2427,
      "utivity": 2428,
      "uild": 2429,
      "ubility": 2430,
      "ufbau": 2431,
      "vt": 2432,
      "vir": 2433,
      "vals": 2434,
      "vergence": 2435,
      "vator": 2436,
      "ws": 2437,
      "way": 2438,
      "work": 2439,
      "xt": 2440,
      "xation": 2441,
      "xad": 2442,
      "xual": 2443,
      "xFF": 2444,
      "yrib": 2445,
      "yna": 2446,
      "year": 2447,
      "yram": 2448,
      "ze": 2449,
      "zing": 2450,
      "zero": 2451,
      "zeta": 2452,
      "{\\": 2453,
      "|<": 2454,
      "})": 2455,
      "},": 2456,
      "}\\": 2457,
      "Ġ:": 2458,
      "Ġ>": 2459,
      "Ġes": 2460,
      "Ġrough": 2461,
      "Ġulti": 2462,
      "ĠDNA": 2463,
      "Ġ|<": 2464,
      "Ġtes": 2465,
      "Ġtro": 2466,
      "Ġtis": 2467,
      "Ġtur": 2468,
      "Ġtell": 2469,
      "Ġtens": 2470,
      "Ġterm": 2471,
      "Ġtak": 2472,
      "Ġtau": 2473,
      "ĠtRNA": 2474,
      "Ġtear": 2475,
      "Ġtech": 2476,
      "Ġax": 2477,
      "Ġaero": 2478,
      "Ġaque": 2479,
      "Ġastr": 2480,
      "Ġaround": 2481,
      "Ġaverage": 2482,
      "Ġafter": 2483,
      "Ġaufbau": 2484,
      "onin": 2485,
      "ones": 2486,
      "onal": 2487,
      "onom": 2488,
      "onate": 2489,
      "onac": 2490,
      "onstr": 2491,
      "heat": 2492,
      "henot": 2493,
      "heaper": 2494,
      "iner": 2495,
      "ined": 2496,
      "initial": 2497,
      "independent": 2498,
      "inking": 2499,
      "tia": 2500,
      "tire": 2501,
      "tice": 2502,
      "tive": 2503,
      "tible": 2504,
      "times": 2505,
      "ering": 2506,
      "erical": 2507,
      "erver": 2508,
      "erase": 2509,
      "ertil": 2510,
      "ena": 2511,
      "enes": 2512,
      "enit": 2513,
      "enus": 2514,
      "ending": 2515,
      "enosine": 2516,
      "enew": 2517,
      "Ġcd": 2518,
      "Ġcod": 2519,
      "Ġcut": 2520,
      "Ġcry": 2521,
      "Ġcric": 2522,
      "Ġcath": 2523,
      "Ġcode": 2524,
      "Ġceas": 2525,
      "Ġcru": 2526,
      "Ġcheaper": 2527,
      "Ġsing": 2528,
      "Ġsun": 2529,
      "Ġsci": 2530,
      "Ġsine": 2531,
      "Ġside": 2532,
      "Ġslow": 2533,
      "Ġslo": 2534,
      "Ġsatur": 2535,
      "Ġsays": 2536,
      "Ġsym": 2537,
      "Ġsome": 2538,
      "Ġself": 2539,
      "Ġsize": 2540,
      "Ġsix": 2541,
      "Ġshel": 2542,
      "Ġsulf": 2543,
      "Ġsyna": 2544,
      "Ġoct": 2545,
      "Ġori": 2546,
      "Ġoce": 2547,
      "Ġopen": 2548,
      "Ġomega": 2549,
      "Ġohm": 2550,
      "Ġoptic": 2551,
      "Ġthems": 2552,
      "red": 2553,
      "ream": 2554,
      "react": 2555,
      "rema": 2556,
      "refore": 2557,
      "alan": 2558,
      "alized": 2559,
      "alpha": 2560,
      "alizing": 2561,
      "Ġpi": 2562,
      "Ġpv": 2563,
      "Ġpas": 2564,
      "Ġpers": 2565,
      "Ġpow": 2566,
      "Ġpull": 2567,
      "Ġphen": 2568,
      "Ġpend": 2569,
      "Ġpythagorean": 2570,
      "ĠpKa": 2571,
      "Ġpeo": 2572,
      "Ġppm": 2573,
      "Ġpyram": 2574,
      "Ġphenot": 2575,
      "room": 2576,
      "rodu": 2577,
      "roly": 2578,
      "rotrans": 2579,
      "rodes": 2580,
      "rogli": 2581,
      "tions": 2582,
      "ata": 2583,
      "atp": 2584,
      "atory": 2585,
      "ather": 2586,
      "ateli": 2587,
      "atoms": 2588,
      "atements": 2589,
      "attice": 2590,
      "ans": 2591,
      "anes": 2592,
      "anent": 2593,
      "anol": 2594,
      "anate": 2595,
      "ances": 2596,
      "Ġantic": 2597,
      "Ġances": 2598,
      "Ġanother": 2599,
      "Ġanode": 2600,
      "Ġfit": 2601,
      "Ġfas": 2602,
      "Ġfol": 2603,
      "Ġful": 2604,
      "Ġfur": 2605,
      "Ġfil": 2606,
      "Ġfine": 2607,
      "Ġfib": 2608,
      "Ġfeed": 2609,
      "Ġfall": 2610,
      "Ġfric": 2611,
      "Ġfast": 2612,
      "Ġfoss": 2613,
      "Ġfram": 2614,
      "Ġfission": 2615,
      "Ġfarad": 2616,
      "Ġfourier": 2617,
      "Ġfertil": 2618,
      "Ġmv": 2619,
      "Ġmut": 2620,
      "Ġmig": 2621,
      "Ġmain": 2622,
      "Ġmac": 2623,
      "Ġmach": 2624,
      "Ġmill": 2625,
      "Ġmak": 2626,
      "Ġmost": 2627,
      "Ġmagnetism": 2628,
      "isk": 2629,
      "ism": 2630,
      "isom": 2631,
      "ispr": 2632,
      "isely": 2633,
      "iscos": 2634,
      "ĠdE": 2635,
      "ĠdL": 2636,
      "ĠdV": 2637,
      "Ġdm": 2638,
      "Ġdr": 2639,
      "Ġdt": 2640,
      "Ġdv": 2641,
      "Ġdom": 2642,
      "Ġdem": 2643,
      "Ġdeg": 2644,
      "Ġderi": 2645,
      "Ġdog": 2646,
      "Ġdeloc": 2647,
      "Ġdynam": 2648,
      "Ġdimens": 2649,
      "Ġdimension": 2650,
      "Ġdonate": 2651,
      "Ġdenit": 2652,
      "Ġdata": 2653,
      "Ġinst": 2654,
      "Ġinver": 2655,
      "Ġinstant": 2656,
      "Ġinvers": 2657,
      "Ġinitial": 2658,
      "Ġinfl": 2659,
      "ĠeV": 2660,
      "Ġeth": 2661,
      "Ġevol": 2662,
      "Ġeffic": 2663,
      "Ġemits": 2664,
      "Ġearth": 2665,
      "Ġefficiently": 2666,
      "Ġedit": 2667,
      "Ġemission": 2668,
      "ited": 2669,
      "ither": 2670,
      "Ġbx": 2671,
      "Ġbent": 2672,
      "Ġbra": 2673,
      "Ġbran": 2674,
      "Ġball": 2675,
      "Ġbases": 2676,
      "Ġbound": 2677,
      "Ġbombs": 2678,
      "Ġbuild": 2679,
      "Ġbending": 2680,
      "Ġbalan": 2681,
      "icular": 2682,
      "icine": 2683,
      "iconserv": 2684,
      "ores": 2685,
      "orent": 2686,
      "orine": 2687,
      "organ": 2688,
      "orted": 2689,
      "orie": 2690,
      "ortest": 2691,
      "aride": 2692,
      "arming": 2693,
      "arithm": 2694,
      "ctly": 2695,
      "ctose": 2696,
      "ings": 2697,
      "inguis": 2698,
      "Ġwas": 2699,
      "Ġwall": 2700,
      "Ġweinberg": 2701,
      "ationals": 2702,
      "ationary": 2703,
      "elves": 2704,
      "elvin": 2705,
      "quantum": 2706,
      "Ġtokens": 2707,
      "eds": 2708,
      "edean": 2709,
      "enting": 2710,
      "Ġnor": 2711,
      "Ġnons": 2712,
      "Ġneed": 2713,
      "Ġnerv": 2714,
      "Ġnorm": 2715,
      "Ġnature": 2716,
      "ĠnRT": 2717,
      "Ġnullity": 2718,
      "omer": 2719,
      "omega": 2720,
      "omena": 2721,
      "Ġreve": 2722,
      "Ġrepress": 2723,
      "Ġrevolution": 2724,
      "Ġrecom": 2725,
      "Ġreplic": 2726,
      "Ġregener": 2727,
      "Ġrepolarization": 2728,
      "Ġreceding": 2729,
      "Ġreference": 2730,
      "Ġredox": 2731,
      "Ġrefers": 2732,
      "Ġrepair": 2733,
      "asis": 2734,
      "theta": 2735,
      "Ġthir": 2736,
      "Ġthous": 2737,
      "Ġthose": 2738,
      "Ġthough": 2739,
      "oles": 2740,
      "oline": 2741,
      "olving": 2742,
      "Ġglan": 2743,
      "Ġgive": 2744,
      "Ġgold": 2745,
      "Ġgood": 2746,
      "ume": 2747,
      "umps": 2748,
      "umference": 2749,
      "umns": 2750,
      "Ġln": 2751,
      "Ġlig": 2752,
      "Ġlist": 2753,
      "Ġlower": 2754,
      "Ġlinking": 2755,
      "Ġlattice": 2756,
      "rial": 2757,
      "univers": 2758,
      "untably": 2759,
      "osac": 2760,
      "osym": 2761,
      "osome": 2762,
      "osystems": 2763,
      "cept": 2764,
      "ceeds": 2765,
      "sts": 2766,
      "stem": 2767,
      "strom": 2768,
      "stein": 2769,
      "standard": 2770,
      "standing": 2771,
      "stoich": 2772,
      "stream": 2773,
      "strial": 2774,
      "ulum": 2775,
      "ultaneous": 2776,
      "ulombs": 2777,
      "Ġproceeds": 2778,
      "Ġhot": 2779,
      "Ġhab": 2780,
      "Ġhist": 2781,
      "Ġhost": 2782,
      "Ġhold": 2783,
      "Ġhardy": 2784,
      "Ġharming": 2785,
      "Ġholes": 2786,
      "Ġcondu": 2787,
      "Ġconvers": 2788,
      "Ġconstra": 2789,
      "Ġcondens": 2790,
      "uses": 2791,
      "ustion": 2792,
      "usion": 2793,
      "Ġenerg": 2794,
      "Ġencod": 2795,
      "Ġenough": 2796,
      "Ġensur": 2797,
      "Ġentire": 2798,
      "ety": 2799,
      "eter": 2800,
      "etes": 2801,
      "ids": 2802,
      "idal": 2803,
      "iding": 2804,
      "idence": 2805,
      "idual": 2806,
      "imizing": 2807,
      "imedean": 2808,
      "Ġstay": 2809,
      "Ġstable": 2810,
      "Ġstays": 2811,
      "Ġstret": 2812,
      "Ġstanding": 2813,
      "Ġstatements": 2814,
      "Ġstores": 2815,
      "Ġstationary": 2816,
      "Ġrang": 2817,
      "Ġrap": 2818,
      "Ġrays": 2819,
      "Ġrho": 2820,
      "Ġrise": 2821,
      "Ġraw": 2822,
      "Ġrust": 2823,
      "Ġrenew": 2824,
      "Ġrather": 2825,
      "Ġrisk": 2826,
      "Ġrationals": 2827,
      "Ġequipp": 2828,
      "emann": 2829,
      "ematic": 2830,
      "ives": 2831,
      "ural": 2832,
      "uric": 2833,
      "ersity": 2834,
      "Ġspect": 2835,
      "Ġspring": 2836,
      "chi": 2837,
      "chy": 2838,
      "chang": 2839,
      "chlor": 2840,
      "chloro": 2841,
      "charide": 2842,
      "chimedean": 2843,
      "otonin": 2844,
      "Ġorders": 2845,
      "Ġorder": 2846,
      "odons": 2847,
      "utes": 2848,
      "Ġinterm": 2849,
      "Ġintrodu": 2850,
      "ilog": 2851,
      "ilience": 2852,
      "romosomes": 2853,
      "romagnetism": 2854,
      "Ġviscos": 2855,
      "Ġchlor": 2856,
      "Ġchateli": 2857,
      "Ġchromosomes": 2858,
      "Ġbyproduct": 2859,
      "ame": 2860,
      "ample": 2861,
      "amine": 2862,
      "ammation": 2863,
      "ameter": 2864,
      "Ġareas": 2865,
      "etics": 2866,
      "Ġaccept": 2867,
      "anganate": 2868,
      "Ġelectrost": 2869,
      "Ġelectrochemical": 2870,
      "Ġelectrodes": 2871,
      "Ġelectromagnetism": 2872,
      "elles": 2873,
      "ecimal": 2874,
      "ecosystems": 2875,
      "pler": 2876,
      "plate": 2877,
      "plest": 2878,
      "antly": 2879,
      "Ġmood": 2880,
      "Ġmoves": 2881,
      "pere": 2882,
      "perpos": 2883,
      "permit": 2884,
      "Ġwithin": 2885,
      "ray": 2886,
      "raph": 2887,
      "rahed": 2888,
      "tage": 2889,
      "tayl": 2890,
      "Ġkrebs": 2891,
      "Ġkeep": 2892,
      "Ġkelvin": 2893,
      "Ġkilog": 2894,
      "Ġonce": 2895,
      "Ġcomput": 2896,
      "Ġcompress": 2897,
      "Ġcompon": 2898,
      "ffusion": 2899,
      "ionic": 2900,
      "Ġexits": 2901,
      "Ġexist": 2902,
      "Ġexists": 2903,
      "Ġexcit": 2904,
      "Ġexhib": 2905,
      "Ġexchang": 2906,
      "Ġexample": 2907,
      "ystal": 2908,
      "entiated": 2909,
      "entists": 2910,
      "agonal": 2911,
      "lying": 2912,
      "Ġreads": 2913,
      "Ġreactor": 2914,
      "Ġreached": 2915,
      "ribosomes": 2916,
      "ecting": 2917,
      "ected": 2918,
      "Ġassem": 2919,
      "istinguis": 2920,
      "Ġdipro": 2921,
      "Ġdiameter": 2922,
      "Ġdiffusion": 2923,
      "Ġdiagonal": 2924,
      "Ġ(\\": 2925,
      "Ġlighter": 2926,
      "Ġchanging": 2927,
      "prod": 2928,
      "proves": 2929,
      "probability": 2930,
      "plex": 2931,
      "erials": 2932,
      "Ġnumerical": 2933,
      "Ġlac": 2934,
      "Ġlactose": 2935,
      "cial": 2936,
      "cium": 2937,
      "ralize": 2938,
      "tervals": 2939,
      "addition": 2940,
      "gene": 2941,
      "genetic": 2942,
      "vered": 2943,
      "ĠCl": 2944,
      "ĠCau": 2945,
      "ĠChat": 2946,
      "ĠCaO": 2947,
      "ĠFarad": 2948,
      "ĠFADH": 2949,
      "Ġunif": 2950,
      "Ġunco": 2951,
      "Ġunli": 2952,
      "Ġuntil": 2953,
      "Ġunique": 2954,
      "ineering": 2955,
      "Ġsystematic": 2956,
      "Ġmathematic": 2957,
      "Ġmaterials": 2958,
      "Ġwhose": 2959,
      "Ġwhite": 2960,
      "Ġwhole": 2961,
      "assium": 2962,
      "Ġthroughout": 2963,
      "Ġproduction": 2964,
      "Ġproducing": 2965,
      "Ġproducers": 2966,
      "nacl": 2967,
      "Ġcandel": 2968,
      "Ġchemiosmosis": 2969,
      "thermodynam": 2970,
      "izers": 2971,
      "ynes": 2972,
      "Ġtransition": 2973,
      "Ġtransduction": 2974,
      "Ġtransmit": 2975,
      "Ġtransfor": 2976,
      "Ġtranscription": 2977,
      "Ġtransmits": 2978,
      "Ġtranslates": 2979,
      "Ġtranspor": 2980,
      "Ġbefore": 2981,
      "Ġway": 2982,
      "Ġresist": 2983,
      "Ġrests": 2984,
      "Ġresilience": 2985,
      "bsequ": 2986,
      "Ġheated": 2987,
      "Ġheli": 2988,
      "Ġheisenberg": 2989,
      "Ġhenry": 2990,
      "Ġherit": 2991,
      "Ġhexad": 2992,
      "Ġphi": 2993,
      "Ġphosph": 2994,
      "Ġdevel": 2995,
      "Ġdeform": 2996,
      "Ġdeox": 2997,
      "Ġdepress": 2998,
      "Ġdepolarization": 2999,
      "Ġdefen": 3000,
      "Ġbeta": 3001,
      "Ġbetter": 3002,
      "phi": 3003,
      "phic": 3004,
      "phyl": 3005,
      "phosph": 3006,
      "ainst": 3007,
      "Ġ+/-": 3008,
      "Ġsea": 3009,
      "Ġsexual": 3010,
      "quency": 3011,
      "Ġstring": 3012,
      "entially": 3013,
      "Ġdescent": 3014,
      "Ġfunctional": 3015,
      "acting": 3016,
      "ograph": 3017,
      "volt": 3018,
      "volume": 3019,
      "ĠNa": 3020,
      "ĠNm": 3021,
      "ĠNkT": 3022,
      "Ġusable": 3023,
      "Ġusef": 3024,
      "Ġapplies": 3025,
      "Ġcarbox": 3026,
      "allic": 3027,
      "Ġparts": 3028,
      "Ġfixation": 3029,
      "ichael": 3030,
      "Ġdescribing": 3031,
      "acy": 3032,
      "acobi": 3033,
      "acids": 3034,
      "aching": 3035,
      "einstein": 3036,
      "ochemical": 3037,
      "ocrine": 3038,
      "pses": 3039,
      "vely": 3040,
      "Ġsubin": 3041,
      "Ġsupp": 3042,
      "Ġsufficiently": 3043,
      "Ġsubst": 3044,
      "Ġsuited": 3045,
      "Ġsuperpos": 3046,
      "Ġsubsequ": 3047,
      "Ġplay": 3048,
      "Ġplane": 3049,
      "Ġplants": 3050,
      "Ġmeter": 3051,
      "Ġmetals": 3052,
      "Ġmethy": 3053,
      "Ġmasses": 3054,
      "orylation": 3055,
      "Ġnucleon": 3056,
      "Ġgenetics": 3057,
      "Ġgenetically": 3058,
      "meate": 3059,
      "Ġquoti": 3060,
      "aneous": 3061,
      "Ġproton": 3062,
      "Ġprocessing": 3063,
      "Ġhypot": 3064,
      "Ġhypothe": 3065,
      "Ġorganic": 3066,
      "Ġorganized": 3067,
      "Ġorganizes": 3068,
      "Ġorganelles": 3069,
      "drogen": 3070,
      "Ġsolid": 3071,
      "Ġsolubility": 3072,
      "Ġnear": 3073,
      "Ġnever": 3074,
      "Ġnewt": 3075,
      "Ġnext": 3076,
      "Ġneither": 3077,
      "Ġspeeds": 3078,
      "Ġrespond": 3079,
      "electromagnetic": 3080,
      "electrochemical": 3081,
      "electroly": 3082,
      "Ġzeta": 3083,
      "Ġtemplate": 3084,
      "Ġadap": 3085,
      "Ġadenosine": 3086,
      "Ġclose": 3087,
      "Ġcalvin": 3088,
      "Ġcalled": 3089,
      "Ġcalorie": 3090,
      "Ġcalcium": 3091,
      "Ġshoul": 3092,
      "Ġshortest": 3093,
      "Ġsmooth": 3094,
      "Ġdivisible": 3095,
      "Ġdiversity": 3096,
      "Ġdecimal": 3097,
      "Ġderived": 3098,
      "Ġelevator": 3099,
      "Ġrelate": 3100,
      "Ġrelative": 3101,
      "Ġformed": 3102,
      "Ġapproaching": 3103,
      "Ġhydrocar": 3104,
      "Ġhydrochlor": 3105,
      "Ġseconds": 3106,
      "ĠPV": 3107,
      "ĠPlanck": 3108,
      "ĠPythagorean": 3109,
      "ĠThis": 3110,
      "Ġ[[": 3111,
      "Ġimproves": 3112,
      "Ġundiffer": 3113,
      "Ġamong": 3114,
      "Ġampere": 3115,
      "Ġsumming": 3116,
      "Ġprevi": 3117,
      "Ġpreceding": 3118,
      "Ġprefix": 3119,
      "Ġpostul": 3120,
      "Ġpotassium": 3121,
      "Ġdistances": 3122,
      "Ġnotations": 3123,
      "Ġregions": 3124,
      "Ġorbits": 3125,
      "Ġvolt": 3126,
      "Ġvoltage": 3127,
      "Ġkinases": 3128,
      "Ġkinematic": 3129,
      "Ġelectronegative": 3130,
      "Ġelectronvolt": 3131,
      "Ġprincipal": 3132,
      "Ġsmallest": 3133,
      "lowing": 3134,
      "oule": 3135,
      "oxygen": 3136,
      "tylch": 3137,
      "taneity": 3138,
      "ĠEarth": 3139,
      "ĠEnergy": 3140,
      "ĠJacobi": 3141,
      "Ġtrials": 3142,
      "Ġtriphosph": 3143,
      "Ġacting": 3144,
      "Ġacted": 3145,
      "Ġcold": 3146,
      "Ġcolors": 3147,
      "Ġcolored": 3148,
      "Ġcolumns": 3149,
      "Ġsignal": 3150,
      "Ġsignific": 3151,
      "Ġmultiple": 3152,
      "Ġmultipli": 3153,
      "Ġmultiplied": 3154,
      "Ġdisco": 3155,
      "Ġdissoci": 3156,
      "Ġdisorder": 3157,
      "Ġgraph": 3158,
      "Ġvariety": 3159,
      "Ġlikely": 3160,
      "Ġorganism": 3161,
      "Ġunderlies": 3162,
      "Ġunderstanding": 3163,
      "Ġunderlying": 3164,
      "bination": 3165,
      "binom": 3166,
      "binary": 3167,
      "coval": 3168,
      "coulombs": 3169,
      "centration": 3170,
      "pontaneous": 3171,
      "ĠAU": 3172,
      "ĠAv": 3173,
      "ĠAverage": 3174,
      "ĠKE": 3175,
      "ĠKb": 3176,
      "ĠKrebs": 3177,
      "ĠKeq": 3178,
      "Ġlead": 3179,
      "Ġlevel": 3180,
      "Ġenters": 3181,
      "Ġarise": 3182,
      "Ġarithm": 3183,
      "Ġargum": 3184,
      "Ġarrhen": 3185,
      "Ġarray": 3186,
      "Ġoxide": 3187,
      "Ġoxidation": 3188,
      "Ġperpend": 3189,
      "Ġpermeate": 3190,
      "Ġangstrom": 3191,
      "Ġindistinguis": 3192,
      "Ġcontaining": 3193,
      "Ġspecies": 3194,
      "Ġcomplementary": 3195,
      "igenetics": 3196,
      "Ġdirections": 3197,
      "Ġdirectly": 3198,
      "Ġfreezing": 3199,
      "Ġphoton": 3200,
      "Ġphotoelectric": 3201,
      "Ġcarbonate": 3202,
      "Ġadditi": 3203,
      "Ġkinetics": 3204,
      "Ġoccurring": 3205,
      "final": 3206,
      "mitochondria": 3207,
      "mitters": 3208,
      "polym": 3209,
      "vior": 3210,
      "vive": 3211,
      "vities": 3212,
      "valence": 3213,
      "ĠRe": 3214,
      "ĠRNA": 3215,
      "ĠRIG": 3216,
      "ĠSo": 3217,
      "ĠStef": 3218,
      "ĠSolving": 3219,
      "Ġtrace": 3220,
      "Ġtravels": 3221,
      "Ġsets": 3222,
      "Ġscaling": 3223,
      "Ġovercom": 3224,
      "Ġobserver": 3225,
      "Ġpolym": 3226,
      "Ġmodel": 3227,
      "Ġmodern": 3228,
      "Ġbiosphere": 3229,
      "Ġbiodiversity": 3230,
      "Ġbiochemical": 3231,
      "Ġworking": 3232,
      "Ġlengths": 3233,
      "Ġconcentrations": 3234,
      "Ġspontaneity": 3235,
      "Ġgenerations": 3236,
      "Ġgenerated": 3237,
      "Ġgenerally": 3238,
      "Ġgeneralizing": 3239,
      "Ġstronger": 3240,
      "Ġstructural": 3241,
      "Ġaccelerated": 3242,
      "Ġapproximates": 3243,
      "Ġdistributivity": 3244,
      "Ġdistributes": 3245,
      "Ġdetermined": 3246,
      "^(-": 3247,
      "atics": 3248,
      "auss": 3249,
      "modular": 3250,
      "transition": 3251,
      "translation": 3252,
      "ymes": 3253,
      "ĠHz": 3254,
      "ĠHoo": 3255,
      "Ġroles": 3256,
      "Ġrows": 3257,
      "Ġvectors": 3258,
      "Ġsurvive": 3259,
      "Ġouter": 3260,
      "Ġoutside": 3261,
      "Ġoperator": 3262,
      "Ġmaps": 3263,
      "Ġmajor": 3264,
      "Ġmemory": 3265,
      "Ġdrives": 3266,
      "Ġbinds": 3267,
      "Ġbinding": 3268,
      "Ġnitrification": 3269,
      "Ġgluing": 3270,
      "ospheric": 3271,
      "Ġhijac": 3272,
      "Ġatmospheric": 3273,
      "Ġinternal": 3274,
      "Ġinterpret": 3275,
      "Ġinteracting": 3276,
      "Ġexpressed": 3277,
      "Ġallows": 3278,
      "Ġpresent": 3279,
      "Ġpreserved": 3280,
      "Ġtransformed": 3281,
      "Ġsequentially": 3282,
      "Ġresponsible": 3283,
      "Ġcalculate": 3284,
      "Ġdirectional": 3285,
      "Ġrepresenting": 3286,
      "))/": 3287,
      "))]": 3288,
      "COOH": 3289,
      "biodiversity": 3290,
      "cells": 3291,
      "equilibrium": 3292,
      "molar": 3293,
      "ylic": 3294,
      "ypic": 3295,
      "ĠGTP": 3296,
      "ĠGMm": 3297,
      "ĠGauss": 3298,
      "ĠMichael": 3299,
      "ĠVmax": 3300,
      "ĠWith": 3301,
      "Ġyear": 3302,
      "Ġtend": 3303,
      "Ġtends": 3304,
      "Ġosmotic": 3305,
      "alyze": 3306,
      "Ġpathways": 3307,
      "Ġpathogen": 3308,
      "Ġpathway": 3309,
      "rostate": 3310,
      "Ġminimizing": 3311,
      "Ġdoes": 3312,
      "Ġevent": 3313,
      "Ġevidence": 3314,
      "Ġeigenvalue": 3315,
      "Ġeigenvalues": 3316,
      "Ġbecomes": 3317,
      "Ġbecame": 3318,
      "elier": 3319,
      "Ġnoncod": 3320,
      "Ġnonbonding": 3321,
      "Ġremains": 3322,
      "Ġremaining": 3323,
      "Ġremainders": 3324,
      "Ġgeosphere": 3325,
      "Ġgeometric": 3326,
      "Ġalkane": 3327,
      "Ġalkenes": 3328,
      "Ġalkanes": 3329,
      "Ġalkynes": 3330,
      "Ġalterations": 3331,
      "Ġchains": 3332,
      "Ġcharged": 3333,
      "Ġresting": 3334,
      "ĠNADH": 3335,
      "Ġcounted": 3336,
      "Ġcountably": 3337,
      "Ġcarriers": 3338,
      "electrons": 3339,
      "Ġdividing": 3340,
      "Ġdecomposers": 3341,
      "Ġdecomposition": 3342,
      "Ġregulation": 3343,
      "Ġregulatory": 3344,
      "Ġtriangles": 3345,
      "Ġcomplexes": 3346,
      "Ġmembranes": 3347,
      "Ġhighly": 3348,
      "Archimedean": 3349,
      "avogad": 3350,
      "complex": 3351,
      "exp": 3352,
      "exists": 3353,
      "exothermic": 3354,
      "force": 3355,
      "forall": 3356,
      "gonal": 3357,
      "gravity": 3358,
      "gradient": 3359,
      "gravitation": 3360,
      "hybri": 3361,
      "hydrogen": 3362,
      "ptors": 3363,
      "ptograph": 3364,
      "range": 3365,
      "ĠLapl": 3366,
      "ĠLorent": 3367,
      "Ġriemann": 3368,
      "Ġessence": 3369,
      "Ġribosomes": 3370,
      "Ġribonucleic": 3371,
      "Ġribosome": 3372,
      "Ġtypes": 3373,
      "Ġabout": 3374,
      "Ġability": 3375,
      "Ġabstra": 3376,
      "enzymes": 3377,
      "Ġcatalyze": 3378,
      "Ġcircle": 3379,
      "Ġsemiconserv": 3380,
      "alysts": 3381,
      "antibiotic": 3382,
      "Ġfiner": 3383,
      "Ġfinding": 3384,
      "Ġfinance": 3385,
      "Ġflux": 3386,
      "Ġfluid": 3387,
      "Ġfluorine": 3388,
      "Ġmonopol": 3389,
      "Ġmonomer": 3390,
      "Ġmonosac": 3391,
      "Ġmicro": 3392,
      "Ġmedicine": 3393,
      "Ġbillions": 3394,
      "Ġrequire": 3395,
      "Ġreceive": 3396,
      "Ġreceives": 3397,
      "Ġreceptors": 3398,
      "ostasis": 3399,
      "Ġconnecting": 3400,
      "Ġendothermic": 3401,
      "Ġendosym": 3402,
      "Ġendocrine": 3403,
      "Ġstars": 3404,
      "Ġstarts": 3405,
      "Ġstarting": 3406,
      "Ġstatistic": 3407,
      "Ġvastly": 3408,
      "permeability": 3409,
      "Ġcomposite": 3410,
      "Ġcombining": 3411,
      "Ġexponentiation": 3412,
      "Ġassociative": 3413,
      "Ġintegrable": 3414,
      "Ġtransferred": 3415,
      "Ġdefined": 3416,
      "Ġdefinition": 3417,
      "Ġdefinite": 3418,
      "Ġprecisely": 3419,
      "Ġpredict": 3420,
      "Ġpredicts": 3421,
      "Ġpredictions": 3422,
      "Ġpropagate": 3423,
      "Ġmeasured": 3424,
      "Ġmeasurement": 3425,
      "Ġinclude": 3426,
      "Ġincludes": 3427,
      "Ġincluded": 3428,
      "Ġscalars": 3429,
      "Ġobservable": 3430,
      "Ġbiology": 3431,
      "Ġroots": 3432,
      "Ġreleased": 3433,
      "Ġoscillation": 3434,
      "ochondrial": 3435,
      "Ġcontrols": 3436,
      ")!)": 3437,
      ")!}": 3438,
      "III": 3439,
      "NaOH": 3440,
      "NaCl": 3441,
      "Schwarz": 3442,
      "Schrodinger": 3443,
      "crispr": 3444,
      "crystal": 3445,
      "convergence": 3446,
      "concentration": 3447,
      "citric": 3448,
      "epigenetics": 3449,
      "eigenvalue": 3450,
      "eigenvalues": 3451,
      "logarithm": 3452,
      "matrix": 3453,
      "mathematic": 3454,
      "metry": 3455,
      "metallic": 3456,
      "potential": 3457,
      "wells": 3458,
      "Ġ<=": 3459,
      "ĠBrogli": 3460,
      "ĠOmega": 3461,
      "Ġjumps": 3462,
      "Ġjoule": 3463,
      "Ġtested": 3464,
      "Ġagent": 3465,
      "Ġagainst": 3466,
      "Ġacetic": 3467,
      "Ġacetylch": 3468,
      "Ġaffect": 3469,
      "Ġaffects": 3470,
      "helium": 3471,
      "Ġcascad": 3472,
      "Ġcapable": 3473,
      "Ġcapture": 3474,
      "Ġserves": 3475,
      "Ġserotonin": 3476,
      "Ġsimultaneous": 3477,
      "Ġsimplest": 3478,
      "Ġsynthetic": 3479,
      "Ġsynthesizes": 3480,
      "Ġprior": 3481,
      "Ġprimary": 3482,
      "Ġpasses": 3483,
      "Ġpassing": 3484,
      "Ġpermanent": 3485,
      "Ġpermanganate": 3486,
      "Ġantibonding": 3487,
      "Ġantibody": 3488,
      "Ġfactors": 3489,
      "Ġfilling": 3490,
      "Ġfuels": 3491,
      "ĠmmHg": 3492,
      "Ġmitochondria": 3493,
      "Ġmitochondrial": 3494,
      "Ġoffspr": 3495,
      "Ġinner": 3496,
      "Ġinnate": 3497,
      "Ġinertial": 3498,
      "Ġinertia": 3499,
      "Ġinduces": 3500,
      "Ġindustrial": 3501,
      "Ġevolutionary": 3502,
      "Ġecosystem": 3503,
      "Ġecosystems": 3504,
      "Ġwatt": 3505,
      "Ġwatson": 3506,
      "Ġrectangular": 3507,
      "Ġrectangles": 3508,
      "Ġgamma": 3509,
      "Ġgametes": 3510,
      "Ġlowest": 3511,
      "Ġlocation": 3512,
      "Ġlocally": 3513,
      "ulfed": 3514,
      "Ġprovide": 3515,
      "Ġproviding": 3516,
      "Ġproposes": 3517,
      "Ġproposed": 3518,
      "Ġengineering": 3519,
      "Ġengulfed": 3520,
      "Ġstrand": 3521,
      "Ġstrands": 3522,
      "Ġsplit": 3523,
      "Ġsplits": 3524,
      "Ġchloroplasts": 3525,
      "Ġchlorophyl": 3526,
      "Ġactivation": 3527,
      "Ġactivities": 3528,
      "Ġcombine": 3529,
      "Ġcombustion": 3530,
      "Ġexpands": 3531,
      "Ġexpected": 3532,
      "Ġextend": 3533,
      "Ġextrema": 3534,
      "proteins": 3535,
      "products": 3536,
      "general": 3537,
      "Ġuniverse": 3538,
      "Ġuniversal": 3539,
      "Ġbehaves": 3540,
      "Ġbehavior": 3541,
      "Ġdeviation": 3542,
      "Ġdeviations": 3543,
      "Ġseparate": 3544,
      "Ġseparating": 3545,
      "Ġpartially": 3546,
      "Ġpartitions": 3547,
      "Ġconsumed": 3548,
      "Ġconsumers": 3549,
      "Ġconsidered": 3550,
      "Ġplanets": 3551,
      "Ġplanetary": 3552,
      "Ġmethod": 3553,
      "Ġmethane": 3554,
      "Ġmetabolize": 3555,
      "Ġmetabolism": 3556,
      "integral": 3557,
      "integration": 3558,
      "Ġneutrons": 3559,
      "Ġneutralize": 3560,
      "Ġclassic": 3561,
      "Ġclassical": 3562,
      "Ġshows": 3563,
      "Ġshowing": 3564,
      "Ġshared": 3565,
      "Ġshift": 3566,
      "Ġshifts": 3567,
      "Ġaccurate": 3568,
      "Ġaccuracy": 3569,
      "Ġhydroxide": 3570,
      "Ġhydroxyl": 3571,
      "maxwells": 3572,
      "ĠTherefore": 3573,
      "Ġimposed": 3574,
      "Ġimpossible": 3575,
      "Ġamount": 3576,
      "Ġamounts": 3577,
      "Ġpositive": 3578,
      "Ġpositively": 3579,
      "Ġtrigonal": 3580,
      "Ġtrigonometric": 3581,
      "Ġmultiplicity": 3582,
      "Ġmultiplicative": 3583,
      "Ġgravitational": 3584,
      "Ġcurrent": 3585,
      "Ġcurrents": 3586,
      "Ġoxidative": 3587,
      "Ġoxidizing": 3588,
      "Ġindicates": 3589,
      "Ġindicate": 3590,
      "Ġindivisible": 3591,
      "Ġindividual": 3592,
      "Ġindependently": 3593,
      "Ġcomplete": 3594,
      "Ġcompletely": 3595,
      "ĠSchwarz": 3596,
      "ĠSchrodinger": 3597,
      "Ġmodify": 3598,
      "Ġmodification": 3599,
      "Ġcommonly": 3600,
      "Ġcommunication": 3601,
      "Ġcommunities": 3602,
      "Ġsurrounded": 3603,
      "Ġsurroundings": 3604,
      "Ġmaximum": 3605,
      "Ġmaximized": 3606,
      "Ġdopamine": 3607,
      "Ġdoppler": 3608,
      "Ġeigenvectors": 3609,
      "Ġcatalysts": 3610,
      "Ġcircuits": 3611,
      "Ġcircumference": 3612,
      "Ġupdates": 3613,
      "Ġupdate": 3614,
      "Ġerrors": 3615,
      "Ġtargeted": 3616,
      "Ġabsorb": 3617,
      "Ġabsorbs": 3618,
      "Ġbloodstream": 3619,
      "Ġtopology": 3620,
      "Ġtopological": 3621,
      "Ġrandomness": 3622,
      "Ġalcohols": 3623,
      ">|^": 3624,
      "Bohr": 3625,
      "CaCO": 3626,
      "Entropy": 3627,
      "Heisenberg": 3628,
      "KMnO": 3629,
      "Lagrange": 3630,
      "Menten": 3631,
      "Maxwell": 3632,
      "Nernst": 3633,
      "Stokes": 3634,
      "Taylor": 3635,
      "acian": 3636,
      "bling": 3637,
      "buffer": 3638,
      "catalysts": 3639,
      "cantors": 3640,
      "daltons": 3641,
      "divergence": 3642,
      "derived": 3643,
      "differential": 3644,
      "elementary": 3645,
      "frequency": 3646,
      "ginal": 3647,
      "gamma": 3648,
      "hormones": 3649,
      "homeostasis": 3650,
      "iency": 3651,
      "iota": 3652,
      "kinetic": 3653,
      "kappa": 3654,
      "linear": 3655,
      "mutations": 3656,
      "momentum": 3657,
      "multiplication": 3658,
      "newtons": 3659,
      "nology": 3660,
      "neurotrans": 3661,
      "opment": 3662,
      "prime": 3663,
      "schild": 3664,
      "sigma": 3665,
      "squared": 3666,
      "signal": 3667,
      "trigonal": 3668,
      "tetrahed": 3669,
      "viruses": 3670,
      "yribonucleic": 3671,
      "Ġescape": 3672,
      "Ġroughly": 3673,
      "Ġultimately": 3674,
      "Ġtesla": 3675,
      "Ġtrophic": 3676,
      "Ġtissue": 3677,
      "Ġturn": 3678,
      "Ġtension": 3679,
      "Ġtaken": 3680,
      "Ġtearing": 3681,
      "Ġtechnology": 3682,
      "Ġaerobic": 3683,
      "Ġaqueous": 3684,
      "Ġastronom": 3685,
      "onacci": 3686,
      "onstrating": 3687,
      "inery": 3688,
      "enuse": 3689,
      "Ġcoding": 3690,
      "Ġcryptograph": 3691,
      "Ġcrick": 3692,
      "Ġcathode": 3693,
      "Ġceased": 3694,
      "Ġcrucial": 3695,
      "Ġsingle": 3696,
      "Ġsunlight": 3697,
      "Ġscientists": 3698,
      "Ġslower": 3699,
      "Ġslope": 3700,
      "Ġsaturated": 3701,
      "Ġsymmetry": 3702,
      "Ġshell": 3703,
      "Ġsulfuric": 3704,
      "Ġsynapses": 3705,
      "Ġoctal": 3706,
      "Ġoriginal": 3707,
      "Ġoceans": 3708,
      "Ġoptics": 3709,
      "Ġthemselves": 3710,
      "reactants": 3711,
      "Ġpascal": 3712,
      "Ġperson": 3713,
      "Ġpowers": 3714,
      "Ġpulls": 3715,
      "Ġphenomena": 3716,
      "Ġpendulum": 3717,
      "Ġpeople": 3718,
      "Ġpyramidal": 3719,
      "Ġphenotypic": 3720,
      "Ġanticodons": 3721,
      "Ġancestral": 3722,
      "Ġfaster": 3723,
      "Ġfollowing": 3724,
      "Ġfully": 3725,
      "Ġfurther": 3726,
      "Ġfilled": 3727,
      "Ġfibonacci": 3728,
      "Ġfalling": 3729,
      "Ġfriction": 3730,
      "Ġfossil": 3731,
      "Ġframes": 3732,
      "Ġfertilizers": 3733,
      "Ġmutation": 3734,
      "Ġmigration": 3735,
      "Ġmaintain": 3736,
      "Ġmacrostate": 3737,
      "Ġmachinery": 3738,
      "Ġmillion": 3739,
      "Ġmaking": 3740,
      "isomers": 3741,
      "Ġdomain": 3742,
      "Ġdemonstrating": 3743,
      "Ġdegree": 3744,
      "Ġderive": 3745,
      "Ġdogma": 3746,
      "Ġdelocalized": 3747,
      "Ġdynamical": 3748,
      "Ġdimensions": 3749,
      "Ġdimensionless": 3750,
      "Ġdenitrification": 3751,
      "Ġinstead": 3752,
      "Ġinvertible": 3753,
      "Ġinstantaneous": 3754,
      "Ġinversely": 3755,
      "Ġinflammation": 3756,
      "Ġethanol": 3757,
      "Ġevolves": 3758,
      "Ġefficiency": 3759,
      "Ġediting": 3760,
      "Ġbrain": 3761,
      "Ġbranching": 3762,
      "Ġbounds": 3763,
      "Ġbalanced": 3764,
      "organic": 3765,
      "Ġnonspontaneous": 3766,
      "Ġneeded": 3767,
      "Ġnervous": 3768,
      "Ġnormal": 3769,
      "Ġreveals": 3770,
      "Ġrepresses": 3771,
      "Ġrevolutionized": 3772,
      "Ġrecombination": 3773,
      "Ġreplicate": 3774,
      "Ġregenerative": 3775,
      "Ġthird": 3776,
      "Ġthousand": 3777,
      "Ġglands": 3778,
      "Ġgolden": 3779,
      "Ġgoodness": 3780,
      "Ġligands": 3781,
      "universe": 3782,
      "stoichiometry": 3783,
      "Ġhaber": 3784,
      "Ġhistone": 3785,
      "Ġconductor": 3786,
      "Ġconversion": 3787,
      "Ġconstrained": 3788,
      "Ġcondensation": 3789,
      "Ġenergies": 3790,
      "Ġencodes": 3791,
      "Ġensuring": 3792,
      "Ġstretching": 3793,
      "Ġranges": 3794,
      "Ġrapid": 3795,
      "Ġrenewal": 3796,
      "Ġequipped": 3797,
      "Ġspectrum": 3798,
      "chloroplasts": 3799,
      "Ġintermolecular": 3800,
      "Ġintroducing": 3801,
      "Ġviscosity": 3802,
      "Ġchloride": 3803,
      "Ġchateliers": 3804,
      "Ġelectrostatics": 3805,
      "permittivity": 3806,
      "taylors": 3807,
      "Ġkilogram": 3808,
      "Ġcomputes": 3809,
      "Ġcompressed": 3810,
      "Ġcomponent": 3811,
      "Ġexcitations": 3812,
      "Ġexhibit": 3813,
      "Ġexchanged": 3814,
      "Ġreactors": 3815,
      "Ġassembling": 3816,
      "Ġdiprotic": 3817,
      "Ġnumerically": 3818,
      "ĠCauchy": 3819,
      "ĠChatelier": 3820,
      "ĠFaraday": 3821,
      "Ġuniform": 3822,
      "Ġuncountably": 3823,
      "Ġunlike": 3824,
      "Ġmathematics": 3825,
      "Ġcandela": 3826,
      "thermodynamic": 3827,
      "Ġtransforms": 3828,
      "Ġtransporting": 3829,
      "Ġhelix": 3830,
      "Ġheritable": 3831,
      "Ġhexadecimal": 3832,
      "Ġphosphorylation": 3833,
      "Ġdevelopment": 3834,
      "Ġdeformations": 3835,
      "Ġdeoxyribonucleic": 3836,
      "Ġdepression": 3837,
      "Ġdefends": 3838,
      "Ġuseful": 3839,
      "Ġcarboxylic": 3840,
      "einsteins": 3841,
      "Ġsubintervals": 3842,
      "Ġsupported": 3843,
      "Ġsubstance": 3844,
      "Ġsuperposition": 3845,
      "Ġsubsequent": 3846,
      "Ġmethylation": 3847,
      "Ġquotient": 3848,
      "Ġhypotenuse": 3849,
      "Ġhypothesis": 3850,
      "Ġnewton": 3851,
      "electrolysis": 3852,
      "Ġadaptive": 3853,
      "Ġshould": 3854,
      "Ġhydrocarbon": 3855,
      "Ġhydrochloric": 3856,
      "Ġundifferentiated": 3857,
      "Ġprevious": 3858,
      "Ġpostulates": 3859,
      "ĠJacobian": 3860,
      "Ġtriphosphate": 3861,
      "Ġsignificantly": 3862,
      "Ġmultipliers": 3863,
      "Ġdiscovered": 3864,
      "Ġdissociates": 3865,
      "covalent": 3866,
      "Ġarithmetic": 3867,
      "Ġargument": 3868,
      "Ġarrhenius": 3869,
      "Ġperpendicular": 3870,
      "Ġangstroms": 3871,
      "Ġindistinguishable": 3872,
      "Ġadditive": 3873,
      "polymers": 3874,
      "ĠStefan": 3875,
      "Ġovercoming": 3876,
      "Ġpolymerase": 3877,
      "ĠHooke": 3878,
      "Ġmajority": 3879,
      "Ġhijack": 3880,
      "Ġinterpretation": 3881,
      "ĠMichaelis": 3882,
      "Ġyears": 3883,
      "Ġpathogens": 3884,
      "Ġnoncoding": 3885,
      "avogadros": 3886,
      "gravitational": 3887,
      "hybridization": 3888,
      "ĠLaplacian": 3889,
      "ĠLorentz": 3890,
      "Ġabstract": 3891,
      "Ġsemiconservative": 3892,
      "antibiotics": 3893,
      "Ġmonopoles": 3894,
      "Ġmonosaccharide": 3895,
      "Ġendosymbiotic": 3896,
      "mathematical": 3897,
      "ĠBroglie": 3898,
      "Ġacetylcholine": 3899,
      "Ġcascades": 3900,
      "Ġsimultaneously": 3901,
      "Ġoffspring": 3902,
      "Ġchlorophyll": 3903,
      "ĠSchwarzschild": 3904,
      "neurotransmitters": 3905,
      "tetrahedral": 3906,
      "Ġastronomical": 3907,
      "Ġcryptography": 3908
    },
    "merges": [
      [
        "Ġ",
        "t"
      ],
      [
        "Ġ",
        "a"
      ],
      [
        "o",
        "n"
      ],
      [
        "h",
        "e"
      ],
      [
        "i",
        "n"
      ],
      [
        "t",
        "i"
      ],
      [
        "e",
        "r"
      ],
      [
        "e",
        "n"
      ],
      [
        "č",
        "Ċ"
      ],
      [
        "e",
        "s"
      ],
      [
        "Ġ",
        "c"
      ],
      [
        "Ġ",
        "s"
      ],
      [
        "Ġ",
        "o"
      ],
      [
        "Ġt",
        "he"
      ],
      [
        "r",
        "e"
      ],
      [
        "a",
        "l"
      ],
      [
        "Ġ",
        "p"
      ],
      [
        "r",
        "o"
      ],
      [
        "ti",
        "on"
      ],
      [
        "a",
        "t"
      ],
      [
        "a",
        "n"
      ],
      [
        "Ġa",
        "n"
      ],
      [
        "Ġ",
        "f"
      ],
      [
        "Ġ",
        "m"
      ],
      [
        "l",
        "e"
      ],
      [
        "Ġo",
        "f"
      ],
      [
        "i",
        "s"
      ],
      [
        "Ġ",
        "d"
      ],
      [
        "Ġ",
        "in"
      ],
      [
        "Ġ",
        "e"
      ],
      [
        "i",
        "t"
      ],
      [
        "Ġan",
        "d"
      ],
      [
        "Ġ",
        "b"
      ],
      [
        "i",
        "c"
      ],
      [
        "o",
        "r"
      ],
      [
        "a",
        "r"
      ],
      [
        "c",
        "t"
      ],
      [
        "Ġ",
        "="
      ],
      [
        "in",
        "g"
      ],
      [
        "Ġ",
        "w"
      ],
      [
        "a",
        "tion"
      ],
      [
        "e",
        "l"
      ],
      [
        "q",
        "u"
      ],
      [
        "Ġt",
        "o"
      ],
      [
        "e",
        "d"
      ],
      [
        "en",
        "t"
      ],
      [
        "Ġ",
        "n"
      ],
      [
        "Ġ",
        "is"
      ],
      [
        "o",
        "m"
      ],
      [
        "Ġ",
        "re"
      ],
      [
        "a",
        "s"
      ],
      [
        "t",
        "he"
      ],
      [
        "Ġt",
        "h"
      ],
      [
        "o",
        "l"
      ],
      [
        "Ġ",
        "g"
      ],
      [
        "u",
        "m"
      ],
      [
        "Ġ",
        "l"
      ],
      [
        "r",
        "i"
      ],
      [
        "u",
        "n"
      ],
      [
        "o",
        "s"
      ],
      [
        "c",
        "e"
      ],
      [
        "s",
        "t"
      ],
      [
        "u",
        "l"
      ],
      [
        "Ġp",
        "ro"
      ],
      [
        "v",
        "e"
      ],
      [
        "Ġ",
        "h"
      ],
      [
        "Ġc",
        "on"
      ],
      [
        "c",
        "tion"
      ],
      [
        "ti",
        "c"
      ],
      [
        "u",
        "s"
      ],
      [
        "Ġ",
        "en"
      ],
      [
        "e",
        "t"
      ],
      [
        "i",
        "d"
      ],
      [
        "i",
        "m"
      ],
      [
        "er",
        "g"
      ],
      [
        "Ġs",
        "t"
      ],
      [
        "Ġ",
        "r"
      ],
      [
        "Ġf",
        "or"
      ],
      [
        "Ġth",
        "at"
      ],
      [
        "Ġe",
        "qu"
      ],
      [
        "g",
        "h"
      ],
      [
        "Ġa",
        "l"
      ],
      [
        "erg",
        "y"
      ],
      [
        "e",
        "m"
      ],
      [
        "i",
        "v"
      ],
      [
        "u",
        "r"
      ],
      [
        "Ġa",
        "t"
      ],
      [
        "er",
        "s"
      ],
      [
        "es",
        "s"
      ],
      [
        "i",
        "r"
      ],
      [
        "Ġs",
        "p"
      ],
      [
        "c",
        "h"
      ],
      [
        "Ġen",
        "ergy"
      ],
      [
        "o",
        "t"
      ],
      [
        "Ġo",
        "r"
      ],
      [
        "a",
        "ti"
      ],
      [
        "al",
        "s"
      ],
      [
        "le",
        "ct"
      ],
      [
        "o",
        "d"
      ],
      [
        "u",
        "t"
      ],
      [
        "Ġin",
        "t"
      ],
      [
        "it",
        "y"
      ],
      [
        "i",
        "l"
      ],
      [
        "o",
        "w"
      ],
      [
        "on",
        "s"
      ],
      [
        "ro",
        "m"
      ],
      [
        "at",
        "es"
      ],
      [
        "Ġ",
        "v"
      ],
      [
        "Ġc",
        "h"
      ],
      [
        "Ġb",
        "y"
      ],
      [
        "a",
        "m"
      ],
      [
        "Ġa",
        "re"
      ],
      [
        "e",
        "tic"
      ],
      [
        "a",
        "b"
      ],
      [
        "d",
        "u"
      ],
      [
        "Ġa",
        "c"
      ],
      [
        "an",
        "g"
      ],
      [
        "it",
        "h"
      ],
      [
        "it",
        "s"
      ],
      [
        "e",
        "g"
      ],
      [
        "Ġe",
        "lect"
      ],
      [
        "ic",
        "al"
      ],
      [
        "el",
        "l"
      ],
      [
        "e",
        "c"
      ],
      [
        "p",
        "l"
      ],
      [
        "u",
        "re"
      ],
      [
        "an",
        "t"
      ],
      [
        "Ġm",
        "o"
      ],
      [
        "Ġg",
        "en"
      ],
      [
        "p",
        "er"
      ],
      [
        "Ġw",
        "ith"
      ],
      [
        "r",
        "a"
      ],
      [
        "t",
        "a"
      ],
      [
        "Ġf",
        "rom"
      ],
      [
        "r",
        "an"
      ],
      [
        "Ġ",
        "k"
      ],
      [
        "Ġ",
        "on"
      ],
      [
        "Ġc",
        "om"
      ],
      [
        "at",
        "e"
      ],
      [
        "un",
        "d"
      ],
      [
        "f",
        "f"
      ],
      [
        "i",
        "g"
      ],
      [
        "i",
        "on"
      ],
      [
        "Ġe",
        "x"
      ],
      [
        "Ġt",
        "im"
      ],
      [
        "y",
        "st"
      ],
      [
        "en",
        "ti"
      ],
      [
        "ro",
        "u"
      ],
      [
        "a",
        "g"
      ],
      [
        "l",
        "y"
      ],
      [
        "on",
        "d"
      ],
      [
        "Ġc",
        "ell"
      ],
      [
        "Ġal",
        "l"
      ],
      [
        "Ġelect",
        "r"
      ],
      [
        "c",
        "le"
      ],
      [
        "he",
        "m"
      ],
      [
        "Ġre",
        "a"
      ],
      [
        "ri",
        "b"
      ],
      [
        "Ġequ",
        "als"
      ],
      [
        "e",
        "ct"
      ],
      [
        "Ġa",
        "s"
      ],
      [
        "is",
        "t"
      ],
      [
        "Ġd",
        "i"
      ],
      [
        "ati",
        "ve"
      ],
      [
        "m",
        "ent"
      ],
      [
        "o",
        "re"
      ],
      [
        "Ġ",
        "("
      ],
      [
        "Ġp",
        "r"
      ],
      [
        "Ġm",
        "e"
      ],
      [
        "Ġl",
        "i"
      ],
      [
        "Ġch",
        "ang"
      ],
      [
        "ran",
        "s"
      ],
      [
        "yst",
        "em"
      ],
      [
        "p",
        "ro"
      ],
      [
        "p",
        "le"
      ],
      [
        "er",
        "i"
      ],
      [
        "Ġn",
        "um"
      ],
      [
        "Ġl",
        "a"
      ],
      [
        "ul",
        "ar"
      ],
      [
        "c",
        "i"
      ],
      [
        "r",
        "al"
      ],
      [
        "t",
        "er"
      ],
      [
        "en",
        "ce"
      ],
      [
        "Ġst",
        "ates"
      ],
      [
        "rou",
        "gh"
      ],
      [
        "Ġnum",
        "b"
      ],
      [
        "a",
        "d"
      ],
      [
        "g",
        "en"
      ],
      [
        "v",
        "er"
      ],
      [
        "Ġ",
        "C"
      ],
      [
        "Ġ",
        "F"
      ],
      [
        "Ġ",
        "un"
      ],
      [
        "in",
        "e"
      ],
      [
        "Ġs",
        "ystem"
      ],
      [
        "Ġm",
        "at"
      ],
      [
        "Ġw",
        "h"
      ],
      [
        "as",
        "s"
      ],
      [
        "Ġth",
        "rough"
      ],
      [
        "Ġpro",
        "du"
      ],
      [
        "ction",
        "s"
      ],
      [
        "Ġla",
        "w"
      ],
      [
        "a",
        "ce"
      ],
      [
        "i",
        "tion"
      ],
      [
        "n",
        "a"
      ],
      [
        "Ġc",
        "an"
      ],
      [
        "Ġc",
        "hem"
      ],
      [
        "Ġf",
        "re"
      ],
      [
        "Ġd",
        "es"
      ],
      [
        "the",
        "r"
      ],
      [
        "Ġint",
        "eg"
      ],
      [
        "Ġmo",
        "le"
      ],
      [
        "i",
        "b"
      ],
      [
        "i",
        "z"
      ],
      [
        "y",
        "n"
      ],
      [
        "Ġ",
        "its"
      ],
      [
        "Ġt",
        "rans"
      ],
      [
        "Ġf",
        "un"
      ],
      [
        "Ġb",
        "e"
      ],
      [
        "Ġw",
        "a"
      ],
      [
        "Ġw",
        "he"
      ],
      [
        "Ġr",
        "es"
      ],
      [
        "gh",
        "t"
      ],
      [
        "Ġtim",
        "es"
      ],
      [
        "b",
        "s"
      ],
      [
        "p",
        "r"
      ],
      [
        "t",
        "h"
      ],
      [
        "u",
        "cle"
      ],
      [
        "v",
        "es"
      ],
      [
        "Ġ",
        "he"
      ],
      [
        "Ġp",
        "h"
      ],
      [
        "Ġd",
        "e"
      ],
      [
        "Ġb",
        "et"
      ],
      [
        "st",
        "ant"
      ],
      [
        "a",
        "y"
      ],
      [
        "d",
        "s"
      ],
      [
        "o",
        "us"
      ],
      [
        "p",
        "h"
      ],
      [
        "Ġt",
        "w"
      ],
      [
        "Ġthe",
        "ore"
      ],
      [
        "Ġcon",
        "stant"
      ],
      [
        "Ġmole",
        "c"
      ],
      [
        "Ġtheore",
        "m"
      ],
      [
        "a",
        "in"
      ],
      [
        "e",
        "en"
      ],
      [
        "e",
        "ed"
      ],
      [
        "i",
        "es"
      ],
      [
        "l",
        "u"
      ],
      [
        "m",
        "s"
      ],
      [
        "w",
        "een"
      ],
      [
        "Ġ",
        "+"
      ],
      [
        "er",
        "v"
      ],
      [
        "er",
        "iv"
      ],
      [
        "en",
        "g"
      ],
      [
        "Ġs",
        "e"
      ],
      [
        "Ġin",
        "c"
      ],
      [
        "ation",
        "s"
      ],
      [
        "qu",
        "en"
      ],
      [
        "as",
        "e"
      ],
      [
        "Ġst",
        "r"
      ],
      [
        "Ġat",
        "om"
      ],
      [
        "ab",
        "le"
      ],
      [
        "Ġac",
        "id"
      ],
      [
        "enti",
        "al"
      ],
      [
        "Ġchem",
        "ical"
      ],
      [
        "Ġdes",
        "c"
      ],
      [
        "Ġfun",
        "ction"
      ],
      [
        "Ġbet",
        "ween"
      ],
      [
        "a",
        "re"
      ],
      [
        "a",
        "ct"
      ],
      [
        "g",
        "e"
      ],
      [
        "o",
        "g"
      ],
      [
        "u",
        "tion"
      ],
      [
        "v",
        "ol"
      ],
      [
        "Ġ",
        "-"
      ],
      [
        "Ġ",
        "N"
      ],
      [
        "Ġ",
        "i"
      ],
      [
        "Ġ",
        "us"
      ],
      [
        "Ġa",
        "p"
      ],
      [
        "Ġc",
        "o"
      ],
      [
        "Ġc",
        "ar"
      ],
      [
        "al",
        "l"
      ],
      [
        "Ġp",
        "ar"
      ],
      [
        "Ġf",
        "i"
      ],
      [
        "ic",
        "h"
      ],
      [
        "or",
        "m"
      ],
      [
        "Ġcon",
        "s"
      ],
      [
        "id",
        "e"
      ],
      [
        "Ġfor",
        "ce"
      ],
      [
        "Ġsp",
        "ace"
      ],
      [
        "Ġint",
        "o"
      ],
      [
        "ag",
        "n"
      ],
      [
        "Ġinteg",
        "ral"
      ],
      [
        "Ġdesc",
        "rib"
      ],
      [
        "'",
        "s"
      ],
      [
        "a",
        "c"
      ],
      [
        "a",
        "ch"
      ],
      [
        "d",
        "ing"
      ],
      [
        "e",
        "in"
      ],
      [
        "g",
        "an"
      ],
      [
        "o",
        "c"
      ],
      [
        "p",
        "s"
      ],
      [
        "v",
        "el"
      ],
      [
        "Ġ",
        "\\"
      ],
      [
        "Ġ",
        "x"
      ],
      [
        "ti",
        "es"
      ],
      [
        "Ġs",
        "u"
      ],
      [
        "Ġp",
        "l"
      ],
      [
        "Ġp",
        "o"
      ],
      [
        "Ġm",
        "et"
      ],
      [
        "Ġm",
        "ass"
      ],
      [
        "or",
        "y"
      ],
      [
        "Ġn",
        "ucle"
      ],
      [
        "il",
        "l"
      ],
      [
        "Ġgen",
        "etic"
      ],
      [
        "Ġtw",
        "o"
      ],
      [
        "Ġfi",
        "el"
      ],
      [
        "c",
        "ess"
      ],
      [
        "m",
        "e"
      ],
      [
        "p",
        "os"
      ],
      [
        "s",
        "is"
      ],
      [
        "v",
        "ity"
      ],
      [
        "Ġ",
        "qu"
      ],
      [
        "in",
        "t"
      ],
      [
        "Ġthe",
        "y"
      ],
      [
        "Ġthe",
        "ir"
      ],
      [
        "at",
        "ure"
      ],
      [
        "an",
        "e"
      ],
      [
        "ic",
        "s"
      ],
      [
        "ar",
        "d"
      ],
      [
        "qu",
        "are"
      ],
      [
        "as",
        "es"
      ],
      [
        "ri",
        "x"
      ],
      [
        "Ġpro",
        "t"
      ],
      [
        "Ġpro",
        "cess"
      ],
      [
        "Ġh",
        "y"
      ],
      [
        "Ġh",
        "as"
      ],
      [
        "Ġor",
        "gan"
      ],
      [
        "Ġon",
        "e"
      ],
      [
        "ff",
        "er"
      ],
      [
        "Ġli",
        "ght"
      ],
      [
        "Ġchang",
        "e"
      ],
      [
        "Ġwh",
        "ich"
      ],
      [
        "Ġfre",
        "quen"
      ],
      [
        "agn",
        "etic"
      ],
      [
        "c",
        "y"
      ],
      [
        "c",
        "es"
      ],
      [
        "d",
        "ro"
      ],
      [
        "i",
        "f"
      ],
      [
        "i",
        "ent"
      ],
      [
        "o",
        "und"
      ],
      [
        "r",
        "t"
      ],
      [
        "r",
        "y"
      ],
      [
        "Ġ",
        "*"
      ],
      [
        "ti",
        "al"
      ],
      [
        "en",
        "s"
      ],
      [
        "Ġs",
        "ol"
      ],
      [
        "Ġs",
        "quare"
      ],
      [
        "at",
        "ed"
      ],
      [
        "Ġe",
        "ach"
      ],
      [
        "ic",
        "ation"
      ],
      [
        "ar",
        "y"
      ],
      [
        "el",
        "ta"
      ],
      [
        "Ġn",
        "e"
      ],
      [
        "Ġpro",
        "per"
      ],
      [
        "ess",
        "ure"
      ],
      [
        "Ġsp",
        "eed"
      ],
      [
        "Ġrea",
        "ctions"
      ],
      [
        "ect",
        "s"
      ],
      [
        "Ġnumb",
        "ers"
      ],
      [
        "Ġmat",
        "rix"
      ],
      [
        "Ġres",
        "p"
      ],
      [
        ".",
        "."
      ],
      [
        "b",
        "j"
      ],
      [
        "e",
        "lect"
      ],
      [
        "l",
        "es"
      ],
      [
        "p",
        "i"
      ],
      [
        "p",
        "en"
      ],
      [
        "r",
        "ation"
      ],
      [
        "t",
        "s"
      ],
      [
        "Ġ",
        "z"
      ],
      [
        "Ġt",
        "em"
      ],
      [
        "Ġa",
        "d"
      ],
      [
        "on",
        "g"
      ],
      [
        "er",
        "m"
      ],
      [
        "er",
        "o"
      ],
      [
        "Ġc",
        "l"
      ],
      [
        "Ġc",
        "al"
      ],
      [
        "Ġs",
        "h"
      ],
      [
        "Ġs",
        "m"
      ],
      [
        "Ġs",
        "ec"
      ],
      [
        "Ġo",
        "bj"
      ],
      [
        "Ġthe",
        "ory"
      ],
      [
        "Ġp",
        "eri"
      ],
      [
        "ro",
        "s"
      ],
      [
        "Ġd",
        "iv"
      ],
      [
        "Ġd",
        "ec"
      ],
      [
        "Ġd",
        "eriv"
      ],
      [
        "Ġe",
        "le"
      ],
      [
        "om",
        "ent"
      ],
      [
        "Ġre",
        "l"
      ],
      [
        "ul",
        "ti"
      ],
      [
        "Ġh",
        "a"
      ],
      [
        "Ġh",
        "ow"
      ],
      [
        "Ġfor",
        "m"
      ],
      [
        "Ġac",
        "c"
      ],
      [
        "ta",
        "in"
      ],
      [
        "Ġtim",
        "e"
      ],
      [
        "Ġcell",
        "s"
      ],
      [
        "Ġchang",
        "es"
      ],
      [
        "Ġnumb",
        "er"
      ],
      [
        "eng",
        "th"
      ],
      [
        "Ġap",
        "pro"
      ],
      [
        "Ġhy",
        "dro"
      ],
      [
        "Ġsec",
        "ond"
      ],
      [
        "Ġperi",
        "od"
      ],
      [
        "f",
        "orm"
      ],
      [
        "i",
        "al"
      ],
      [
        "l",
        "a"
      ],
      [
        "m",
        "a"
      ],
      [
        "m",
        "v"
      ],
      [
        "p",
        "y"
      ],
      [
        "p",
        "ul"
      ],
      [
        "r",
        "ic"
      ],
      [
        "u",
        "e"
      ],
      [
        "Ġ",
        "P"
      ],
      [
        "Ġ",
        "T"
      ],
      [
        "Ġ",
        "["
      ],
      [
        "Ġ",
        "im"
      ],
      [
        "Ġ",
        "und"
      ],
      [
        "Ġa",
        "m"
      ],
      [
        "in",
        "ci"
      ],
      [
        "Ġs",
        "um"
      ],
      [
        "Ġp",
        "re"
      ],
      [
        "Ġp",
        "os"
      ],
      [
        "Ġp",
        "ot"
      ],
      [
        "Ġm",
        "oment"
      ],
      [
        "Ġd",
        "ist"
      ],
      [
        "Ġd",
        "na"
      ],
      [
        "Ġb",
        "ond"
      ],
      [
        "ct",
        "or"
      ],
      [
        "el",
        "oc"
      ],
      [
        "Ġn",
        "ot"
      ],
      [
        "Ġre",
        "g"
      ],
      [
        "ri",
        "um"
      ],
      [
        "Ġpro",
        "p"
      ],
      [
        "Ġequ",
        "ation"
      ],
      [
        "ir",
        "on"
      ],
      [
        "Ġor",
        "b"
      ],
      [
        "il",
        "ib"
      ],
      [
        "Ġv",
        "ol"
      ],
      [
        "per",
        "ature"
      ],
      [
        "Ġk",
        "in"
      ],
      [
        "ff",
        "ic"
      ],
      [
        "ig",
        "n"
      ],
      [
        "Ġelectr",
        "on"
      ],
      [
        "Ġrea",
        "ction"
      ],
      [
        "Ġdi",
        "ffer"
      ],
      [
        "Ġpr",
        "essure"
      ],
      [
        "Ġpr",
        "inci"
      ],
      [
        "yn",
        "the"
      ],
      [
        "Ġwa",
        "ve"
      ],
      [
        "Ġwhe",
        "n"
      ],
      [
        "Ġpar",
        "tic"
      ],
      [
        "Ġfrequen",
        "cy"
      ],
      [
        "Ġproper",
        "ties"
      ],
      [
        "Ġtem",
        "perature"
      ],
      [
        "Ġsm",
        "all"
      ],
      [
        "ros",
        "s"
      ],
      [
        "ilib",
        "rium"
      ],
      [
        "N",
        "A"
      ],
      [
        "a",
        "p"
      ],
      [
        "a",
        "ir"
      ],
      [
        "b",
        "on"
      ],
      [
        "d",
        "t"
      ],
      [
        "l",
        "ow"
      ],
      [
        "o",
        "u"
      ],
      [
        "o",
        "x"
      ],
      [
        "p",
        "ar"
      ],
      [
        "p",
        "ut"
      ],
      [
        "t",
        "y"
      ],
      [
        "t",
        "ane"
      ],
      [
        "v",
        "ers"
      ],
      [
        "x",
        "im"
      ],
      [
        "Ġ",
        "E"
      ],
      [
        "Ġ",
        "J"
      ],
      [
        "Ġ",
        "it"
      ],
      [
        "Ġt",
        "ri"
      ],
      [
        "Ġa",
        "ct"
      ],
      [
        "Ġc",
        "ol"
      ],
      [
        "Ġs",
        "am"
      ],
      [
        "Ġs",
        "ign"
      ],
      [
        "re",
        "ases"
      ],
      [
        "at",
        "h"
      ],
      [
        "at",
        "er"
      ],
      [
        "Ġm",
        "ulti"
      ],
      [
        "Ġd",
        "is"
      ],
      [
        "Ġd",
        "elta"
      ],
      [
        "Ġb",
        "ut"
      ],
      [
        "Ġb",
        "ase"
      ],
      [
        "ar",
        "i"
      ],
      [
        "el",
        "y"
      ],
      [
        "ent",
        "s"
      ],
      [
        "Ġg",
        "iv"
      ],
      [
        "Ġg",
        "ra"
      ],
      [
        "os",
        "e"
      ],
      [
        "Ġr",
        "ate"
      ],
      [
        "Ġequ",
        "ilibrium"
      ],
      [
        "ati",
        "s"
      ],
      [
        "Ġv",
        "eloc"
      ],
      [
        "Ġv",
        "ari"
      ],
      [
        "ab",
        "la"
      ],
      [
        "ant",
        "um"
      ],
      [
        "Ġelectr",
        "ons"
      ],
      [
        "Ġme",
        "an"
      ],
      [
        "Ġme",
        "as"
      ],
      [
        "Ġli",
        "k"
      ],
      [
        "pr",
        "ess"
      ],
      [
        "Ġatom",
        "ic"
      ],
      [
        "Ġdescrib",
        "es"
      ],
      [
        "Ġpl",
        "us"
      ],
      [
        "Ġfiel",
        "d"
      ],
      [
        "Ġorgan",
        "is"
      ],
      [
        "Ġsquare",
        "d"
      ],
      [
        "Ġz",
        "ero"
      ],
      [
        "Ġha",
        "ve"
      ],
      [
        "Ġund",
        "er"
      ],
      [
        "Ġpot",
        "ential"
      ],
      [
        "Ġmoment",
        "um"
      ],
      [
        "Ġorb",
        "it"
      ],
      [
        "ffic",
        "ient"
      ],
      [
        "Ġprinci",
        "ple"
      ],
      [
        "Ġveloc",
        "ity"
      ],
      [
        "_",
        "{"
      ],
      [
        "a",
        "k"
      ],
      [
        "b",
        "in"
      ],
      [
        "c",
        "c"
      ],
      [
        "c",
        "o"
      ],
      [
        "c",
        "al"
      ],
      [
        "c",
        "ent"
      ],
      [
        "o",
        "ut"
      ],
      [
        "p",
        "on"
      ],
      [
        "u",
        "le"
      ],
      [
        "v",
        "iron"
      ],
      [
        "y",
        "s"
      ],
      [
        "y",
        "cle"
      ],
      [
        "Ġ",
        "A"
      ],
      [
        "Ġ",
        "K"
      ],
      [
        "Ġ",
        "le"
      ],
      [
        "Ġ",
        "ent"
      ],
      [
        "Ġ",
        "id"
      ],
      [
        "Ġa",
        "r"
      ],
      [
        "Ġc",
        "ur"
      ],
      [
        "Ġc",
        "ycle"
      ],
      [
        "Ġo",
        "x"
      ],
      [
        "Ġo",
        "cc"
      ],
      [
        "Ġp",
        "er"
      ],
      [
        "Ġp",
        "air"
      ],
      [
        "ro",
        "py"
      ],
      [
        "an",
        "ics"
      ],
      [
        "Ġan",
        "g"
      ],
      [
        "Ġf",
        "und"
      ],
      [
        "Ġin",
        "d"
      ],
      [
        "Ġin",
        "vol"
      ],
      [
        "it",
        "e"
      ],
      [
        "or",
        "k"
      ],
      [
        "ent",
        "al"
      ],
      [
        "Ġth",
        "is"
      ],
      [
        "os",
        "is"
      ],
      [
        "ve",
        "ctor"
      ],
      [
        "Ġcon",
        "tain"
      ],
      [
        "Ġen",
        "viron"
      ],
      [
        "ur",
        "es"
      ],
      [
        "Ġsp",
        "ec"
      ],
      [
        "ch",
        "anics"
      ],
      [
        "il",
        "ity"
      ],
      [
        "am",
        "ental"
      ],
      [
        "du",
        "ction"
      ],
      [
        "eg",
        "ative"
      ],
      [
        "pl",
        "ication"
      ],
      [
        "Ġgen",
        "e"
      ],
      [
        "Ġk",
        "g"
      ],
      [
        "Ġcom",
        "ple"
      ],
      [
        "ig",
        "en"
      ],
      [
        "Ġdi",
        "re"
      ],
      [
        "Ġme",
        "chanics"
      ],
      [
        "Ġprodu",
        "ct"
      ],
      [
        "Ġfre",
        "e"
      ],
      [
        "Ġph",
        "ot"
      ],
      [
        "Ġph",
        "ys"
      ],
      [
        "Ġmolec",
        "ular"
      ],
      [
        "Ġinc",
        "lu"
      ],
      [
        "Ġcar",
        "bon"
      ],
      [
        "Ġpo",
        "int"
      ],
      [
        "Ġnucle",
        "us"
      ],
      [
        "Ġqu",
        "antum"
      ],
      [
        "Ġprot",
        "ein"
      ],
      [
        "Ġad",
        "d"
      ],
      [
        "Ġcl",
        "os"
      ],
      [
        "Ġderiv",
        "ative"
      ],
      [
        "Ġele",
        "ment"
      ],
      [
        "Ġvol",
        "um"
      ],
      [
        "Ġkin",
        "etic"
      ],
      [
        "ynthe",
        "sis"
      ],
      [
        "tane",
        "ous"
      ],
      [
        "Ġorganis",
        "ms"
      ],
      [
        "Ġocc",
        "ur"
      ],
      [
        "Ġfund",
        "amental"
      ],
      [
        "Ġenviron",
        "ment"
      ],
      [
        "d",
        "x"
      ],
      [
        "e",
        "fficient"
      ],
      [
        "f",
        "in"
      ],
      [
        "i",
        "um"
      ],
      [
        "l",
        "o"
      ],
      [
        "m",
        "it"
      ],
      [
        "p",
        "ol"
      ],
      [
        "p",
        "ound"
      ],
      [
        "q",
        "rt"
      ],
      [
        "t",
        "al"
      ],
      [
        "u",
        "ct"
      ],
      [
        "v",
        "i"
      ],
      [
        "v",
        "al"
      ],
      [
        "v",
        "ing"
      ],
      [
        "w",
        "t"
      ],
      [
        "}",
        "^"
      ],
      [
        "Ġ",
        "R"
      ],
      [
        "Ġ",
        "S"
      ],
      [
        "Ġt",
        "ra"
      ],
      [
        "es",
        "t"
      ],
      [
        "Ġs",
        "et"
      ],
      [
        "Ġs",
        "cal"
      ],
      [
        "Ġo",
        "ver"
      ],
      [
        "Ġo",
        "bs"
      ],
      [
        "Ġp",
        "ol"
      ],
      [
        "tion",
        "al"
      ],
      [
        "at",
        "ur"
      ],
      [
        "an",
        "d"
      ],
      [
        "an",
        "n"
      ],
      [
        "Ġan",
        "y"
      ],
      [
        "Ġf",
        "low"
      ],
      [
        "Ġm",
        "od"
      ],
      [
        "Ġm",
        "agnetic"
      ],
      [
        "le",
        "ction"
      ],
      [
        "Ġd",
        "et"
      ],
      [
        "Ġb",
        "i"
      ],
      [
        "or",
        "tional"
      ],
      [
        "ar",
        "g"
      ],
      [
        "Ġw",
        "ork"
      ],
      [
        "el",
        "er"
      ],
      [
        "Ġto",
        "ge"
      ],
      [
        "Ġto",
        "tal"
      ],
      [
        "Ġn",
        "o"
      ],
      [
        "om",
        "ial"
      ],
      [
        "as",
        "t"
      ],
      [
        "Ġg",
        "rou"
      ],
      [
        "Ġl",
        "im"
      ],
      [
        "Ġl",
        "ine"
      ],
      [
        "Ġl",
        "ength"
      ],
      [
        "ul",
        "a"
      ],
      [
        "Ġcon",
        "cent"
      ],
      [
        "Ġsp",
        "on"
      ],
      [
        "ati",
        "vity"
      ],
      [
        "ow",
        "n"
      ],
      [
        "ow",
        "er"
      ],
      [
        "Ġac",
        "ross"
      ],
      [
        "Ġgen",
        "er"
      ],
      [
        "Ġcom",
        "m"
      ],
      [
        "Ġcom",
        "pound"
      ],
      [
        "Ġelectr",
        "ic"
      ],
      [
        "iz",
        "ed"
      ],
      [
        "Ġwhe",
        "re"
      ],
      [
        "ay",
        "s"
      ],
      [
        "erv",
        "ed"
      ],
      [
        "Ġinc",
        "reases"
      ],
      [
        "Ġstr",
        "ong"
      ],
      [
        "Ġstr",
        "uct"
      ],
      [
        "Ġ-",
        ">"
      ],
      [
        "Ġus",
        "ing"
      ],
      [
        "Ġco",
        "efficient"
      ],
      [
        "Ġsu",
        "ch"
      ],
      [
        "Ġpo",
        "pul"
      ],
      [
        "Ġprocess",
        "es"
      ],
      [
        "if",
        "ic"
      ],
      [
        "Ġsol",
        "ution"
      ],
      [
        "pen",
        "d"
      ],
      [
        "erm",
        "in"
      ],
      [
        "Ġobj",
        "ects"
      ],
      [
        "Ġrel",
        "ates"
      ],
      [
        "Ġform",
        "ula"
      ],
      [
        "Ġacc",
        "eler"
      ],
      [
        "Ġappro",
        "xim"
      ],
      [
        "Ġhydro",
        "gen"
      ],
      [
        "Ġperiod",
        "ic"
      ],
      [
        "Ġpos",
        "ition"
      ],
      [
        "Ġdist",
        "rib"
      ],
      [
        "Ġprop",
        "ortional"
      ],
      [
        "par",
        "tial"
      ],
      [
        "vers",
        "e"
      ],
      [
        "Ġsign",
        "als"
      ],
      [
        "Ġpair",
        "s"
      ],
      [
        "Ġdet",
        "ermin"
      ],
      [
        "Ġtoge",
        "ther"
      ],
      [
        ")",
        "*"
      ],
      [
        "B",
        "ol"
      ],
      [
        "]",
        "^"
      ],
      [
        "^",
        "("
      ],
      [
        "a",
        "u"
      ],
      [
        "a",
        "tic"
      ],
      [
        "a",
        "us"
      ],
      [
        "b",
        "d"
      ],
      [
        "c",
        "ed"
      ],
      [
        "c",
        "ul"
      ],
      [
        "f",
        "er"
      ],
      [
        "h",
        "o"
      ],
      [
        "i",
        "ons"
      ],
      [
        "l",
        "i"
      ],
      [
        "l",
        "ation"
      ],
      [
        "l",
        "ess"
      ],
      [
        "m",
        "od"
      ],
      [
        "m",
        "ann"
      ],
      [
        "n",
        "al"
      ],
      [
        "n",
        "ot"
      ],
      [
        "n",
        "abla"
      ],
      [
        "o",
        "tic"
      ],
      [
        "o",
        "ur"
      ],
      [
        "p",
        "he"
      ],
      [
        "s",
        "ion"
      ],
      [
        "t",
        "z"
      ],
      [
        "t",
        "ro"
      ],
      [
        "t",
        "rans"
      ],
      [
        "w",
        "ard"
      ],
      [
        "y",
        "m"
      ],
      [
        "Ġ",
        "."
      ],
      [
        "Ġ",
        "H"
      ],
      [
        "Ġ",
        "u"
      ],
      [
        "Ġ",
        "ro"
      ],
      [
        "Ġ",
        "vector"
      ],
      [
        "he",
        "r"
      ],
      [
        "Ġs",
        "ur"
      ],
      [
        "Ġs",
        "atis"
      ],
      [
        "Ġo",
        "ut"
      ],
      [
        "Ġo",
        "per"
      ],
      [
        "Ġo",
        "ther"
      ],
      [
        "Ġf",
        "ir"
      ],
      [
        "Ġm",
        "a"
      ],
      [
        "Ġm",
        "u"
      ],
      [
        "Ġm",
        "em"
      ],
      [
        "Ġm",
        "ess"
      ],
      [
        "Ġd",
        "ri"
      ],
      [
        "Ġe",
        "ff"
      ],
      [
        "Ġb",
        "in"
      ],
      [
        "or",
        "s"
      ],
      [
        "qu",
        "e"
      ],
      [
        "Ġn",
        "it"
      ],
      [
        "Ġn",
        "egative"
      ],
      [
        "om",
        "e"
      ],
      [
        "om",
        "et"
      ],
      [
        "Ġre",
        "le"
      ],
      [
        "Ġre",
        "pr"
      ],
      [
        "Ġg",
        "lu"
      ],
      [
        "Ġl",
        "iv"
      ],
      [
        "os",
        "ynthesis"
      ],
      [
        "os",
        "phe"
      ],
      [
        "st",
        "r"
      ],
      [
        "ul",
        "es"
      ],
      [
        "Ġh",
        "i"
      ],
      [
        "Ġr",
        "ad"
      ],
      [
        "iv",
        "ers"
      ],
      [
        "Ġat",
        "m"
      ],
      [
        "ot",
        "h"
      ],
      [
        "ut",
        "e"
      ],
      [
        "Ġint",
        "er"
      ],
      [
        "rom",
        "agnetic"
      ],
      [
        "am",
        "bd"
      ],
      [
        "ab",
        "ility"
      ],
      [
        "pl",
        "i"
      ],
      [
        "Ġgen",
        "es"
      ],
      [
        "Ġwith",
        "out"
      ],
      [
        "Ġex",
        "press"
      ],
      [
        "enti",
        "ation"
      ],
      [
        "enti",
        "ty"
      ],
      [
        "Ġall",
        "ow"
      ],
      [
        "ist",
        "s"
      ],
      [
        "Ġpr",
        "es"
      ],
      [
        "eri",
        "al"
      ],
      [
        "Ġun",
        "its"
      ],
      [
        "Ġprodu",
        "ce"
      ],
      [
        "yn",
        "am"
      ],
      [
        "Ġtrans",
        "form"
      ],
      [
        "ph",
        "a"
      ],
      [
        "Ġmolec",
        "ules"
      ],
      [
        "Ġse",
        "qu"
      ],
      [
        "Ġi",
        "ons"
      ],
      [
        "Ġdescrib",
        "e"
      ],
      [
        "ps",
        "i"
      ],
      [
        "Ġfiel",
        "ds"
      ],
      [
        "Ġresp",
        "ons"
      ],
      [
        "..",
        "."
      ],
      [
        "Ġcal",
        "cul"
      ],
      [
        "Ġbond",
        "s"
      ],
      [
        "Ġpartic",
        "les"
      ],
      [
        "Ġsam",
        "e"
      ],
      [
        "Ġgiv",
        "es"
      ],
      [
        "Ġmeas",
        "ures"
      ],
      [
        "Ġlik",
        "e"
      ],
      [
        "Ġorbit",
        "als"
      ],
      [
        "Ġid",
        "entity"
      ],
      [
        "Ġdire",
        "ction"
      ],
      [
        "Ġphys",
        "ical"
      ],
      [
        "Ġvolum",
        "e"
      ],
      [
        "Ġoccur",
        "s"
      ],
      [
        "}^",
        "{"
      ],
      [
        "atur",
        "al"
      ],
      [
        "Ġconcent",
        "ration"
      ],
      [
        "Ġspon",
        "taneous"
      ],
      [
        "Ġacceler",
        "ation"
      ],
      [
        "Bol",
        "tz"
      ],
      [
        "Ġsatis",
        "f"
      ],
      [
        "Ġfir",
        "st"
      ],
      [
        "Ġmess",
        "eng"
      ],
      [
        "Ġrepr",
        "es"
      ],
      [
        "Ġliv",
        "ing"
      ],
      [
        "ambd",
        "a"
      ],
      [
        "Boltz",
        "mann"
      ],
      [
        ")",
        ")"
      ],
      [
        ")",
        ","
      ],
      [
        "/",
        "("
      ],
      [
        "C",
        "O"
      ],
      [
        "D",
        "eriv"
      ],
      [
        "R",
        "NA"
      ],
      [
        "T",
        "P"
      ],
      [
        "b",
        "i"
      ],
      [
        "b",
        "le"
      ],
      [
        "b",
        "erg"
      ],
      [
        "b",
        "ran"
      ],
      [
        "b",
        "ability"
      ],
      [
        "c",
        "ell"
      ],
      [
        "c",
        "ose"
      ],
      [
        "d",
        "ies"
      ],
      [
        "e",
        "qu"
      ],
      [
        "e",
        "wt"
      ],
      [
        "i",
        "us"
      ],
      [
        "k",
        "T"
      ],
      [
        "l",
        "an"
      ],
      [
        "m",
        "ol"
      ],
      [
        "m",
        "ain"
      ],
      [
        "o",
        "id"
      ],
      [
        "o",
        "ci"
      ],
      [
        "s",
        "ol"
      ],
      [
        "s",
        "qrt"
      ],
      [
        "s",
        "oci"
      ],
      [
        "t",
        "ed"
      ],
      [
        "u",
        "dies"
      ],
      [
        "y",
        "l"
      ],
      [
        "y",
        "p"
      ],
      [
        "y",
        "gen"
      ],
      [
        "}",
        "{"
      ],
      [
        "Ġ",
        "G"
      ],
      [
        "Ġ",
        "M"
      ],
      [
        "Ġ",
        "V"
      ],
      [
        "Ġ",
        "W"
      ],
      [
        "Ġ",
        "y"
      ],
      [
        "Ġt",
        "en"
      ],
      [
        "on",
        "e"
      ],
      [
        "en",
        "ergy"
      ],
      [
        "Ġs",
        "ound"
      ],
      [
        "Ġo",
        "s"
      ],
      [
        "re",
        "e"
      ],
      [
        "al",
        "y"
      ],
      [
        "Ġp",
        "ath"
      ],
      [
        "Ġp",
        "ower"
      ],
      [
        "ro",
        "st"
      ],
      [
        "ro",
        "gen"
      ],
      [
        "at",
        "ing"
      ],
      [
        "at",
        "ely"
      ],
      [
        "an",
        "ce"
      ],
      [
        "Ġm",
        "in"
      ],
      [
        "is",
        "ion"
      ],
      [
        "Ġd",
        "o"
      ],
      [
        "Ġd",
        "ens"
      ],
      [
        "Ġin",
        "put"
      ],
      [
        "Ġe",
        "v"
      ],
      [
        "Ġe",
        "igen"
      ],
      [
        "Ġb",
        "as"
      ],
      [
        "Ġb",
        "ec"
      ],
      [
        "Ġb",
        "act"
      ],
      [
        "Ġb",
        "oth"
      ],
      [
        "or",
        "d"
      ],
      [
        "ar",
        "ge"
      ],
      [
        "Ġw",
        "ill"
      ],
      [
        "Ġw",
        "ater"
      ],
      [
        "el",
        "f"
      ],
      [
        "el",
        "i"
      ],
      [
        "Ġn",
        "on"
      ],
      [
        "om",
        "es"
      ],
      [
        "om",
        "pos"
      ],
      [
        "Ġre",
        "al"
      ],
      [
        "Ġre",
        "pro"
      ],
      [
        "Ġre",
        "main"
      ],
      [
        "Ġth",
        "an"
      ],
      [
        "ol",
        "og"
      ],
      [
        "Ġg",
        "e"
      ],
      [
        "Ġg",
        "as"
      ],
      [
        "os",
        "s"
      ],
      [
        "ve",
        "c"
      ],
      [
        "Ġcon",
        "ver"
      ],
      [
        "tic",
        "al"
      ],
      [
        "et",
        "a"
      ],
      [
        "im",
        "ens"
      ],
      [
        "erg",
        "ence"
      ],
      [
        "Ġst",
        "udies"
      ],
      [
        "Ġr",
        "ati"
      ],
      [
        "Ġr",
        "na"
      ],
      [
        "Ġequ",
        "al"
      ],
      [
        "Ġal",
        "k"
      ],
      [
        "Ġal",
        "ter"
      ],
      [
        "Ġal",
        "pha"
      ],
      [
        "Ġch",
        "ain"
      ],
      [
        "Ġch",
        "arg"
      ],
      [
        "Ġare",
        "a"
      ],
      [
        "Ġelect",
        "romagnetic"
      ],
      [
        "pl",
        "oid"
      ],
      [
        "ant",
        "s"
      ],
      [
        "Ġmo",
        "tion"
      ],
      [
        "Ġex",
        "ter"
      ],
      [
        "Ġex",
        "act"
      ],
      [
        "Ġcell",
        "ular"
      ],
      [
        "hem",
        "ical"
      ],
      [
        "ver",
        "y"
      ],
      [
        "Ġun",
        "it"
      ],
      [
        "Ġmat",
        "ter"
      ],
      [
        "Ġcan",
        "not"
      ],
      [
        "ib",
        "le"
      ],
      [
        "Ġwa",
        "ves"
      ],
      [
        "Ġwa",
        "vel"
      ],
      [
        "Ġres",
        "t"
      ],
      [
        "Ġmolec",
        "ule"
      ],
      [
        "Ġse",
        "lection"
      ],
      [
        "Ġatom",
        "s"
      ],
      [
        "Ġacid",
        "s"
      ],
      [
        "vol",
        "ution"
      ],
      [
        "ĠN",
        "A"
      ],
      [
        "Ġco",
        "un"
      ],
      [
        "Ġcar",
        "ri"
      ],
      [
        "vel",
        "s"
      ],
      [
        "Ġmet",
        "ers"
      ],
      [
        "Ġprot",
        "ons"
      ],
      [
        "elect",
        "r"
      ],
      [
        "Ġobj",
        "ect"
      ],
      [
        "Ġdiv",
        "id"
      ],
      [
        "Ġdec",
        "ompos"
      ],
      [
        "Ġreg",
        "ul"
      ],
      [
        "Ġdiffer",
        "entiation"
      ],
      [
        "Ġpartic",
        "le"
      ],
      [
        "Ġtri",
        "ang"
      ],
      [
        "Ġact",
        "s"
      ],
      [
        "Ġvari",
        "ation"
      ],
      [
        "Ġmean",
        "s"
      ],
      [
        "Ġmean",
        "ing"
      ],
      [
        "Ġent",
        "ropy"
      ],
      [
        "Ġang",
        "ular"
      ],
      [
        "Ġcontain",
        "s"
      ],
      [
        "Ġcomple",
        "x"
      ],
      [
        "Ġinclu",
        "ding"
      ],
      [
        "Ġclos",
        "ed"
      ],
      [
        "Ġflow",
        "s"
      ],
      [
        "Ġgrou",
        "p"
      ],
      [
        "Ġline",
        "ar"
      ],
      [
        "Ġcompound",
        "s"
      ],
      [
        "Ġpopul",
        "ation"
      ],
      [
        "Ġdistrib",
        "ution"
      ],
      [
        "mod",
        "ynam"
      ],
      [
        "Ġmem",
        "bran"
      ],
      [
        "Ġnit",
        "rogen"
      ],
      [
        "Ġglu",
        "cose"
      ],
      [
        "osphe",
        "re"
      ],
      [
        "Ġhi",
        "gh"
      ],
      [
        "pli",
        "ed"
      ],
      [
        "Ġexpress",
        "ion"
      ],
      [
        "Ġsequ",
        "ence"
      ],
      [
        "Ġcalcul",
        "us"
      ],
      [
        "Ġrepres",
        "ents"
      ],
      [
        "Deriv",
        "ing"
      ],
      [
        "Ġdens",
        "ity"
      ],
      [
        "Ġexter",
        "nal"
      ],
      [
        "Ġwavel",
        "ength"
      ],
      [
        "'",
        "("
      ],
      [
        ")",
        "/"
      ],
      [
        ")",
        "^"
      ],
      [
        "/",
        "\\"
      ],
      [
        "=",
        "-"
      ],
      [
        ">",
        "="
      ],
      [
        "A",
        "r"
      ],
      [
        "D",
        "NA"
      ],
      [
        "O",
        "H"
      ],
      [
        "R",
        "T"
      ],
      [
        "a",
        "v"
      ],
      [
        "b",
        "b"
      ],
      [
        "b",
        "ar"
      ],
      [
        "b",
        "ra"
      ],
      [
        "b",
        "ond"
      ],
      [
        "c",
        "k"
      ],
      [
        "c",
        "om"
      ],
      [
        "c",
        "ri"
      ],
      [
        "c",
        "os"
      ],
      [
        "c",
        "ill"
      ],
      [
        "c",
        "hemical"
      ],
      [
        "d",
        "ic"
      ],
      [
        "d",
        "ition"
      ],
      [
        "d",
        "na"
      ],
      [
        "d",
        "ient"
      ],
      [
        "d",
        "elta"
      ],
      [
        "e",
        "x"
      ],
      [
        "e",
        "ar"
      ],
      [
        "e",
        "ak"
      ],
      [
        "e",
        "pend"
      ],
      [
        "f",
        "or"
      ],
      [
        "f",
        "ra"
      ],
      [
        "f",
        "ig"
      ],
      [
        "g",
        "on"
      ],
      [
        "g",
        "ra"
      ],
      [
        "h",
        "y"
      ],
      [
        "i",
        "ti"
      ],
      [
        "i",
        "le"
      ],
      [
        "l",
        "or"
      ],
      [
        "m",
        "ath"
      ],
      [
        "m",
        "osis"
      ],
      [
        "n",
        "own"
      ],
      [
        "o",
        "le"
      ],
      [
        "o",
        "ch"
      ],
      [
        "o",
        "ther"
      ],
      [
        "p",
        "t"
      ],
      [
        "p",
        "tion"
      ],
      [
        "r",
        "am"
      ],
      [
        "r",
        "ang"
      ],
      [
        "r",
        "modynam"
      ],
      [
        "s",
        "ide"
      ],
      [
        "u",
        "ctions"
      ],
      [
        "v",
        "it"
      ],
      [
        "v",
        "ation"
      ],
      [
        "w",
        "ays"
      ],
      [
        "x",
        "i"
      ],
      [
        "Ġ",
        "/"
      ],
      [
        "Ġ",
        "L"
      ],
      [
        "Ġ",
        "ri"
      ],
      [
        "Ġ",
        "ess"
      ],
      [
        "Ġ",
        "ion"
      ],
      [
        "Ġ",
        "rib"
      ],
      [
        "Ġ",
        "ide"
      ],
      [
        "Ġt",
        "or"
      ],
      [
        "Ġt",
        "able"
      ],
      [
        "Ġt",
        "yp"
      ],
      [
        "Ġa",
        "b"
      ],
      [
        "Ġa",
        "ction"
      ],
      [
        "he",
        "s"
      ],
      [
        "in",
        "f"
      ],
      [
        "in",
        "o"
      ],
      [
        "ti",
        "me"
      ],
      [
        "en",
        "z"
      ],
      [
        "Ġc",
        "at"
      ],
      [
        "Ġc",
        "ent"
      ],
      [
        "Ġc",
        "ir"
      ],
      [
        "Ġc",
        "ross"
      ],
      [
        "Ġs",
        "id"
      ],
      [
        "Ġs",
        "em"
      ],
      [
        "Ġs",
        "eri"
      ],
      [
        "Ġthe",
        "ta"
      ],
      [
        "Ġthe",
        "rmodynam"
      ],
      [
        "al",
        "yst"
      ],
      [
        "al",
        "ly"
      ],
      [
        "al",
        "ue"
      ],
      [
        "ro",
        "und"
      ],
      [
        "an",
        "y"
      ],
      [
        "an",
        "ti"
      ],
      [
        "Ġan",
        "aly"
      ],
      [
        "Ġf",
        "in"
      ],
      [
        "Ġf",
        "lu"
      ],
      [
        "Ġf",
        "our"
      ],
      [
        "Ġm",
        "on"
      ],
      [
        "Ġm",
        "ic"
      ],
      [
        "Ġm",
        "ed"
      ],
      [
        "Ġm",
        "ol"
      ],
      [
        "Ġm",
        "ad"
      ],
      [
        "Ġm",
        "any"
      ],
      [
        "le",
        "le"
      ],
      [
        "Ġd",
        "x"
      ],
      [
        "Ġd",
        "ue"
      ],
      [
        "Ġd",
        "ou"
      ],
      [
        "Ġd",
        "own"
      ],
      [
        "Ġin",
        "form"
      ],
      [
        "Ġin",
        "verse"
      ],
      [
        "Ġin",
        "str"
      ],
      [
        "Ġe",
        "very"
      ],
      [
        "Ġb",
        "ill"
      ],
      [
        "Ġw",
        "eak"
      ],
      [
        "Ġto",
        "ward"
      ],
      [
        "ent",
        "y"
      ],
      [
        "Ġn",
        "abla"
      ],
      [
        "Ġn",
        "atural"
      ],
      [
        "om",
        "s"
      ],
      [
        "Ġre",
        "qu"
      ],
      [
        "Ġre",
        "ce"
      ],
      [
        "Ġre",
        "pul"
      ],
      [
        "Ġre",
        "plication"
      ],
      [
        "Ġre",
        "verse"
      ],
      [
        "Ġth",
        "ree"
      ],
      [
        "um",
        "an"
      ],
      [
        "Ġl",
        "ambda"
      ],
      [
        "Ġl",
        "oss"
      ],
      [
        "os",
        "t"
      ],
      [
        "os",
        "ine"
      ],
      [
        "os",
        "omes"
      ],
      [
        "os",
        "mosis"
      ],
      [
        "ul",
        "l"
      ],
      [
        "Ġpro",
        "bability"
      ],
      [
        "Ġh",
        "ig"
      ],
      [
        "Ġh",
        "uman"
      ],
      [
        "Ġcon",
        "n"
      ],
      [
        "Ġcon",
        "tro"
      ],
      [
        "Ġcon",
        "fig"
      ],
      [
        "Ġen",
        "d"
      ],
      [
        "id",
        "ation"
      ],
      [
        "Ġst",
        "ar"
      ],
      [
        "Ġst",
        "atis"
      ],
      [
        "Ġr",
        "ule"
      ],
      [
        "Ġfor",
        "ms"
      ],
      [
        "Ġfor",
        "ces"
      ],
      [
        "Ġequ",
        "ations"
      ],
      [
        "gh",
        "ter"
      ],
      [
        "Ġal",
        "ge"
      ],
      [
        "Ġal",
        "ong"
      ],
      [
        "Ġal",
        "lele"
      ],
      [
        "em",
        "ents"
      ],
      [
        "ur",
        "ation"
      ],
      [
        "ir",
        "ation"
      ],
      [
        "od",
        "e"
      ],
      [
        "od",
        "y"
      ],
      [
        "il",
        "on"
      ],
      [
        "ons",
        "erv"
      ],
      [
        "Ġv",
        "ast"
      ],
      [
        "Ġv",
        "alue"
      ],
      [
        "eg",
        "a"
      ],
      [
        "pl",
        "ic"
      ],
      [
        "pl",
        "ace"
      ],
      [
        "pl",
        "ies"
      ],
      [
        "Ġmo",
        "re"
      ],
      [
        "Ġmo",
        "ving"
      ],
      [
        "per",
        "me"
      ],
      [
        "Ġk",
        "J"
      ],
      [
        "Ġk",
        "nown"
      ],
      [
        "Ġon",
        "ly"
      ],
      [
        "Ġcom",
        "pos"
      ],
      [
        "Ġcom",
        "bin"
      ],
      [
        "Ġex",
        "pon"
      ],
      [
        "ag",
        "e"
      ],
      [
        "ond",
        "ri"
      ],
      [
        "Ġelectr",
        "ical"
      ],
      [
        "Ġas",
        "soci"
      ],
      [
        "ist",
        "ry"
      ],
      [
        "ore",
        "d"
      ],
      [
        "ci",
        "es"
      ],
      [
        "Ġmat",
        "erial"
      ],
      [
        "Ġwh",
        "ile"
      ],
      [
        "Ġprodu",
        "ces"
      ],
      [
        "Ġchem",
        "istry"
      ],
      [
        "Ġinteg",
        "r"
      ],
      [
        "ib",
        "bs"
      ],
      [
        "iz",
        "e"
      ],
      [
        "iz",
        "ing"
      ],
      [
        "iz",
        "ation"
      ],
      [
        "yn",
        "omial"
      ],
      [
        "Ġits",
        "elf"
      ],
      [
        "Ġtrans",
        "fer"
      ],
      [
        "Ġfun",
        "ctions"
      ],
      [
        "Ġwhe",
        "ther"
      ],
      [
        "Ġhe",
        "at"
      ],
      [
        "Ġde",
        "pen"
      ],
      [
        "Ġde",
        "fin"
      ],
      [
        "Ġtw",
        "enty"
      ],
      [
        "og",
        "ad"
      ],
      [
        "ĠN",
        "ewt"
      ],
      [
        "Ġus",
        "es"
      ],
      [
        "Ġus",
        "ed"
      ],
      [
        "Ġap",
        "plied"
      ],
      [
        "Ġcons",
        "erved"
      ],
      [
        "Ġcons",
        "ists"
      ],
      [
        "ac",
        "hes"
      ],
      [
        "ps",
        "ilon"
      ],
      [
        "Ġnucle",
        "i"
      ],
      [
        "Ġfrequen",
        "cies"
      ],
      [
        "Ġsol",
        "ute"
      ],
      [
        "Ġresp",
        "iration"
      ],
      [
        "elect",
        "ric"
      ],
      [
        "Ġdec",
        "ay"
      ],
      [
        "Ġappro",
        "aches"
      ],
      [
        "ĠP",
        "a"
      ],
      [
        "Ġam",
        "ino"
      ],
      [
        "Ġpre",
        "c"
      ],
      [
        "Ġpre",
        "dic"
      ],
      [
        "Ġbond",
        "ing"
      ],
      [
        "Ġprop",
        "ag"
      ],
      [
        "Ġdiffer",
        "ent"
      ],
      [
        "ap",
        "e"
      ],
      [
        "Ġsam",
        "ple"
      ],
      [
        "Ġmulti",
        "plication"
      ],
      [
        "Ġdis",
        "place"
      ],
      [
        "Ġgiv",
        "en"
      ],
      [
        "Ġgra",
        "vity"
      ],
      [
        "Ġvari",
        "able"
      ],
      [
        "Ġmeas",
        "ure"
      ],
      [
        "Ġle",
        "vels"
      ],
      [
        "Ġcur",
        "ve"
      ],
      [
        "Ġox",
        "ygen"
      ],
      [
        "Ġinvol",
        "ve"
      ],
      [
        "Ġspec",
        "ial"
      ],
      [
        "Ġspec",
        "ific"
      ],
      [
        "Ġphot",
        "osynthesis"
      ],
      [
        "Ġinclu",
        "d"
      ],
      [
        "Ġadd",
        "ed"
      ],
      [
        "Ġadd",
        "ition"
      ],
      [
        "Ġclos",
        "ure"
      ],
      [
        "lo",
        "ro"
      ],
      [
        "Ġscal",
        "ar"
      ],
      [
        "Ġobs",
        "erv"
      ],
      [
        "Ġpol",
        "ynomial"
      ],
      [
        "and",
        "ard"
      ],
      [
        "Ġbi",
        "olog"
      ],
      [
        "Ġlim",
        "it"
      ],
      [
        "Ġstruct",
        "ure"
      ],
      [
        "Ġcoefficient",
        "s"
      ],
      [
        "Ġsolution",
        "s"
      ],
      [
        "Ġapproxim",
        "ately"
      ],
      [
        "Ġdetermin",
        "es"
      ],
      [
        "Ġu",
        "p"
      ],
      [
        "Ġro",
        "ot"
      ],
      [
        "Ġout",
        "put"
      ],
      [
        "Ġeff",
        "ect"
      ],
      [
        "Ġbin",
        "omial"
      ],
      [
        "omet",
        "ry"
      ],
      [
        "Ġrele",
        "as"
      ],
      [
        "Ġrad",
        "ius"
      ],
      [
        "Ġpres",
        "ence"
      ],
      [
        "Ġsatisf",
        "ies"
      ],
      [
        "Ġmesseng",
        "er"
      ],
      [
        "lan",
        "ck"
      ],
      [
        "Ġos",
        "cill"
      ],
      [
        "Ġmin",
        "us"
      ],
      [
        "imens",
        "ion"
      ],
      [
        "Ġcharg",
        "es"
      ],
      [
        "Ġcarri",
        "es"
      ],
      [
        "electr",
        "on"
      ],
      [
        "Ġdivid",
        "ed"
      ],
      [
        "Ġtriang",
        "le"
      ],
      [
        "Ġmembran",
        "e"
      ],
      [
        "cri",
        "ption"
      ],
      [
        "epend",
        "ent"
      ],
      [
        "fra",
        "c"
      ],
      [
        "math",
        "bb"
      ],
      [
        "och",
        "ondri"
      ],
      [
        "vit",
        "ation"
      ],
      [
        "Ġide",
        "al"
      ],
      [
        "Ġtor",
        "que"
      ],
      [
        "Ġcent",
        "ral"
      ],
      [
        "Ġsid",
        "es"
      ],
      [
        "Ġseri",
        "es"
      ],
      [
        "Ġthermodynam",
        "ics"
      ],
      [
        "Ġanaly",
        "sis"
      ],
      [
        "Ġmad",
        "e"
      ],
      [
        "Ġdou",
        "ble"
      ],
      [
        "Ġinform",
        "ation"
      ],
      [
        "Ġinstr",
        "uctions"
      ],
      [
        "Ġrepul",
        "sion"
      ],
      [
        "Ġhig",
        "her"
      ],
      [
        "Ġcontro",
        "l"
      ],
      [
        "Ġconfig",
        "uration"
      ],
      [
        "Ġalge",
        "bra"
      ],
      [
        "Ġdepen",
        "ds"
      ],
      [
        "ĠNewt",
        "on"
      ],
      [
        "Ġdisplace",
        "ment"
      ],
      [
        ")",
        "!"
      ],
      [
        ")",
        "."
      ],
      [
        "A",
        "v"
      ],
      [
        "C",
        "H"
      ],
      [
        "C",
        "l"
      ],
      [
        "D",
        "H"
      ],
      [
        "I",
        "I"
      ],
      [
        "N",
        "a"
      ],
      [
        "P",
        "lanck"
      ],
      [
        "S",
        "ch"
      ],
      [
        "a",
        "x"
      ],
      [
        "a",
        "ctions"
      ],
      [
        "c",
        "l"
      ],
      [
        "c",
        "r"
      ],
      [
        "c",
        "on"
      ],
      [
        "c",
        "er"
      ],
      [
        "c",
        "it"
      ],
      [
        "c",
        "ing"
      ],
      [
        "c",
        "ol"
      ],
      [
        "c",
        "od"
      ],
      [
        "c",
        "ular"
      ],
      [
        "d",
        "v"
      ],
      [
        "d",
        "y"
      ],
      [
        "d",
        "ers"
      ],
      [
        "e",
        "V"
      ],
      [
        "e",
        "f"
      ],
      [
        "e",
        "p"
      ],
      [
        "e",
        "ti"
      ],
      [
        "e",
        "igen"
      ],
      [
        "f",
        "e"
      ],
      [
        "f",
        "t"
      ],
      [
        "f",
        "ore"
      ],
      [
        "f",
        "ace"
      ],
      [
        "f",
        "ication"
      ],
      [
        "g",
        "ate"
      ],
      [
        "h",
        "a"
      ],
      [
        "h",
        "al"
      ],
      [
        "h",
        "at"
      ],
      [
        "h",
        "ol"
      ],
      [
        "i",
        "a"
      ],
      [
        "i",
        "x"
      ],
      [
        "i",
        "ve"
      ],
      [
        "i",
        "ght"
      ],
      [
        "i",
        "ffer"
      ],
      [
        "i",
        "tial"
      ],
      [
        "i",
        "osis"
      ],
      [
        "i",
        "perme"
      ],
      [
        "j",
        "u"
      ],
      [
        "k",
        "e"
      ],
      [
        "k",
        "x"
      ],
      [
        "k",
        "ary"
      ],
      [
        "l",
        "d"
      ],
      [
        "l",
        "n"
      ],
      [
        "l",
        "is"
      ],
      [
        "l",
        "ig"
      ],
      [
        "l",
        "og"
      ],
      [
        "l",
        "ambda"
      ],
      [
        "m",
        "c"
      ],
      [
        "m",
        "u"
      ],
      [
        "m",
        "on"
      ],
      [
        "m",
        "at"
      ],
      [
        "m",
        "ic"
      ],
      [
        "m",
        "ing"
      ],
      [
        "m",
        "un"
      ],
      [
        "m",
        "et"
      ],
      [
        "m",
        "its"
      ],
      [
        "m",
        "ass"
      ],
      [
        "m",
        "ega"
      ],
      [
        "n",
        "ing"
      ],
      [
        "n",
        "ess"
      ],
      [
        "n",
        "ucle"
      ],
      [
        "n",
        "atural"
      ],
      [
        "o",
        "un"
      ],
      [
        "o",
        "il"
      ],
      [
        "p",
        "p"
      ],
      [
        "p",
        "ot"
      ],
      [
        "p",
        "eed"
      ],
      [
        "p",
        "ies"
      ],
      [
        "p",
        "ite"
      ],
      [
        "r",
        "ing"
      ],
      [
        "r",
        "ate"
      ],
      [
        "r",
        "ho"
      ],
      [
        "s",
        "e"
      ],
      [
        "s",
        "m"
      ],
      [
        "s",
        "um"
      ],
      [
        "s",
        "peed"
      ],
      [
        "t",
        "o"
      ],
      [
        "t",
        "u"
      ],
      [
        "t",
        "in"
      ],
      [
        "t",
        "ing"
      ],
      [
        "t",
        "ab"
      ],
      [
        "t",
        "ein"
      ],
      [
        "u",
        "es"
      ],
      [
        "u",
        "al"
      ],
      [
        "u",
        "el"
      ],
      [
        "u",
        "um"
      ],
      [
        "u",
        "ous"
      ],
      [
        "u",
        "kary"
      ],
      [
        "v",
        "in"
      ],
      [
        "v",
        "ed"
      ],
      [
        "v",
        "erg"
      ],
      [
        "v",
        "ature"
      ],
      [
        "w",
        "n"
      ],
      [
        "w",
        "ar"
      ],
      [
        "w",
        "ell"
      ],
      [
        "w",
        "th"
      ],
      [
        "w",
        "ater"
      ],
      [
        "y",
        "ing"
      ],
      [
        "y",
        "ed"
      ],
      [
        "y",
        "th"
      ],
      [
        "y",
        "me"
      ],
      [
        "Ġ",
        "<"
      ],
      [
        "Ġ",
        "B"
      ],
      [
        "Ġ",
        "O"
      ],
      [
        "Ġ",
        "j"
      ],
      [
        "Ġ",
        "q"
      ],
      [
        "Ġ",
        "er"
      ],
      [
        "Ġ",
        "iron"
      ],
      [
        "Ġ",
        "Boltzmann"
      ],
      [
        "Ġ",
        ">="
      ],
      [
        "Ġt",
        "er"
      ],
      [
        "Ġt",
        "est"
      ],
      [
        "Ġt",
        "arg"
      ],
      [
        "Ġa",
        "g"
      ],
      [
        "Ġa",
        "ce"
      ],
      [
        "Ġa",
        "ir"
      ],
      [
        "Ġa",
        "ff"
      ],
      [
        "Ġa",
        "bs"
      ],
      [
        "Ġa",
        "xi"
      ],
      [
        "on",
        "ucle"
      ],
      [
        "he",
        "d"
      ],
      [
        "he",
        "l"
      ],
      [
        "he",
        "n"
      ],
      [
        "in",
        "ates"
      ],
      [
        "in",
        "ary"
      ],
      [
        "in",
        "ning"
      ],
      [
        "ti",
        "l"
      ],
      [
        "ti",
        "tion"
      ],
      [
        "ti",
        "vity"
      ],
      [
        "ti",
        "tu"
      ],
      [
        "er",
        "e"
      ],
      [
        "er",
        "n"
      ],
      [
        "er",
        "tain"
      ],
      [
        "en",
        "d"
      ],
      [
        "en",
        "berg"
      ],
      [
        "en",
        "tical"
      ],
      [
        "Ġc",
        "re"
      ],
      [
        "Ġc",
        "as"
      ],
      [
        "Ġc",
        "ase"
      ],
      [
        "Ġc",
        "ap"
      ],
      [
        "Ġc",
        "aus"
      ],
      [
        "Ġc",
        "osine"
      ],
      [
        "Ġc",
        "ertain"
      ],
      [
        "Ġs",
        "o"
      ],
      [
        "Ġs",
        "er"
      ],
      [
        "Ġs",
        "im"
      ],
      [
        "Ġs",
        "od"
      ],
      [
        "Ġs",
        "ynthe"
      ],
      [
        "Ġs",
        "ynthesis"
      ],
      [
        "Ġs",
        "qrt"
      ],
      [
        "Ġs",
        "our"
      ],
      [
        "Ġo",
        "wn"
      ],
      [
        "Ġthe",
        "m"
      ],
      [
        "Ġthe",
        "n"
      ],
      [
        "Ġthe",
        "re"
      ],
      [
        "Ġthe",
        "se"
      ],
      [
        "re",
        "t"
      ],
      [
        "re",
        "bs"
      ],
      [
        "re",
        "ase"
      ],
      [
        "re",
        "ater"
      ],
      [
        "re",
        "ak"
      ],
      [
        "al",
        "f"
      ],
      [
        "al",
        "ity"
      ],
      [
        "al",
        "ence"
      ],
      [
        "Ġp",
        "ri"
      ],
      [
        "Ġp",
        "ass"
      ],
      [
        "Ġp",
        "erm"
      ],
      [
        "ro",
        "r"
      ],
      [
        "ro",
        "ding"
      ],
      [
        "ro",
        "chemical"
      ],
      [
        "ro",
        "wth"
      ],
      [
        "at",
        "or"
      ],
      [
        "an",
        "k"
      ],
      [
        "an",
        "et"
      ],
      [
        "an",
        "ds"
      ],
      [
        "an",
        "ding"
      ],
      [
        "Ġan",
        "ti"
      ],
      [
        "Ġf",
        "act"
      ],
      [
        "Ġf",
        "ill"
      ],
      [
        "Ġf",
        "uel"
      ],
      [
        "Ġm",
        "m"
      ],
      [
        "Ġm",
        "it"
      ],
      [
        "Ġm",
        "gh"
      ],
      [
        "Ġm",
        "RNA"
      ],
      [
        "le",
        "d"
      ],
      [
        "Ġof",
        "f"
      ],
      [
        "is",
        "e"
      ],
      [
        "is",
        "sion"
      ],
      [
        "is",
        "ible"
      ],
      [
        "is",
        "enberg"
      ],
      [
        "Ġd",
        "A"
      ],
      [
        "Ġd",
        "ig"
      ],
      [
        "Ġd",
        "au"
      ],
      [
        "Ġd",
        "one"
      ],
      [
        "Ġin",
        "n"
      ],
      [
        "Ġin",
        "er"
      ],
      [
        "Ġin",
        "du"
      ],
      [
        "Ġin",
        "duction"
      ],
      [
        "Ġin",
        "fin"
      ],
      [
        "Ġin",
        "equ"
      ],
      [
        "Ġin",
        "side"
      ],
      [
        "Ġe",
        "volution"
      ],
      [
        "Ġe",
        "cos"
      ],
      [
        "Ġe",
        "psilon"
      ],
      [
        "Ġe",
        "ukary"
      ],
      [
        "Ġb",
        "lo"
      ],
      [
        "Ġb",
        "ody"
      ],
      [
        "Ġb",
        "oil"
      ],
      [
        "Ġb",
        "reak"
      ],
      [
        "or",
        "ding"
      ],
      [
        "ar",
        "ad"
      ],
      [
        "ar",
        "th"
      ],
      [
        "ar",
        "ization"
      ],
      [
        "ct",
        "ang"
      ],
      [
        "ct",
        "ants"
      ],
      [
        "Ġw",
        "at"
      ],
      [
        "Ġw",
        "ere"
      ],
      [
        "Ġto",
        "pol"
      ],
      [
        "ent",
        "ropy"
      ],
      [
        "Ġn",
        "et"
      ],
      [
        "Ġn",
        "rt"
      ],
      [
        "Ġis",
        "ol"
      ],
      [
        "om",
        "bs"
      ],
      [
        "Ġre",
        "duction"
      ],
      [
        "Ġre",
        "ctang"
      ],
      [
        "as",
        "ts"
      ],
      [
        "ol",
        "d"
      ],
      [
        "Ġg",
        "am"
      ],
      [
        "Ġg",
        "ain"
      ],
      [
        "Ġg",
        "ases"
      ],
      [
        "Ġg",
        "ibbs"
      ],
      [
        "Ġg",
        "reater"
      ],
      [
        "Ġg",
        "rowth"
      ],
      [
        "Ġl",
        "ow"
      ],
      [
        "Ġl",
        "oc"
      ],
      [
        "Ġl",
        "arge"
      ],
      [
        "ri",
        "er"
      ],
      [
        "ri",
        "fication"
      ],
      [
        "os",
        "ph"
      ],
      [
        "st",
        "ra"
      ],
      [
        "ul",
        "f"
      ],
      [
        "ul",
        "er"
      ],
      [
        "Ġpro",
        "v"
      ],
      [
        "Ġpro",
        "ves"
      ],
      [
        "Ġpro",
        "pos"
      ],
      [
        "ve",
        "ment"
      ],
      [
        "Ġh",
        "bar"
      ],
      [
        "Ġh",
        "alf"
      ],
      [
        "Ġcon",
        "dition"
      ],
      [
        "Ġcon",
        "ju"
      ],
      [
        "Ġcon",
        "tin"
      ],
      [
        "Ġcon",
        "verg"
      ],
      [
        "Ġen",
        "g"
      ],
      [
        "Ġen",
        "orm"
      ],
      [
        "id",
        "er"
      ],
      [
        "im",
        "al"
      ],
      [
        "Ġst",
        "ran"
      ],
      [
        "Ġst",
        "ored"
      ],
      [
        "Ġst",
        "andard"
      ],
      [
        "Ġr",
        "and"
      ],
      [
        "Ġr",
        "ank"
      ],
      [
        "Ġfor",
        "ward"
      ],
      [
        "Ġequ",
        "iv"
      ],
      [
        "Ġal",
        "co"
      ],
      [
        "Ġal",
        "ways"
      ],
      [
        "ur",
        "ons"
      ],
      [
        "Ġat",
        "p"
      ],
      [
        "ir",
        "es"
      ],
      [
        "Ġsp",
        "l"
      ],
      [
        "Ġsp",
        "inning"
      ],
      [
        "ch",
        "ing"
      ],
      [
        "ot",
        "osynthesis"
      ],
      [
        "ati",
        "ves"
      ],
      [
        "od",
        "ivers"
      ],
      [
        "ut",
        "ative"
      ],
      [
        "Ġint",
        "erv"
      ],
      [
        "il",
        "d"
      ],
      [
        "Ġv",
        "ac"
      ],
      [
        "Ġch",
        "arge"
      ],
      [
        "Ġch",
        "loro"
      ],
      [
        "ab",
        "ol"
      ],
      [
        "ab",
        "sol"
      ],
      [
        "du",
        "ct"
      ],
      [
        "du",
        "ce"
      ],
      [
        "Ġac",
        "ti"
      ],
      [
        "ith",
        "m"
      ],
      [
        "eg",
        "ativity"
      ],
      [
        "pl",
        "ain"
      ],
      [
        "pl",
        "asts"
      ],
      [
        "Ġmo",
        "vement"
      ],
      [
        "Ġgen",
        "ome"
      ],
      [
        "ra",
        "tic"
      ],
      [
        "ta",
        "u"
      ],
      [
        "ta",
        "int"
      ],
      [
        "Ġk",
        "B"
      ],
      [
        "Ġcom",
        "b"
      ],
      [
        "Ġex",
        "p"
      ],
      [
        "Ġex",
        "t"
      ],
      [
        "Ġex",
        "plain"
      ],
      [
        "ag",
        "ore"
      ],
      [
        "ag",
        "inary"
      ],
      [
        "hem",
        "atic"
      ],
      [
        "Ġrea",
        "ctants"
      ],
      [
        "Ġdi",
        "ox"
      ],
      [
        "Ġdi",
        "ploid"
      ],
      [
        "ment",
        "ary"
      ],
      [
        "Ġ(",
        "-"
      ],
      [
        "Ġli",
        "fe"
      ],
      [
        "ystem",
        "s"
      ],
      [
        "pro",
        "tein"
      ],
      [
        "pro",
        "duct"
      ],
      [
        "eri",
        "a"
      ],
      [
        "ter",
        "act"
      ],
      [
        "ad",
        "ratic"
      ],
      [
        "gen",
        "er"
      ],
      [
        "ver",
        "age"
      ],
      [
        "ĠC",
        "O"
      ],
      [
        "ĠF",
        "e"
      ],
      [
        "ĠF",
        "or"
      ],
      [
        "Ġun",
        "less"
      ],
      [
        "Ġun",
        "ivers"
      ],
      [
        "Ġun",
        "cer"
      ],
      [
        "Ġsystem",
        "s"
      ],
      [
        "Ġwh",
        "at"
      ],
      [
        "Ġprodu",
        "ced"
      ],
      [
        "Ġlaw",
        "s"
      ],
      [
        "Ġdes",
        "tro"
      ],
      [
        "Ġdes",
        "pite"
      ],
      [
        "Ġinteg",
        "ration"
      ],
      [
        "iz",
        "es"
      ],
      [
        "Ġtrans",
        "lation"
      ],
      [
        "Ġbe",
        "ing"
      ],
      [
        "Ġbe",
        "ha"
      ],
      [
        "pr",
        "essure"
      ],
      [
        "Ġhe",
        "rt"
      ],
      [
        "Ġhe",
        "av"
      ],
      [
        "Ġhe",
        "ight"
      ],
      [
        "Ġhe",
        "ld"
      ],
      [
        "Ġde",
        "vi"
      ],
      [
        "Ġde",
        "pend"
      ],
      [
        "ay",
        "es"
      ],
      [
        "ph",
        "otosynthesis"
      ],
      [
        "Ġse",
        "quen"
      ],
      [
        "Ġse",
        "par"
      ],
      [
        "Ġinc",
        "rease"
      ],
      [
        "Ġstr",
        "ess"
      ],
      [
        "Ġi",
        "f"
      ],
      [
        "Ġco",
        "ord"
      ],
      [
        "Ġco",
        "pies"
      ],
      [
        "Ġcar",
        "ry"
      ],
      [
        "Ġpar",
        "tial"
      ],
      [
        "Ġpar",
        "tition"
      ],
      [
        "Ġcons",
        "um"
      ],
      [
        "Ġcons",
        "ist"
      ],
      [
        "Ġcons",
        "titu"
      ],
      [
        "Ġcons",
        "ider"
      ],
      [
        "Ġspace",
        "time"
      ],
      [
        "agn",
        "eti"
      ],
      [
        "ein",
        "berg"
      ],
      [
        "Ġpl",
        "anet"
      ],
      [
        "Ġmet",
        "h"
      ],
      [
        "Ġmet",
        "al"
      ],
      [
        "Ġmet",
        "abol"
      ],
      [
        "Ġnucle",
        "ar"
      ],
      [
        "me",
        "iosis"
      ],
      [
        "Ġqu",
        "anti"
      ],
      [
        "Ġqu",
        "adratic"
      ],
      [
        "int",
        "eg"
      ],
      [
        "ard",
        "y"
      ],
      [
        "ard",
        "less"
      ],
      [
        "Ġne",
        "w"
      ],
      [
        "Ġne",
        "ut"
      ],
      [
        "Ġne",
        "urons"
      ],
      [
        "Ġproper",
        "ty"
      ],
      [
        "Ġresp",
        "ect"
      ],
      [
        "Ġcl",
        "ass"
      ],
      [
        "Ġsh",
        "ow"
      ],
      [
        "Ġsh",
        "are"
      ],
      [
        "Ġsh",
        "if"
      ],
      [
        "Ġsh",
        "ape"
      ],
      [
        "Ġdiv",
        "ision"
      ],
      [
        "Ġdiv",
        "ergence"
      ],
      [
        "Ġdec",
        "reases"
      ],
      [
        "Ġderiv",
        "atives"
      ],
      [
        "Ġele",
        "vation"
      ],
      [
        "Ġrel",
        "ativity"
      ],
      [
        "Ġha",
        "ploid"
      ],
      [
        "Ġacc",
        "ur"
      ],
      [
        "Ġacc",
        "ording"
      ],
      [
        "Ġhydro",
        "x"
      ],
      [
        "ma",
        "x"
      ],
      [
        "ĠT",
        "he"
      ],
      [
        "Ġim",
        "pos"
      ],
      [
        "Ġim",
        "plies"
      ],
      [
        "Ġim",
        "mun"
      ],
      [
        "Ġim",
        "aginary"
      ],
      [
        "Ġam",
        "mon"
      ],
      [
        "Ġam",
        "oun"
      ],
      [
        "Ġpos",
        "iti"
      ],
      [
        "Ġdist",
        "ance"
      ],
      [
        "Ġreg",
        "ion"
      ],
      [
        "Ġreg",
        "ardless"
      ],
      [
        "Ġdiffer",
        "ence"
      ],
      [
        "ou",
        "gh"
      ],
      [
        "ou",
        "rier"
      ],
      [
        "ox",
        "idation"
      ],
      [
        "Ġtri",
        "gon"
      ],
      [
        "Ġcol",
        "lection"
      ],
      [
        "Ġcol",
        "lis"
      ],
      [
        "Ġmulti",
        "plic"
      ],
      [
        "Ġdis",
        "sol"
      ],
      [
        "Ġgra",
        "dient"
      ],
      [
        "Ġgra",
        "vitation"
      ],
      [
        "Ġlik",
        "eli"
      ],
      [
        "Ġorbit",
        "al"
      ],
      [
        "fficient",
        "ly"
      ],
      [
        "ĠA",
        "TP"
      ],
      [
        "Ġle",
        "ast"
      ],
      [
        "Ġent",
        "hal"
      ],
      [
        "Ġid",
        "entical"
      ],
      [
        "Ġar",
        "rang"
      ],
      [
        "Ġcur",
        "r"
      ],
      [
        "Ġcur",
        "vature"
      ],
      [
        "Ġox",
        "id"
      ],
      [
        "Ġang",
        "les"
      ],
      [
        "Ġind",
        "ic"
      ],
      [
        "Ġind",
        "iv"
      ],
      [
        "Ġind",
        "ependent"
      ],
      [
        "Ġinvol",
        "ves"
      ],
      [
        "Ġinvol",
        "ving"
      ],
      [
        "Ġcomple",
        "t"
      ],
      [
        "Ġproduct",
        "s"
      ],
      [
        "Ġphot",
        "ons"
      ],
      [
        "Ġphys",
        "ics"
      ],
      [
        "Ġprotein",
        "s"
      ],
      [
        "Ġelement",
        "s"
      ],
      [
        "Ġvolum",
        "es"
      ],
      [
        "Ġenvironment",
        "al"
      ],
      [
        "mit",
        "osis"
      ],
      [
        "pol",
        "arization"
      ],
      [
        "val",
        "ue"
      ],
      [
        "val",
        "ues"
      ],
      [
        "ĠR",
        "C"
      ],
      [
        "ĠS",
        "ch"
      ],
      [
        "Ġtra",
        "its"
      ],
      [
        "Ġtra",
        "vel"
      ],
      [
        "Ġscal",
        "es"
      ],
      [
        "Ġobs",
        "erved"
      ],
      [
        "Ġpol",
        "ar"
      ],
      [
        "Ġmod",
        "if"
      ],
      [
        "Ġmod",
        "ific"
      ],
      [
        "Ġgrou",
        "ps"
      ],
      [
        "Ġlim",
        "its"
      ],
      [
        "Ġgener",
        "ates"
      ],
      [
        "Ġcomm",
        "on"
      ],
      [
        "Ġcomm",
        "un"
      ],
      [
        "Ġcomm",
        "utative"
      ],
      [
        "Ġstruct",
        "ures"
      ],
      [
        "Ġpopul",
        "ations"
      ],
      [
        "Ġapproxim",
        "ated"
      ],
      [
        "Ġdetermin",
        "ant"
      ],
      [
        "aus",
        "e"
      ],
      [
        "ced",
        "ing"
      ],
      [
        "fer",
        "ence"
      ],
      [
        "ho",
        "od"
      ],
      [
        "li",
        "ght"
      ],
      [
        "trans",
        "cription"
      ],
      [
        "Ġu",
        "pon"
      ],
      [
        "Ġsur",
        "round"
      ],
      [
        "Ġsur",
        "face"
      ],
      [
        "Ġoper",
        "on"
      ],
      [
        "Ġoper",
        "ation"
      ],
      [
        "Ġma",
        "xim"
      ],
      [
        "Ġmu",
        "st"
      ],
      [
        "Ġdri",
        "ve"
      ],
      [
        "Ġdri",
        "ft"
      ],
      [
        "Ġeff",
        "ects"
      ],
      [
        "omet",
        "ric"
      ],
      [
        "Ġrele",
        "ase"
      ],
      [
        "Ġatm",
        "osphere"
      ],
      [
        "Ġinter",
        "actions"
      ],
      [
        "Ġallow",
        "ing"
      ],
      [
        "Ġtransform",
        "ation"
      ],
      [
        "Ġrespons",
        "e"
      ],
      [
        "Ġrespons",
        "es"
      ],
      [
        "Ġsatisf",
        "ying"
      ],
      [
        "Ġmesseng",
        "ers"
      ],
      [
        "bi",
        "otic"
      ],
      [
        "cell",
        "ular"
      ],
      [
        "ĠM",
        "eV"
      ],
      [
        "rost",
        "ates"
      ],
      [
        "Ġdo",
        "p"
      ],
      [
        "Ġev",
        "en"
      ],
      [
        "Ġeigen",
        "vector"
      ],
      [
        "Ġbas",
        "is"
      ],
      [
        "Ġbas",
        "ic"
      ],
      [
        "Ġbec",
        "ause"
      ],
      [
        "Ġbact",
        "erial"
      ],
      [
        "Ġbact",
        "eria"
      ],
      [
        "ord",
        "er"
      ],
      [
        "Ġrepro",
        "duction"
      ],
      [
        "Ġrepro",
        "duce"
      ],
      [
        "Ġge",
        "ometry"
      ],
      [
        "Ġconver",
        "ts"
      ],
      [
        "Ġconver",
        "ted"
      ],
      [
        "Ġrati",
        "o"
      ],
      [
        "Ġrati",
        "os"
      ],
      [
        "Ġalter",
        "ed"
      ],
      [
        "Ġexact",
        "ly"
      ],
      [
        "Ġcoun",
        "teract"
      ],
      [
        "Ġdecompos",
        "es"
      ],
      [
        "Ġregul",
        "ate"
      ],
      [
        "bond",
        "ing"
      ],
      [
        "ole",
        "cular"
      ],
      [
        "other",
        "mic"
      ],
      [
        "Ġri",
        "ght"
      ],
      [
        "Ġess",
        "ential"
      ],
      [
        "Ġion",
        "ic"
      ],
      [
        "Ġtyp",
        "e"
      ],
      [
        "enz",
        "yme"
      ],
      [
        "Ġcat",
        "alyst"
      ],
      [
        "Ġcir",
        "c"
      ],
      [
        "Ġsem",
        "iperme"
      ],
      [
        "Ġmic",
        "rostates"
      ],
      [
        "Ġmed",
        "ium"
      ],
      [
        "Ġbill",
        "ion"
      ],
      [
        "Ġrequ",
        "ires"
      ],
      [
        "ull",
        "ity"
      ],
      [
        "Ġconn",
        "ects"
      ],
      [
        "Ġstatis",
        "tical"
      ],
      [
        "onserv",
        "ation"
      ],
      [
        "Ġcompos",
        "ition"
      ],
      [
        "Ġcombin",
        "es"
      ],
      [
        "Ġexpon",
        "ential"
      ],
      [
        "Ġassoci",
        "ativity"
      ],
      [
        "Ġintegr",
        "als"
      ],
      [
        "ogad",
        "ro"
      ],
      [
        "Ġprec",
        "ision"
      ],
      [
        "Ġpropag",
        "ation"
      ],
      [
        "Ġspecial",
        "ized"
      ],
      [
        "Ġobserv",
        "ers"
      ],
      [
        "Ġbiolog",
        "ical"
      ],
      [
        "Ġup",
        "d"
      ],
      [
        "Ġreleas",
        "ing"
      ],
      [
        "Ġoscill",
        "ating"
      ],
      [
        "imension",
        "al"
      ],
      [
        "electron",
        "egativity"
      ],
      [
        "ochondri",
        "a"
      ],
      [
        "Av",
        "ogadro"
      ],
      [
        "col",
        "lig"
      ],
      [
        "nucle",
        "ar"
      ],
      [
        "tab",
        "ly"
      ],
      [
        "war",
        "z"
      ],
      [
        "yth",
        "agore"
      ],
      [
        "Ġer",
        "ror"
      ],
      [
        "Ġter",
        "ms"
      ],
      [
        "Ġtarg",
        "et"
      ],
      [
        "Ġabs",
        "or"
      ],
      [
        "Ġaxi",
        "oms"
      ],
      [
        "onucle",
        "ic"
      ],
      [
        "Ġcre",
        "ated"
      ],
      [
        "Ġcaus",
        "ed"
      ],
      [
        "Ġsod",
        "ium"
      ],
      [
        "Ġsour",
        "ce"
      ],
      [
        "roding",
        "er"
      ],
      [
        "Ġdig",
        "its"
      ],
      [
        "Ġdau",
        "ghter"
      ],
      [
        "Ġinfin",
        "ite"
      ],
      [
        "Ġinequ",
        "ality"
      ],
      [
        "Ġeukary",
        "otic"
      ],
      [
        "Ġblo",
        "od"
      ],
      [
        "Ġboil",
        "ing"
      ],
      [
        "Ġbreak",
        "s"
      ],
      [
        "Ġtopol",
        "og"
      ],
      [
        "Ġisol",
        "ated"
      ],
      [
        "Ġcondition",
        "s"
      ],
      [
        "Ġconju",
        "gate"
      ],
      [
        "Ġcontin",
        "uous"
      ],
      [
        "Ġconverg",
        "es"
      ],
      [
        "Ġenorm",
        "ous"
      ],
      [
        "Ġrand",
        "om"
      ],
      [
        "Ġequiv",
        "alence"
      ],
      [
        "Ġalco",
        "hol"
      ],
      [
        "odivers",
        "ity"
      ],
      [
        "Ġinterv",
        "al"
      ],
      [
        "Ġvac",
        "uum"
      ],
      [
        "absol",
        "ute"
      ],
      [
        "taint",
        "y"
      ],
      [
        "Ġexplain",
        "s"
      ],
      [
        "Ġdiox",
        "ide"
      ],
      [
        "Ġuncer",
        "tainty"
      ],
      [
        "Ġdestro",
        "yed"
      ],
      [
        "Ġhert",
        "z"
      ],
      [
        "Ġheav",
        "y"
      ],
      [
        "Ġsequen",
        "ces"
      ],
      [
        "Ġcoord",
        "inates"
      ],
      [
        "Ġcarry",
        "ing"
      ],
      [
        "Ġconstitu",
        "ent"
      ],
      [
        "agneti",
        "sm"
      ],
      [
        "Ġquanti",
        "ties"
      ],
      [
        "Ġimmun",
        "e"
      ],
      [
        "Ġammon",
        "ia"
      ],
      [
        "Ġcollis",
        "ions"
      ],
      [
        "Ġdissol",
        "ved"
      ],
      [
        "Ġlikeli",
        "hood"
      ],
      [
        "Ġenthal",
        "py"
      ],
      [
        "Ġarrang",
        "ements"
      ],
      [
        "Ġmodific",
        "ations"
      ],
      [
        "Ġsemiperme",
        "able"
      ],
      [
        "collig",
        "ative"
      ],
      [
        "ythagore",
        "an"
      ],
      [
        "!",
        "("
      ],
      [
        "!",
        "="
      ],
      [
        "!",
        "}{"
      ],
      [
        "(",
        "-"
      ],
      [
        "(",
        "\\"
      ],
      [
        ")",
        "("
      ],
      [
        ")",
        ">"
      ],
      [
        ")",
        "^("
      ],
      [
        "*",
        "("
      ],
      [
        "*",
        "<"
      ],
      [
        "*",
        "["
      ],
      [
        "+",
        ":"
      ],
      [
        "+",
        "]"
      ],
      [
        ",",
        "["
      ],
      [
        "-",
        ">"
      ],
      [
        "/",
        "-"
      ],
      [
        "/",
        "["
      ],
      [
        ">",
        "|"
      ],
      [
        ">",
        "*<"
      ],
      [
        "A",
        "TP"
      ],
      [
        "A",
        "DH"
      ],
      [
        "B",
        "o"
      ],
      [
        "B",
        "ayes"
      ],
      [
        "C",
        "a"
      ],
      [
        "C",
        "onservation"
      ],
      [
        "D",
        "imensional"
      ],
      [
        "E",
        "n"
      ],
      [
        "E",
        "uler"
      ],
      [
        "F",
        "F"
      ],
      [
        "F",
        "d"
      ],
      [
        "F",
        "e"
      ],
      [
        "F",
        "ourier"
      ],
      [
        "G",
        "M"
      ],
      [
        "G",
        "m"
      ],
      [
        "G",
        "ibbs"
      ],
      [
        "H",
        "e"
      ],
      [
        "H",
        "g"
      ],
      [
        "H",
        "ess"
      ],
      [
        "H",
        "Cl"
      ],
      [
        "H",
        "ardy"
      ],
      [
        "I",
        "G"
      ],
      [
        "I",
        "L"
      ],
      [
        "K",
        "E"
      ],
      [
        "K",
        "M"
      ],
      [
        "K",
        "a"
      ],
      [
        "K",
        "m"
      ],
      [
        "L",
        "e"
      ],
      [
        "L",
        "ag"
      ],
      [
        "M",
        "m"
      ],
      [
        "M",
        "ent"
      ],
      [
        "M",
        "ax"
      ],
      [
        "N",
        "H"
      ],
      [
        "N",
        "ern"
      ],
      [
        "O",
        "IL"
      ],
      [
        "P",
        "E"
      ],
      [
        "P",
        "V"
      ],
      [
        "S",
        "I"
      ],
      [
        "S",
        "O"
      ],
      [
        "S",
        "to"
      ],
      [
        "T",
        "b"
      ],
      [
        "T",
        "he"
      ],
      [
        "T",
        "ay"
      ],
      [
        "W",
        "einberg"
      ],
      [
        "]",
        ")"
      ],
      [
        "]",
        "]"
      ],
      [
        "]",
        "/("
      ],
      [
        "]",
        ",["
      ],
      [
        "]",
        "/["
      ],
      [
        "^",
        "-"
      ],
      [
        "a",
        "O"
      ],
      [
        "a",
        "w"
      ],
      [
        "a",
        "el"
      ],
      [
        "a",
        "ction"
      ],
      [
        "a",
        "pl"
      ],
      [
        "a",
        "per"
      ],
      [
        "a",
        "ci"
      ],
      [
        "b",
        "c"
      ],
      [
        "b",
        "l"
      ],
      [
        "b",
        "u"
      ],
      [
        "b",
        "x"
      ],
      [
        "b",
        "ic"
      ],
      [
        "b",
        "ri"
      ],
      [
        "b",
        "st"
      ],
      [
        "b",
        "ox"
      ],
      [
        "b",
        "ility"
      ],
      [
        "b",
        "au"
      ],
      [
        "b",
        "eta"
      ],
      [
        "b",
        "ody"
      ],
      [
        "b",
        "ayes"
      ],
      [
        "c",
        "at"
      ],
      [
        "c",
        "ar"
      ],
      [
        "c",
        "ers"
      ],
      [
        "c",
        "ant"
      ],
      [
        "c",
        "ad"
      ],
      [
        "c",
        "ape"
      ],
      [
        "c",
        "hed"
      ],
      [
        "c",
        "onservation"
      ],
      [
        "d",
        "B"
      ],
      [
        "d",
        "U"
      ],
      [
        "d",
        "p"
      ],
      [
        "d",
        "r"
      ],
      [
        "d",
        "w"
      ],
      [
        "d",
        "z"
      ],
      [
        "d",
        "er"
      ],
      [
        "d",
        "es"
      ],
      [
        "d",
        "al"
      ],
      [
        "d",
        "it"
      ],
      [
        "d",
        "el"
      ],
      [
        "d",
        "iv"
      ],
      [
        "d",
        "eriv"
      ],
      [
        "d",
        "ens"
      ],
      [
        "d",
        "ox"
      ],
      [
        "d",
        "ization"
      ],
      [
        "d",
        "ependent"
      ],
      [
        "d",
        "iffer"
      ],
      [
        "d",
        "imensional"
      ],
      [
        "e",
        "o"
      ],
      [
        "e",
        "q"
      ],
      [
        "e",
        "u"
      ],
      [
        "e",
        "w"
      ],
      [
        "e",
        "an"
      ],
      [
        "e",
        "le"
      ],
      [
        "e",
        "as"
      ],
      [
        "e",
        "ch"
      ],
      [
        "e",
        "ad"
      ],
      [
        "e",
        "very"
      ],
      [
        "e",
        "volution"
      ],
      [
        "e",
        "psilon"
      ],
      [
        "e",
        "ep"
      ],
      [
        "e",
        "uler"
      ],
      [
        "f",
        "d"
      ],
      [
        "f",
        "l"
      ],
      [
        "f",
        "en"
      ],
      [
        "f",
        "re"
      ],
      [
        "f",
        "ers"
      ],
      [
        "f",
        "ter"
      ],
      [
        "f",
        "ix"
      ],
      [
        "f",
        "bau"
      ],
      [
        "g",
        "in"
      ],
      [
        "g",
        "um"
      ],
      [
        "g",
        "am"
      ],
      [
        "g",
        "li"
      ],
      [
        "h",
        "f"
      ],
      [
        "h",
        "m"
      ],
      [
        "h",
        "r"
      ],
      [
        "h",
        "is"
      ],
      [
        "h",
        "ib"
      ],
      [
        "h",
        "able"
      ],
      [
        "h",
        "orm"
      ],
      [
        "h",
        "ome"
      ],
      [
        "h",
        "bar"
      ],
      [
        "h",
        "cl"
      ],
      [
        "i",
        "e"
      ],
      [
        "i",
        "en"
      ],
      [
        "i",
        "re"
      ],
      [
        "i",
        "ot"
      ],
      [
        "i",
        "ence"
      ],
      [
        "i",
        "ties"
      ],
      [
        "i",
        "wt"
      ],
      [
        "i",
        "que"
      ],
      [
        "i",
        "osmosis"
      ],
      [
        "i",
        "ometry"
      ],
      [
        "i",
        "pp"
      ],
      [
        "j",
        "or"
      ],
      [
        "j",
        "ac"
      ],
      [
        "k",
        "B"
      ],
      [
        "k",
        "g"
      ],
      [
        "k",
        "in"
      ],
      [
        "k",
        "es"
      ],
      [
        "k",
        "ing"
      ],
      [
        "k",
        "ens"
      ],
      [
        "k",
        "ap"
      ],
      [
        "l",
        "im"
      ],
      [
        "l",
        "ch"
      ],
      [
        "l",
        "ates"
      ],
      [
        "l",
        "ine"
      ],
      [
        "l",
        "ies"
      ],
      [
        "m",
        "V"
      ],
      [
        "m",
        "es"
      ],
      [
        "m",
        "ation"
      ],
      [
        "m",
        "gh"
      ],
      [
        "m",
        "ut"
      ],
      [
        "m",
        "agnetic"
      ],
      [
        "m",
        "ary"
      ],
      [
        "m",
        "oment"
      ],
      [
        "m",
        "ulti"
      ],
      [
        "m",
        "otic"
      ],
      [
        "m",
        "ately"
      ],
      [
        "m",
        "ission"
      ],
      [
        "m",
        "olecular"
      ],
      [
        "n",
        "F"
      ],
      [
        "n",
        "O"
      ],
      [
        "n",
        "h"
      ],
      [
        "n",
        "s"
      ],
      [
        "n",
        "u"
      ],
      [
        "n",
        "ergy"
      ],
      [
        "n",
        "rt"
      ],
      [
        "n",
        "ry"
      ],
      [
        "n",
        "egative"
      ],
      [
        "n",
        "ewt"
      ],
      [
        "n",
        "olog"
      ],
      [
        "n",
        "RT"
      ],
      [
        "n",
        "ullity"
      ],
      [
        "n",
        "eu"
      ],
      [
        "o",
        "o"
      ],
      [
        "o",
        "p"
      ],
      [
        "o",
        "ti"
      ],
      [
        "o",
        "the"
      ],
      [
        "o",
        "ul"
      ],
      [
        "o",
        "od"
      ],
      [
        "o",
        "gen"
      ],
      [
        "o",
        "ich"
      ],
      [
        "o",
        "pol"
      ],
      [
        "o",
        "oth"
      ],
      [
        "o",
        "bi"
      ],
      [
        "o",
        "electric"
      ],
      [
        "p",
        "H"
      ],
      [
        "p",
        "a"
      ],
      [
        "p",
        "e"
      ],
      [
        "p",
        "m"
      ],
      [
        "p",
        "q"
      ],
      [
        "p",
        "v"
      ],
      [
        "p",
        "al"
      ],
      [
        "p",
        "or"
      ],
      [
        "p",
        "ri"
      ],
      [
        "p",
        "tic"
      ],
      [
        "p",
        "air"
      ],
      [
        "p",
        "ower"
      ],
      [
        "p",
        "ret"
      ],
      [
        "p",
        "othe"
      ],
      [
        "r",
        "u"
      ],
      [
        "r",
        "it"
      ],
      [
        "r",
        "um"
      ],
      [
        "r",
        "ons"
      ],
      [
        "r",
        "ine"
      ],
      [
        "r",
        "na"
      ],
      [
        "r",
        "ms"
      ],
      [
        "r",
        "ations"
      ],
      [
        "r",
        "hen"
      ],
      [
        "s",
        "on"
      ],
      [
        "s",
        "in"
      ],
      [
        "s",
        "em"
      ],
      [
        "s",
        "ur"
      ],
      [
        "s",
        "ch"
      ],
      [
        "s",
        "ig"
      ],
      [
        "s",
        "ine"
      ],
      [
        "s",
        "pr"
      ],
      [
        "s",
        "quare"
      ],
      [
        "s",
        "ue"
      ],
      [
        "s",
        "ign"
      ],
      [
        "s",
        "ible"
      ],
      [
        "s",
        "izes"
      ],
      [
        "t",
        "ri"
      ],
      [
        "t",
        "ul"
      ],
      [
        "t",
        "et"
      ],
      [
        "t",
        "ers"
      ],
      [
        "t",
        "ons"
      ],
      [
        "t",
        "ure"
      ],
      [
        "t",
        "ral"
      ],
      [
        "t",
        "ropy"
      ],
      [
        "t",
        "est"
      ],
      [
        "t",
        "ef"
      ],
      [
        "u",
        "is"
      ],
      [
        "u",
        "st"
      ],
      [
        "u",
        "its"
      ],
      [
        "u",
        "tivity"
      ],
      [
        "u",
        "ild"
      ],
      [
        "u",
        "bility"
      ],
      [
        "u",
        "fbau"
      ],
      [
        "v",
        "t"
      ],
      [
        "v",
        "ir"
      ],
      [
        "v",
        "als"
      ],
      [
        "v",
        "ergence"
      ],
      [
        "v",
        "ator"
      ],
      [
        "w",
        "s"
      ],
      [
        "w",
        "ay"
      ],
      [
        "w",
        "ork"
      ],
      [
        "x",
        "t"
      ],
      [
        "x",
        "ation"
      ],
      [
        "x",
        "ad"
      ],
      [
        "x",
        "ual"
      ],
      [
        "x",
        "FF"
      ],
      [
        "y",
        "rib"
      ],
      [
        "y",
        "na"
      ],
      [
        "y",
        "ear"
      ],
      [
        "y",
        "ram"
      ],
      [
        "z",
        "e"
      ],
      [
        "z",
        "ing"
      ],
      [
        "z",
        "ero"
      ],
      [
        "z",
        "eta"
      ],
      [
        "{",
        "\\"
      ],
      [
        "|",
        "<"
      ],
      [
        "}",
        ")"
      ],
      [
        "}",
        ","
      ],
      [
        "}",
        "\\"
      ],
      [
        "Ġ",
        ":"
      ],
      [
        "Ġ",
        ">"
      ],
      [
        "Ġ",
        "es"
      ],
      [
        "Ġ",
        "rough"
      ],
      [
        "Ġ",
        "ulti"
      ],
      [
        "Ġ",
        "DNA"
      ],
      [
        "Ġ",
        "|<"
      ],
      [
        "Ġt",
        "es"
      ],
      [
        "Ġt",
        "ro"
      ],
      [
        "Ġt",
        "is"
      ],
      [
        "Ġt",
        "ur"
      ],
      [
        "Ġt",
        "ell"
      ],
      [
        "Ġt",
        "ens"
      ],
      [
        "Ġt",
        "erm"
      ],
      [
        "Ġt",
        "ak"
      ],
      [
        "Ġt",
        "au"
      ],
      [
        "Ġt",
        "RNA"
      ],
      [
        "Ġt",
        "ear"
      ],
      [
        "Ġt",
        "ech"
      ],
      [
        "Ġa",
        "x"
      ],
      [
        "Ġa",
        "ero"
      ],
      [
        "Ġa",
        "que"
      ],
      [
        "Ġa",
        "str"
      ],
      [
        "Ġa",
        "round"
      ],
      [
        "Ġa",
        "verage"
      ],
      [
        "Ġa",
        "fter"
      ],
      [
        "Ġa",
        "ufbau"
      ],
      [
        "on",
        "in"
      ],
      [
        "on",
        "es"
      ],
      [
        "on",
        "al"
      ],
      [
        "on",
        "om"
      ],
      [
        "on",
        "ate"
      ],
      [
        "on",
        "ac"
      ],
      [
        "on",
        "str"
      ],
      [
        "he",
        "at"
      ],
      [
        "he",
        "not"
      ],
      [
        "he",
        "aper"
      ],
      [
        "in",
        "er"
      ],
      [
        "in",
        "ed"
      ],
      [
        "in",
        "itial"
      ],
      [
        "in",
        "dependent"
      ],
      [
        "in",
        "king"
      ],
      [
        "ti",
        "a"
      ],
      [
        "ti",
        "re"
      ],
      [
        "ti",
        "ce"
      ],
      [
        "ti",
        "ve"
      ],
      [
        "ti",
        "ble"
      ],
      [
        "ti",
        "mes"
      ],
      [
        "er",
        "ing"
      ],
      [
        "er",
        "ical"
      ],
      [
        "er",
        "ver"
      ],
      [
        "er",
        "ase"
      ],
      [
        "er",
        "til"
      ],
      [
        "en",
        "a"
      ],
      [
        "en",
        "es"
      ],
      [
        "en",
        "it"
      ],
      [
        "en",
        "us"
      ],
      [
        "en",
        "ding"
      ],
      [
        "en",
        "osine"
      ],
      [
        "en",
        "ew"
      ],
      [
        "Ġc",
        "d"
      ],
      [
        "Ġc",
        "od"
      ],
      [
        "Ġc",
        "ut"
      ],
      [
        "Ġc",
        "ry"
      ],
      [
        "Ġc",
        "ric"
      ],
      [
        "Ġc",
        "ath"
      ],
      [
        "Ġc",
        "ode"
      ],
      [
        "Ġc",
        "eas"
      ],
      [
        "Ġc",
        "ru"
      ],
      [
        "Ġc",
        "heaper"
      ],
      [
        "Ġs",
        "ing"
      ],
      [
        "Ġs",
        "un"
      ],
      [
        "Ġs",
        "ci"
      ],
      [
        "Ġs",
        "ine"
      ],
      [
        "Ġs",
        "ide"
      ],
      [
        "Ġs",
        "low"
      ],
      [
        "Ġs",
        "lo"
      ],
      [
        "Ġs",
        "atur"
      ],
      [
        "Ġs",
        "ays"
      ],
      [
        "Ġs",
        "ym"
      ],
      [
        "Ġs",
        "ome"
      ],
      [
        "Ġs",
        "elf"
      ],
      [
        "Ġs",
        "ize"
      ],
      [
        "Ġs",
        "ix"
      ],
      [
        "Ġs",
        "hel"
      ],
      [
        "Ġs",
        "ulf"
      ],
      [
        "Ġs",
        "yna"
      ],
      [
        "Ġo",
        "ct"
      ],
      [
        "Ġo",
        "ri"
      ],
      [
        "Ġo",
        "ce"
      ],
      [
        "Ġo",
        "pen"
      ],
      [
        "Ġo",
        "mega"
      ],
      [
        "Ġo",
        "hm"
      ],
      [
        "Ġo",
        "ptic"
      ],
      [
        "Ġthe",
        "ms"
      ],
      [
        "re",
        "d"
      ],
      [
        "re",
        "am"
      ],
      [
        "re",
        "act"
      ],
      [
        "re",
        "ma"
      ],
      [
        "re",
        "fore"
      ],
      [
        "al",
        "an"
      ],
      [
        "al",
        "ized"
      ],
      [
        "al",
        "pha"
      ],
      [
        "al",
        "izing"
      ],
      [
        "Ġp",
        "i"
      ],
      [
        "Ġp",
        "v"
      ],
      [
        "Ġp",
        "as"
      ],
      [
        "Ġp",
        "ers"
      ],
      [
        "Ġp",
        "ow"
      ],
      [
        "Ġp",
        "ull"
      ],
      [
        "Ġp",
        "hen"
      ],
      [
        "Ġp",
        "end"
      ],
      [
        "Ġp",
        "ythagorean"
      ],
      [
        "Ġp",
        "Ka"
      ],
      [
        "Ġp",
        "eo"
      ],
      [
        "Ġp",
        "pm"
      ],
      [
        "Ġp",
        "yram"
      ],
      [
        "Ġp",
        "henot"
      ],
      [
        "ro",
        "om"
      ],
      [
        "ro",
        "du"
      ],
      [
        "ro",
        "ly"
      ],
      [
        "ro",
        "trans"
      ],
      [
        "ro",
        "des"
      ],
      [
        "ro",
        "gli"
      ],
      [
        "tion",
        "s"
      ],
      [
        "at",
        "a"
      ],
      [
        "at",
        "p"
      ],
      [
        "at",
        "ory"
      ],
      [
        "at",
        "her"
      ],
      [
        "at",
        "eli"
      ],
      [
        "at",
        "oms"
      ],
      [
        "at",
        "ements"
      ],
      [
        "at",
        "tice"
      ],
      [
        "an",
        "s"
      ],
      [
        "an",
        "es"
      ],
      [
        "an",
        "ent"
      ],
      [
        "an",
        "ol"
      ],
      [
        "an",
        "ate"
      ],
      [
        "an",
        "ces"
      ],
      [
        "Ġan",
        "tic"
      ],
      [
        "Ġan",
        "ces"
      ],
      [
        "Ġan",
        "other"
      ],
      [
        "Ġan",
        "ode"
      ],
      [
        "Ġf",
        "it"
      ],
      [
        "Ġf",
        "as"
      ],
      [
        "Ġf",
        "ol"
      ],
      [
        "Ġf",
        "ul"
      ],
      [
        "Ġf",
        "ur"
      ],
      [
        "Ġf",
        "il"
      ],
      [
        "Ġf",
        "ine"
      ],
      [
        "Ġf",
        "ib"
      ],
      [
        "Ġf",
        "eed"
      ],
      [
        "Ġf",
        "all"
      ],
      [
        "Ġf",
        "ric"
      ],
      [
        "Ġf",
        "ast"
      ],
      [
        "Ġf",
        "oss"
      ],
      [
        "Ġf",
        "ram"
      ],
      [
        "Ġf",
        "ission"
      ],
      [
        "Ġf",
        "arad"
      ],
      [
        "Ġf",
        "ourier"
      ],
      [
        "Ġf",
        "ertil"
      ],
      [
        "Ġm",
        "v"
      ],
      [
        "Ġm",
        "ut"
      ],
      [
        "Ġm",
        "ig"
      ],
      [
        "Ġm",
        "ain"
      ],
      [
        "Ġm",
        "ac"
      ],
      [
        "Ġm",
        "ach"
      ],
      [
        "Ġm",
        "ill"
      ],
      [
        "Ġm",
        "ak"
      ],
      [
        "Ġm",
        "ost"
      ],
      [
        "Ġm",
        "agnetism"
      ],
      [
        "is",
        "k"
      ],
      [
        "is",
        "m"
      ],
      [
        "is",
        "om"
      ],
      [
        "is",
        "pr"
      ],
      [
        "is",
        "ely"
      ],
      [
        "is",
        "cos"
      ],
      [
        "Ġd",
        "E"
      ],
      [
        "Ġd",
        "L"
      ],
      [
        "Ġd",
        "V"
      ],
      [
        "Ġd",
        "m"
      ],
      [
        "Ġd",
        "r"
      ],
      [
        "Ġd",
        "t"
      ],
      [
        "Ġd",
        "v"
      ],
      [
        "Ġd",
        "om"
      ],
      [
        "Ġd",
        "em"
      ],
      [
        "Ġd",
        "eg"
      ],
      [
        "Ġd",
        "eri"
      ],
      [
        "Ġd",
        "og"
      ],
      [
        "Ġd",
        "eloc"
      ],
      [
        "Ġd",
        "ynam"
      ],
      [
        "Ġd",
        "imens"
      ],
      [
        "Ġd",
        "imension"
      ],
      [
        "Ġd",
        "onate"
      ],
      [
        "Ġd",
        "enit"
      ],
      [
        "Ġd",
        "ata"
      ],
      [
        "Ġin",
        "st"
      ],
      [
        "Ġin",
        "ver"
      ],
      [
        "Ġin",
        "stant"
      ],
      [
        "Ġin",
        "vers"
      ],
      [
        "Ġin",
        "itial"
      ],
      [
        "Ġin",
        "fl"
      ],
      [
        "Ġe",
        "V"
      ],
      [
        "Ġe",
        "th"
      ],
      [
        "Ġe",
        "vol"
      ],
      [
        "Ġe",
        "ffic"
      ],
      [
        "Ġe",
        "mits"
      ],
      [
        "Ġe",
        "arth"
      ],
      [
        "Ġe",
        "fficiently"
      ],
      [
        "Ġe",
        "dit"
      ],
      [
        "Ġe",
        "mission"
      ],
      [
        "it",
        "ed"
      ],
      [
        "it",
        "her"
      ],
      [
        "Ġb",
        "x"
      ],
      [
        "Ġb",
        "ent"
      ],
      [
        "Ġb",
        "ra"
      ],
      [
        "Ġb",
        "ran"
      ],
      [
        "Ġb",
        "all"
      ],
      [
        "Ġb",
        "ases"
      ],
      [
        "Ġb",
        "ound"
      ],
      [
        "Ġb",
        "ombs"
      ],
      [
        "Ġb",
        "uild"
      ],
      [
        "Ġb",
        "ending"
      ],
      [
        "Ġb",
        "alan"
      ],
      [
        "ic",
        "ular"
      ],
      [
        "ic",
        "ine"
      ],
      [
        "ic",
        "onserv"
      ],
      [
        "or",
        "es"
      ],
      [
        "or",
        "ent"
      ],
      [
        "or",
        "ine"
      ],
      [
        "or",
        "gan"
      ],
      [
        "or",
        "ted"
      ],
      [
        "or",
        "ie"
      ],
      [
        "or",
        "test"
      ],
      [
        "ar",
        "ide"
      ],
      [
        "ar",
        "ming"
      ],
      [
        "ar",
        "ithm"
      ],
      [
        "ct",
        "ly"
      ],
      [
        "ct",
        "ose"
      ],
      [
        "ing",
        "s"
      ],
      [
        "ing",
        "uis"
      ],
      [
        "Ġw",
        "as"
      ],
      [
        "Ġw",
        "all"
      ],
      [
        "Ġw",
        "einberg"
      ],
      [
        "ation",
        "als"
      ],
      [
        "ation",
        "ary"
      ],
      [
        "el",
        "ves"
      ],
      [
        "el",
        "vin"
      ],
      [
        "qu",
        "antum"
      ],
      [
        "Ġto",
        "kens"
      ],
      [
        "ed",
        "s"
      ],
      [
        "ed",
        "ean"
      ],
      [
        "ent",
        "ing"
      ],
      [
        "Ġn",
        "or"
      ],
      [
        "Ġn",
        "ons"
      ],
      [
        "Ġn",
        "eed"
      ],
      [
        "Ġn",
        "erv"
      ],
      [
        "Ġn",
        "orm"
      ],
      [
        "Ġn",
        "ature"
      ],
      [
        "Ġn",
        "RT"
      ],
      [
        "Ġn",
        "ullity"
      ],
      [
        "om",
        "er"
      ],
      [
        "om",
        "ega"
      ],
      [
        "om",
        "ena"
      ],
      [
        "Ġre",
        "ve"
      ],
      [
        "Ġre",
        "press"
      ],
      [
        "Ġre",
        "volution"
      ],
      [
        "Ġre",
        "com"
      ],
      [
        "Ġre",
        "plic"
      ],
      [
        "Ġre",
        "gener"
      ],
      [
        "Ġre",
        "polarization"
      ],
      [
        "Ġre",
        "ceding"
      ],
      [
        "Ġre",
        "ference"
      ],
      [
        "Ġre",
        "dox"
      ],
      [
        "Ġre",
        "fers"
      ],
      [
        "Ġre",
        "pair"
      ],
      [
        "as",
        "is"
      ],
      [
        "the",
        "ta"
      ],
      [
        "Ġth",
        "ir"
      ],
      [
        "Ġth",
        "ous"
      ],
      [
        "Ġth",
        "ose"
      ],
      [
        "Ġth",
        "ough"
      ],
      [
        "ol",
        "es"
      ],
      [
        "ol",
        "ine"
      ],
      [
        "ol",
        "ving"
      ],
      [
        "Ġg",
        "lan"
      ],
      [
        "Ġg",
        "ive"
      ],
      [
        "Ġg",
        "old"
      ],
      [
        "Ġg",
        "ood"
      ],
      [
        "um",
        "e"
      ],
      [
        "um",
        "ps"
      ],
      [
        "um",
        "ference"
      ],
      [
        "um",
        "ns"
      ],
      [
        "Ġl",
        "n"
      ],
      [
        "Ġl",
        "ig"
      ],
      [
        "Ġl",
        "ist"
      ],
      [
        "Ġl",
        "ower"
      ],
      [
        "Ġl",
        "inking"
      ],
      [
        "Ġl",
        "attice"
      ],
      [
        "ri",
        "al"
      ],
      [
        "un",
        "ivers"
      ],
      [
        "un",
        "tably"
      ],
      [
        "os",
        "ac"
      ],
      [
        "os",
        "ym"
      ],
      [
        "os",
        "ome"
      ],
      [
        "os",
        "ystems"
      ],
      [
        "ce",
        "pt"
      ],
      [
        "ce",
        "eds"
      ],
      [
        "st",
        "s"
      ],
      [
        "st",
        "em"
      ],
      [
        "st",
        "rom"
      ],
      [
        "st",
        "ein"
      ],
      [
        "st",
        "andard"
      ],
      [
        "st",
        "anding"
      ],
      [
        "st",
        "oich"
      ],
      [
        "st",
        "ream"
      ],
      [
        "st",
        "rial"
      ],
      [
        "ul",
        "um"
      ],
      [
        "ul",
        "taneous"
      ],
      [
        "ul",
        "ombs"
      ],
      [
        "Ġpro",
        "ceeds"
      ],
      [
        "Ġh",
        "ot"
      ],
      [
        "Ġh",
        "ab"
      ],
      [
        "Ġh",
        "ist"
      ],
      [
        "Ġh",
        "ost"
      ],
      [
        "Ġh",
        "old"
      ],
      [
        "Ġh",
        "ardy"
      ],
      [
        "Ġh",
        "arming"
      ],
      [
        "Ġh",
        "oles"
      ],
      [
        "Ġcon",
        "du"
      ],
      [
        "Ġcon",
        "vers"
      ],
      [
        "Ġcon",
        "stra"
      ],
      [
[...]
